<pad>	0
<unk>	0
<s>	0
</s>	0
▁t	-0
▁a	-1
he	-2
in	-3
re	-4
ou	-5
▁w	-6
▁the	-7
▁s	-8
▁I	-9
on	-10
▁c	-11
▁b	-12
▁m	-13
er	-14
is	-15
▁to	-16
ha	-17
it	-18
or	-19
▁f	-20
▁p	-21
an	-22
en	-23
▁y	-24
ing	-25
▁d	-26
▁you	-27
le	-28
▁o	-29
es	-30
ll	-31
▁an	-32
ed	-33
at	-34
▁in	-35
▁g	-36
▁l	-37
om	-38
as	-39
ar	-40
ve	-41
▁is	-42
▁n	-43
▁of	-44
▁be	-45
▁and	-46
▁T	-47
▁ha	-48
us	-49
ic	-50
ay	-51
▁it	-52
▁re	-53
hat	-54
▁e	-55
ow	-56
ot	-57
▁th	-58
ion	-59
et	-60
al	-61
ent	-62
▁for	-63
▁on	-64
ct	-65
ro	-66
ld	-67
▁h	-68
▁we	-69
ke	-70
▁The	-71
ce	-72
ut	-73
▁that	-74
▁W	-75
im	-76
id	-77
▁me	-78
oo	-79
ly	-80
▁st	-81
st	-82
ill	-83
gh	-84
▁have	-85
ith	-86
ri	-87
ver	-88
am	-89
▁with	-90
▁can	-91
▁are	-92
if	-93
ch	-94
ore	-95
▁he	-96
▁so	-97
ter	-98
▁my	-99
un	-100
out	-101
ation	-102
▁do	-103
ould	-104
ir	-105
ad	-106
▁will	-107
▁pro	-108
▁A	-109
▁S	-110
▁this	-111
ur	-112
se	-113
▁ne	-114
▁as	-115
ant	-116
▁li	-117
end	-118
▁at	-119
▁your	-120
▁com	-121
▁was	-122
▁go	-123
ght	-124
▁It	-125
pp	-126
▁se	-127
use	-128
ck	-129
her	-130
▁not	-131
▁H	-132
▁con	-133
▁Y	-134
all	-135
▁sh	-136
ge	-137
op	-138
ase	-139
ra	-140
▁wh	-141
▁ex	-142
il	-143
ble	-144
▁but	-145
▁C	-146
han	-147
▁de	-148
ake	-149
▁P	-150
▁k	-151
▁le	-152
▁M	-153
▁fr	-154
▁wor	-155
▁like	-156
▁We	-157
est	-158
ul	-159
our	-160
▁whe	-161
▁or	-162
ate	-163
lease	-164
ime	-165
▁ab	-166
du	-167
ink	-168
ust	-169
ment	-170
ood	-171
oun	-172
ers	-173
▁bec	-174
▁want	-175
▁there	-176
th	-177
▁su	-178
▁D	-179
▁from	-180
day	-181
ause	-182
▁time	-183
▁al	-184
ive	-185
ry	-186
ss	-187
ome	-188
▁get	-189
qu	-190
art	-191
▁K	-192
▁v	-193
ong	-194
▁if	-195
ess	-196
ort	-197
ice	-198
▁about	-199
▁am	-200
▁B	-201
ain	-202
one	-203
▁think	-204
ol	-205
ook	-206
▁pl	-207
ure	-208
ig	-209
very	-210
▁by	-211
▁j	-212
▁us	-213
▁comp	-214
now	-215
el	-216
▁You	-217
▁te	-218
▁because	-219
any	-220
▁when	-221
up	-222
ak	-223
▁mo	-224
▁know	-225
der	-226
▁work	-227
ist	-228
ast	-229
ren	-230
ally	-231
▁don	-232
▁un	-233
duct	-234
um	-235
red	-236
pe	-237
▁Th	-238
ud	-239
ity	-240
▁E	-241
ame	-242
fter	-243
▁product	-244
fe	-245
▁Kore	-246
and	-247
ard	-248
▁has	-249
▁1	-250
▁would	-251
▁r	-252
▁cl	-253
▁out	-254
▁all	-255
ie	-256
▁any	-257
em	-258
▁Please	-259
▁pre	-260
ide	-261
ind	-262
▁good	-263
▁If	-264
▁need	-265
▁up	-266
▁fe	-267
ays	-268
ack	-269
▁one	-270
ous	-271
ight	-272
ven	-273
os	-274
▁F	-275
▁This	-276
age	-277
▁ad	-278
▁our	-279
▁che	-280
▁after	-281
ish	-282
▁lo	-283
▁pe	-284
ople	-285
ther	-286
▁ar	-287
▁now	-288
▁O	-289
▁more	-290
▁There	-291
▁should	-292
riend	-293
ies	-294
ine	-295
▁ag	-296
▁cont	-297
▁take	-298
▁sa	-299
▁L	-300
▁2	-301
▁who	-302
▁people	-303
ough	-304
▁what	-305
▁po	-306
ac	-307
▁pr	-308
▁make	-309
ount	-310
▁int	-311
per	-312
ass	-313
▁did	-314
▁N	-315
ag	-316
cc	-317
ip	-318
▁J	-319
▁im	-320
port	-321
▁too	-322
able	-323
iv	-324
ace	-325
▁going	-326
irst	-327
ear	-328
iz	-329
right	-330
▁What	-331
▁app	-332
▁been	-333
▁just	-334
▁res	-335
ile	-336
ep	-337
▁co	-338
ick	-339
ound	-340
so	-341
▁they	-342
▁look	-343
▁How	-344
▁tr	-345
▁He	-346
▁here	-347
▁some	-348
▁other	-349
▁friend	-350
ult	-351
ail	-352
act	-353
ue	-354
▁check	-355
▁please	-356
ach	-357
▁qu	-358
xt	-359
▁ch	-360
▁than	-361
▁send	-362
ich	-363
▁see	-364
ci	-365
ite	-366
▁en	-367
▁chan	-368
▁today	-369
orm	-370
▁In	-371
▁them	-372
▁Do	-373
ber	-374
▁bus	-375
row	-376
▁ro	-377
▁right	-378
▁G	-379
▁lot	-380
rent	-381
▁My	-382
lo	-383
▁Korea	-384
are	-385
ans	-386
ign	-387
▁bu	-388
▁stud	-389
▁dif	-390
▁could	-391
ince	-392
▁first	-393
ated	-394
▁off	-395
ap	-396
▁no	-397
▁mu	-398
ek	-399
▁company	-400
▁dis	-401
▁use	-402
ance	-403
▁sc	-404
▁only	-405
▁how	-406
ater	-407
ool	-408
▁much	-409
▁part	-410
ng	-411
▁Is	-412
▁day	-413
▁well	-414
▁new	-415
▁let	-416
▁many	-417
▁year	-418
ade	-419
ress	-420
▁Whe	-421
▁very	-422
ition	-423
▁sp	-424
▁week	-425
▁had	-426
nd	-427
ings	-428
fore	-429
ree	-430
▁also	-431
erv	-432
▁pers	-433
▁which	-434
▁next	-435
ning	-436
▁bet	-437
alk	-438
▁meet	-439
vel	-440
▁come	-441
▁ph	-442
▁every	-443
lf	-444
ark	-445
▁3	-446
▁Can	-447
00	-448
form	-449
▁were	-450
od	-451
▁feel	-452
▁long	-453
▁person	-454
▁happ	-455
ction	-456
▁give	-457
▁del	-458
led	-459
▁per	-460
▁again	-461
▁em	-462
itt	-463
▁order	-464
ving	-465
▁tra	-466
pt	-467
▁back	-468
▁since	-469
ents	-470
chool	-471
▁har	-472
▁acc	-473
ary	-474
▁over	-475
mor	-476
hing	-477
get	-478
▁exp	-479
les	-480
ible	-481
ict	-482
ought	-483
▁cha	-484
▁tell	-485
▁pay	-486
▁gr	-487
ence	-488
▁does	-489
ily	-490
▁att	-491
▁wr	-492
other	-493
▁Wh	-494
▁school	-495
reat	-496
▁ask	-497
ild	-498
ang	-499
▁rec	-500
▁br	-501
lp	-502
▁R	-503
ab	-504
▁last	-505
▁before	-506
▁won	-507
▁Yes	-508
▁even	-509
▁help	-510
▁spe	-511
▁inc	-512
ave	-513
ire	-514
ious	-515
▁man	-516
▁made	-517
▁got	-518
▁her	-519
▁rece	-520
hed	-521
▁tw	-522
▁fam	-523
▁eat	-524
▁really	-525
orry	-526
omet	-527
▁sm	-528
ract	-529
ff	-530
▁food	-531
vie	-532
▁his	-533
▁add	-534
lish	-535
▁diffe	-536
ens	-537
▁But	-538
▁Then	-539
▁When	-540
▁under	-541
▁room	-542
▁buy	-543
▁col	-544
way	-545
▁U	-546
▁way	-547
▁home	-548
ose	-549
ting	-550
▁hard	-551
▁car	-552
▁That	-553
ife	-554
▁tri	-555
▁their	-556
▁show	-557
▁place	-558
▁Eng	-559
blem	-560
▁des	-561
▁book	-562
▁bo	-563
▁Korean	-564
▁poss	-565
▁problem	-566
▁reg	-567
▁where	-568
rough	-569
iness	-570
▁try	-571
ope	-572
▁jo	-573
▁ke	-574
▁didn	-575
▁days	-576
▁Ch	-577
▁rest	-578
ations	-579
ect	-580
int	-581
▁most	-582
ved	-583
ouse	-584
▁English	-585
▁start	-586
▁vis	-587
▁num	-588
▁him	-589
▁fin	-590
▁requ	-591
▁sorry	-592
morrow	-593
▁through	-594
▁tomorrow	-595
ways	-596
▁somet	-597
▁two	-598
aking	-599
▁So	-600
ory	-601
atch	-602
▁gu	-603
ason	-604
▁hope	-605
ial	-606
▁call	-607
▁mon	-608
▁possible	-609
▁fl	-610
▁these	-611
vers	-612
ful	-613
▁say	-614
ady	-615
▁plan	-616
thing	-617
▁talk	-618
▁friends	-619
ft	-620
▁pa	-621
og	-622
te	-623
▁always	-624
ise	-625
▁bel	-626
hes	-627
▁better	-628
▁act	-629
▁ear	-630
own	-631
▁she	-632
▁dr	-633
we	-634
▁fo	-635
▁products	-636
icture	-637
▁number	-638
▁rel	-639
▁dep	-640
▁class	-641
▁play	-642
amp	-643
▁picture	-644
▁love	-645
▁inform	-646
▁inter	-647
▁into	-648
▁They	-649
▁rep	-650
ions	-651
▁change	-652
▁As	-653
oney	-654
▁5	-655
ond	-656
▁cons	-657
ec	-658
▁life	-659
▁best	-660
ffe	-661
▁wa	-662
urn	-663
ize	-664
▁used	-665
▁Let	-666
▁different	-667
akes	-668
▁ref	-669
igh	-670
▁then	-671
▁same	-672
▁sub	-673
▁find	-674
ather	-675
ical	-676
ems	-677
▁sent	-678
▁She	-679
ia	-680
▁sk	-681
▁trans	-682
▁visit	-683
ester	-684
ors	-685
▁business	-686
▁why	-687
▁things	-688
▁while	-689
ustom	-690
▁dec	-691
▁price	-692
ub	-693
▁went	-694
▁house	-695
▁put	-696
▁month	-697
▁study	-698
▁hot	-699
cial	-700
ye	-701
cess	-702
ied	-703
▁count	-704
▁imp	-705
▁Than	-706
▁sha	-707
▁wait	-708
▁money	-709
▁around	-710
▁disc	-711
▁Thank	-712
▁each	-713
▁kind	-714
stand	-715
▁custom	-716
gether	-717
▁something	-718
ittle	-719
▁op	-720
ord	-721
▁conf	-722
▁inv	-723
▁care	-724
av	-725
self	-726
▁rem	-727
gr	-728
▁little	-729
uring	-730
mer	-731
▁thought	-732
ever	-733
ert	-734
ipp	-735
▁fun	-736
▁pass	-737
▁import	-738
de	-739
▁together	-740
▁serv	-741
▁keep	-742
▁inst	-743
ner	-744
▁soon	-745
▁still	-746
ually	-747
▁supp	-748
pect	-749
▁ent	-750
ell	-751
iss	-752
▁Why	-753
▁bl	-754
▁great	-755
▁pres	-756
▁said	-757
▁exper	-758
ces	-759
▁ra	-760
▁reason	-761
▁hand	-762
▁trip	-763
ments	-764
ere	-765
▁child	-766
▁To	-767
▁down	-768
▁request	-769
▁pur	-770
▁may	-771
▁min	-772
▁air	-773
imes	-774
▁big	-775
▁exc	-776
lic	-777
▁family	-778
ne	-779
▁understand	-780
oy	-781
▁str	-782
▁information	-783
▁must	-784
oup	-785
▁happy	-786
▁4	-787
ific	-788
▁team	-789
▁mark	-790
▁came	-791
▁contact	-792
000	-793
▁10	-794
▁movie	-795
ib	-796
▁lear	-797
▁Al	-798
ream	-799
▁job	-800
▁cal	-801
▁high	-802
▁name	-803
▁without	-804
▁char	-805
ines	-806
▁meeting	-807
▁deli	-808
esterday	-809
▁yesterday	-810
ready	-811
▁And	-812
▁being	-813
▁ins	-814
▁already	-815
▁prep	-816
▁such	-817
hedu	-818
ried	-819
▁Are	-820
▁arri	-821
▁cle	-822
▁Se	-823
ject	-824
▁design	-825
▁list	-826
ient	-827
▁card	-828
ull	-829
▁sec	-830
ged	-831
ience	-832
ular	-833
▁store	-834
▁schedu	-835
lect	-836
▁using	-837
▁No	-838
kay	-839
▁heard	-840
▁left	-841
▁ev	-842
▁comm	-843
ual	-844
ating	-845
ont	-846
▁St	-847
▁phone	-848
▁late	-849
▁sy	-850
▁years	-851
▁cur	-852
▁night	-853
▁end	-854
▁away	-855
▁met	-856
▁20	-857
ased	-858
▁doesn	-859
fic	-860
ired	-861
erest	-862
ork	-863
ves	-864
oth	-865
ident	-866
▁interest	-867
▁set	-868
ty	-869
▁eas	-870
ward	-871
▁ac	-872
▁important	-873
▁sure	-874
,000	-875
▁water	-876
▁during	-877
ons	-878
▁world	-879
▁watch	-880
cha	-881
▁working	-882
ities	-883
▁hour	-884
omm	-885
ced	-886
wn	-887
▁mor	-888
▁stay	-889
▁phot	-890
ax	-891
joy	-892
ank	-893
▁test	-894
cu	-895
und	-896
til	-897
▁never	-898
llow	-899
▁live	-900
▁cost	-901
▁its	-902
▁able	-903
irm	-904
▁mom	-905
▁iss	-906
▁free	-907
not	-908
ten	-909
▁prov	-910
▁travel	-911
gg	-912
▁av	-913
▁another	-914
▁morning	-915
aur	-916
▁det	-917
lud	-918
▁enjoy	-919
▁var	-920
▁read	-921
▁market	-922
▁drink	-923
▁sho	-924
velop	-925
▁once	-926
▁looking	-927
ficult	-928
▁difficult	-929
apan	-930
▁receiv	-931
hip	-932
ility	-933
▁bre	-934
▁Japan	-935
▁cannot	-936
▁country	-937
ates	-938
ween	-939
leep	-940
▁anything	-941
▁learn	-942
▁docu	-943
ru	-944
let	-945
▁until	-946
▁med	-947
aut	-948
ower	-949
aurant	-950
▁reserv	-951
▁schedule	-952
▁fore	-953
▁between	-954
▁ret	-955
▁old	-956
▁hotel	-957
▁cor	-958
▁Could	-959
▁follow	-960
ung	-961
▁adv	-962
▁restaurant	-963
▁Fr	-964
▁minut	-965
▁service	-966
res	-967
ivers	-968
▁ind	-969
▁sit	-970
▁Bec	-971
▁due	-972
ys	-973
ph	-974
▁sur	-975
▁V	-976
atter	-977
▁develop	-978
▁wom	-979
ics	-980
▁Because	-981
ian	-982
cept	-983
erm	-984
ody	-985
▁Did	-986
▁mus	-987
▁process	-988
▁doing	-989
▁bad	-990
▁email	-991
ared	-992
▁purcha	-993
▁getting	-994
ality	-995
ok	-996
▁become	-997
▁sell	-998
▁Un	-999
▁open	-1000
ars	-1001
▁sim	-1002
ost	-1003
▁leave	-1004
▁mind	-1005
▁color	-1006
its	-1007
▁seems	-1008
▁office	-1009
cy	-1010
ately	-1011
fer	-1012
ier	-1013
▁mean	-1014
▁present	-1015
▁yet	-1016
olog	-1017
als	-1018
alth	-1019
ath	-1020
ieve	-1021
▁cour	-1022
ized	-1023
▁Don	-1024
▁bit	-1025
ided	-1026
▁ca	-1027
▁thing	-1028
▁couldn	-1029
▁beaut	-1030
view	-1031
ffect	-1032
▁loc	-1033
▁main	-1034
▁case	-1035
▁conc	-1036
oice	-1037
▁small	-1038
ature	-1039
▁called	-1040
▁For	-1041
fort	-1042
uation	-1043
▁art	-1044
▁ext	-1045
▁includ	-1046
▁la	-1047
▁clot	-1048
duce	-1049
osp	-1050
▁sleep	-1051
ently	-1052
▁dream	-1053
▁told	-1054
▁minutes	-1055
▁makes	-1056
icket	-1057
▁result	-1058
▁received	-1059
▁dri	-1060
▁depart	-1061
▁After	-1062
▁account	-1063
▁dire	-1064
▁students	-1065
line	-1066
ital	-1067
ger	-1068
▁below	-1069
itional	-1070
▁delivery	-1071
▁ty	-1072
▁6	-1073
▁emp	-1074
ix	-1075
ample	-1076
ommend	-1077
▁date	-1078
▁mod	-1079
▁mess	-1080
ceed	-1081
▁shipp	-1082
ational	-1083
old	-1084
ash	-1085
▁pack	-1086
▁bring	-1087
ailable	-1088
▁sol	-1089
▁often	-1090
▁quest	-1091
▁fact	-1092
▁recommend	-1093
▁ticket	-1094
▁done	-1095
▁train	-1096
▁amount	-1097
▁size	-1098
▁later	-1099
▁receive	-1100
▁men	-1101
▁syst	-1102
▁might	-1103
▁confirm	-1104
dered	-1105
ited	-1106
atur	-1107
▁partic	-1108
iet	-1109
▁pop	-1110
▁word	-1111
▁report	-1112
oul	-1113
▁prom	-1114
▁children	-1115
▁Where	-1116
▁wanted	-1117
▁having	-1118
▁exchan	-1119
▁However	-1120
▁near	-1121
▁available	-1122
▁wrong	-1123
▁happen	-1124
▁front	-1125
arch	-1126
▁pol	-1127
▁mater	-1128
mb	-1129
iday	-1130
▁payment	-1131
gram	-1132
▁flo	-1133
▁intro	-1134
▁current	-1135
che	-1136
▁point	-1137
▁nice	-1138
▁real	-1139
ative	-1140
▁prof	-1141
▁bought	-1142
▁health	-1143
▁Our	-1144
▁times	-1145
ense	-1146
▁gir	-1147
▁sl	-1148
ages	-1149
ister	-1150
▁took	-1151
▁ship	-1152
▁material	-1153
rence	-1154
▁gl	-1155
▁charge	-1156
▁enough	-1157
▁experience	-1158
▁second	-1159
iversity	-1160
▁ordered	-1161
▁found	-1162
ues	-1163
▁sign	-1164
▁resp	-1165
ention	-1166
▁build	-1167
▁contract	-1168
▁May	-1169
▁ago	-1170
▁far	-1171
ries	-1172
▁doll	-1173
oon	-1174
▁those	-1175
▁someone	-1176
▁own	-1177
▁expl	-1178
▁program	-1179
▁walk	-1180
▁various	-1181
rib	-1182
▁bag	-1183
▁three	-1184
▁reservation	-1185
ts	-1186
▁special	-1187
▁clothes	-1188
iful	-1189
ness	-1190
▁tast	-1191
▁miss	-1192
▁head	-1193
▁intern	-1194
▁okay	-1195
▁hur	-1196
unch	-1197
▁thank	-1198
▁system	-1199
▁perform	-1200
▁stop	-1201
▁game	-1202
ached	-1203
▁form	-1204
ese	-1205
▁Would	-1206
air	-1207
▁hair	-1208
▁early	-1209
▁making	-1210
ener	-1211
▁quick	-1212
▁Also	-1213
▁wear	-1214
▁cance	-1215
▁ass	-1216
▁few	-1217
▁course	-1218
▁station	-1219
ew	-1220
▁Your	-1221
▁file	-1222
▁incre	-1223
▁expect	-1224
avor	-1225
▁emplo	-1226
▁taking	-1227
▁An	-1228
▁skin	-1229
inner	-1230
▁wish	-1231
▁refund	-1232
▁young	-1233
land	-1234
▁beautiful	-1235
▁turn	-1236
ove	-1237
▁parent	-1238
▁side	-1239
▁floor	-1240
▁ser	-1241
▁clean	-1242
▁pain	-1243
▁changed	-1244
less	-1245
▁appro	-1246
▁Seoul	-1247
▁war	-1248
▁move	-1249
▁bir	-1250
▁7	-1251
▁coming	-1252
▁run	-1253
▁da	-1254
▁post	-1255
▁famous	-1256
▁myself	-1257
bs	-1258
▁ed	-1259
▁mar	-1260
▁On	-1261
▁bro	-1262
ider	-1263
▁saw	-1264
▁ide	-1265
▁'	-1266
▁address	-1267
▁tour	-1268
ead	-1269
ished	-1270
▁hum	-1271
▁val	-1272
ember	-1273
▁asked	-1274
▁full	-1275
▁looks	-1276
▁exchange	-1277
osed	-1278
▁return	-1279
▁cult	-1280
▁cr	-1281
pl	-1282
▁ma	-1283
▁grad	-1284
▁effect	-1285
▁stand	-1286
▁sing	-1287
▁short	-1288
▁cut	-1289
uture	-1290
▁break	-1291
ock	-1292
▁hours	-1293
▁cook	-1294
▁sum	-1295
▁cert	-1296
▁vac	-1297
▁parents	-1298
▁foreign	-1299
▁prev	-1300
gan	-1301
▁tax	-1302
▁exam	-1303
▁ans	-1304
ution	-1305
▁future	-1306
▁Have	-1307
work	-1308
oc	-1309
▁cond	-1310
▁dinner	-1311
▁event	-1312
▁cent	-1313
▁dist	-1314
▁discount	-1315
ote	-1316
▁el	-1317
▁seat	-1318
ina	-1319
uc	-1320
▁cold	-1321
▁music	-1322
▁hosp	-1323
▁speak	-1324
▁usually	-1325
▁past	-1326
▁sw	-1327
ffee	-1328
▁support	-1329
acher	-1330
▁issue	-1331
▁pret	-1332
▁First	-1333
▁everything	-1334
▁weekend	-1335
▁sales	-1336
▁lead	-1337
wer	-1338
▁light	-1339
ording	-1340
▁proceed	-1341
ices	-1342
▁aut	-1343
▁matter	-1344
▁attached	-1345
ata	-1346
▁birth	-1347
▁though	-1348
▁document	-1349
▁dra	-1350
▁moment	-1351
icy	-1352
▁memor	-1353
ange	-1354
▁both	-1355
be	-1356
▁win	-1357
▁project	-1358
ae	-1359
▁favor	-1360
▁coffee	-1361
▁heart	-1362
▁photo	-1363
▁charact	-1364
▁apply	-1365
br	-1366
▁situation	-1367
here	-1368
side	-1369
▁body	-1370
▁30	-1371
▁Today	-1372
▁pub	-1373
▁thinking	-1374
▁particip	-1375
time	-1376
▁8	-1377
▁Sh	-1378
▁pos	-1379
▁vide	-1380
▁started	-1381
par	-1382
▁isn	-1383
app	-1384
▁condition	-1385
▁expens	-1386
▁flight	-1387
▁hospital	-1388
▁employe	-1389
tern	-1390
ret	-1391
▁face	-1392
▁pick	-1393
▁teacher	-1394
ched	-1395
▁comple	-1396
▁haven	-1397
▁popular	-1398
ift	-1399
▁customer	-1400
▁reply	-1401
▁customers	-1402
▁believe	-1403
▁Since	-1404
▁grow	-1405
ination	-1406
▁express	-1407
▁impro	-1408
ug	-1409
▁group	-1410
uss	-1411
▁top	-1412
▁lu	-1413
▁contin	-1414
▁items	-1415
▁wonder	-1416
▁busy	-1417
▁purchase	-1418
den	-1419
▁attend	-1420
▁direct	-1421
▁Be	-1422
▁department	-1423
▁park	-1424
▁comput	-1425
lock	-1426
▁less	-1427
▁write	-1428
▁sal	-1429
erc	-1430
ien	-1431
▁occ	-1432
▁listen	-1433
iting	-1434
▁mid	-1435
chn	-1436
▁data	-1437
▁takes	-1438
▁fee	-1439
▁model	-1440
▁finish	-1441
▁item	-1442
▁commun	-1443
ised	-1444
▁student	-1445
▁regard	-1446
▁message	-1447
ric	-1448
▁fil	-1449
fect	-1450
▁trying	-1451
mp	-1452
▁ap	-1453
▁separ	-1454
▁airport	-1455
ctions	-1456
▁quickly	-1457
itive	-1458
▁planning	-1459
▁gave	-1460
pping	-1461
▁alone	-1462
▁close	-1463
▁others	-1464
▁tired	-1465
▁Ex	-1466
▁eff	-1467
rect	-1468
▁bank	-1469
▁bor	-1470
▁oper	-1471
▁comes	-1472
by	-1473
▁consider	-1474
ott	-1475
ges	-1476
▁hear	-1477
▁box	-1478
ju	-1479
▁giv	-1480
inal	-1481
▁whether	-1482
▁lunch	-1483
meric	-1484
▁These	-1485
▁Mon	-1486
▁prepare	-1487
▁"	-1488
▁subway	-1489
reen	-1490
▁arrive	-1491
▁sample	-1492
▁lar	-1493
▁line	-1494
▁pictures	-1495
▁Now	-1496
▁living	-1497
▁within	-1498
ins	-1499
elt	-1500
▁Americ	-1501
ring	-1502
angu	-1503
oose	-1504
erg	-1505
▁shop	-1506
▁checked	-1507
▁sending	-1508
▁mother	-1509
ef	-1510
▁orig	-1511
ides	-1512
ugh	-1513
▁area	-1514
▁ever	-1515
▁plac	-1516
▁vacation	-1517
az	-1518
▁manag	-1519
icious	-1520
▁All	-1521
▁boy	-1522
▁opp	-1523
ration	-1524
▁easy	-1525
▁among	-1526
▁colle	-1527
▁song	-1528
▁kid	-1529
▁Does	-1530
fortable	-1531
▁bas	-1532
▁maj	-1533
▁fine	-1534
▁explain	-1535
▁Every	-1536
▁gener	-1537
▁techn	-1538
▁ey	-1539
▁lost	-1540
▁Kim	-1541
▁answer	-1542
▁summer	-1543
▁became	-1544
reci	-1545
ike	-1546
▁est	-1547
▁detail	-1548
▁pretty	-1549
▁9	-1550
ably	-1551
▁shipping	-1552
ior	-1553
room	-1554
▁201	-1555
▁langu	-1556
▁China	-1557
▁waiting	-1558
▁city	-1559
▁felt	-1560
▁culture	-1561
▁ob	-1562
▁cell	-1563
▁strong	-1564
▁bed	-1565
▁Even	-1566
reet	-1567
▁studying	-1568
ered	-1569
ined	-1570
▁appreci	-1571
▁nothing	-1572
▁Ye	-1573
▁instead	-1574
ety	-1575
▁building	-1576
▁enter	-1577
▁exerc	-1578
mber	-1579
oint	-1580
▁birthday	-1581
▁introduce	-1582
▁memb	-1583
▁transfer	-1584
▁women	-1585
ames	-1586
ients	-1587
▁video	-1588
iron	-1589
▁members	-1590
▁applic	-1591
▁chance	-1592
▁tot	-1593
▁party	-1594
ouble	-1595
▁Monday	-1596
▁letter	-1597
▁provide	-1598
ically	-1599
iod	-1600
▁problems	-1601
▁relations	-1602
▁else	-1603
urs	-1604
▁ve	-1605
▁pract	-1606
▁beg	-1607
▁activ	-1608
▁sound	-1609
▁words	-1610
▁env	-1611
vert	-1612
▁computer	-1613
cture	-1614
dle	-1615
▁delicious	-1616
▁performance	-1617
lied	-1618
▁Which	-1619
▁story	-1620
▁works	-1621
▁character	-1622
▁equ	-1623
▁woman	-1624
▁educ	-1625
▁talking	-1626
▁remember	-1627
▁ann	-1628
▁eating	-1629
▁profess	-1630
outh	-1631
▁pat	-1632
▁tried	-1633
▁additional	-1634
▁mist	-1635
▁allow	-1636
ging	-1637
▁inside	-1638
▁review	-1639
ned	-1640
▁hol	-1641
▁pri	-1642
▁interested	-1643
▁spec	-1644
▁organ	-1645
▁mail	-1646
ling	-1647
▁seem	-1648
▁table	-1649
▁months	-1650
more	-1651
▁period	-1652
▁decided	-1653
▁spend	-1654
▁Sun	-1655
▁news	-1656
▁saying	-1657
▁eyes	-1658
▁related	-1659
ple	-1660
iled	-1661
inese	-1662
▁transl	-1663
ants	-1664
▁correct	-1665
▁seen	-1666
▁everyone	-1667
pr	-1668
▁opin	-1669
▁Okay	-1670
hod	-1671
▁means	-1672
▁cap	-1673
▁ele	-1674
▁meal	-1675
▁Chinese	-1676
ah	-1677
▁weather	-1678
▁worried	-1679
▁dog	-1680
▁dollars	-1681
▁rese	-1682
▁text	-1683
▁taste	-1684
▁forward	-1685
ird	-1686
▁outside	-1687
▁Japanese	-1688
▁trad	-1689
▁Friday	-1690
▁university	-1691
com	-1692
▁gift	-1693
ob	-1694
▁def	-1695
▁idea	-1696
▁exact	-1697
▁method	-1698
▁proper	-1699
▁favorite	-1700
▁major	-1701
▁public	-1702
▁lik	-1703
▁paper	-1704
▁requested	-1705
▁brother	-1706
ator	-1707
▁mach	-1708
used	-1709
ield	-1710
cheon	-1711
▁girl	-1712
▁compet	-1713
▁Mr	-1714
▁sister	-1715
▁inf	-1716
▁treat	-1717
▁const	-1718
rol	-1719
ology	-1720
▁Ph	-1721
▁New	-1722
▁easily	-1723
▁compan	-1724
▁tou	-1725
ccess	-1726
▁following	-1727
▁Je	-1728
▁invoice	-1729
▁term	-1730
▁cre	-1731
▁based	-1732
ision	-1733
▁center	-1734
ming	-1735
▁sold	-1736
▁fast	-1737
ee	-1738
ilar	-1739
▁paid	-1740
▁power	-1741
▁relationship	-1742
ism	-1743
▁accept	-1744
▁worry	-1745
▁vie	-1746
▁subm	-1747
▁cancel	-1748
▁choose	-1749
▁cred	-1750
▁hold	-1751
▁ready	-1752
co	-1753
mon	-1754
ency	-1755
▁Pe	-1756
con	-1757
llo	-1758
ush	-1759
▁At	-1760
▁complete	-1761
▁menu	-1762
▁questions	-1763
uri	-1764
▁fall	-1765
▁needs	-1766
ills	-1767
otion	-1768
▁manage	-1769
▁arrived	-1770
▁books	-1771
ify	-1772
▁communic	-1773
▁sea	-1774
▁stock	-1775
▁low	-1776
▁rice	-1777
▁leg	-1778
▁view	-1779
nt	-1780
▁quite	-1781
▁15	-1782
ists	-1783
▁true	-1784
▁delay	-1785
▁human	-1786
era	-1787
ption	-1788
▁success	-1789
▁watching	-1790
▁advance	-1791
ising	-1792
friend	-1793
▁necess	-1794
ium	-1795
▁clear	-1796
▁father	-1797
▁respons	-1798
▁similar	-1799
▁goes	-1800
▁swe	-1801
▁yourself	-1802
▁vol	-1803
▁discuss	-1804
▁red	-1805
▁type	-1806
▁quant	-1807
leted	-1808
▁conven	-1809
yle	-1810
load	-1811
▁imm	-1812
▁according	-1813
most	-1814
ivered	-1815
▁share	-1816
▁production	-1817
cing	-1818
▁coup	-1819
▁companies	-1820
▁appreciate	-1821
ughter	-1822
ization	-1823
cle	-1824
▁lots	-1825
▁stra	-1826
▁expensive	-1827
fact	-1828
▁rele	-1829
▁black	-1830
▁currently	-1831
▁fre	-1832
▁season	-1833
aken	-1834
▁cam	-1835
▁environ	-1836
▁fa	-1837
▁delivered	-1838
▁fix	-1839
▁Re	-1840
ored	-1841
▁One	-1842
▁wind	-1843
▁medic	-1844
▁language	-1845
ute	-1846
pped	-1847
▁Of	-1848
▁sat	-1849
ases	-1850
▁documents	-1851
val	-1852
▁12	-1853
aster	-1854
▁finished	-1855
io	-1856
book	-1857
▁100	-1858
aturday	-1859
ibility	-1860
▁Saturday	-1861
▁anim	-1862
err	-1863
▁question	-1864
pri	-1865
▁agree	-1866
▁People	-1867
▁contain	-1868
▁aw	-1869
▁says	-1870
ification	-1871
▁difference	-1872
▁level	-1873
▁quality	-1874
▁least	-1875
▁applied	-1876
hib	-1877
icken	-1878
▁norm	-1879
▁total	-1880
▁middle	-1881
▁credit	-1882
ones	-1883
ully	-1884
▁countries	-1885
▁guess	-1886
sel	-1887
▁fac	-1888
▁dam	-1889
▁whole	-1890
▁winter	-1891
▁hist	-1892
▁extra	-1893
▁gets	-1894
▁anymore	-1895
▁large	-1896
▁press	-1897
▁webs	-1898
▁places	-1899
▁rain	-1900
▁cat	-1901
ival	-1902
though	-1903
▁sever	-1904
▁deliver	-1905
ffic	-1906
▁lim	-1907
▁environment	-1908
where	-1909
▁effort	-1910
▁goods	-1911
nect	-1912
▁Incheon	-1913
▁happened	-1914
iqu	-1915
▁sad	-1916
▁offer	-1917
▁becom	-1918
itten	-1919
▁deal	-1920
▁Thanks	-1921
▁social	-1922
ask	-1923
ified	-1924
▁field	-1925
▁rather	-1926
asure	-1927
▁development	-1928
▁prepared	-1929
aff	-1930
nam	-1931
▁club	-1932
▁rate	-1933
iven	-1934
▁hurt	-1935
▁interview	-1936
▁regarding	-1937
lier	-1938
▁brand	-1939
▁needed	-1940
▁personal	-1941
▁Who	-1942
▁final	-1943
dden	-1944
ding	-1945
tain	-1946
▁bab	-1947
▁wasn	-1948
▁worked	-1949
▁sudden	-1950
ross	-1951
▁invest	-1952
▁manager	-1953
▁es	-1954
▁almost	-1955
▁purchas	-1956
▁Chr	-1957
▁image	-1958
do	-1959
▁improve	-1960
cially	-1961
▁draw	-1962
▁hands	-1963
▁several	-1964
▁daughter	-1965
▁materials	-1966
ortun	-1967
oud	-1968
▁Sunday	-1969
▁mil	-1970
▁photos	-1971
▁feeling	-1972
▁ton	-1973
▁recently	-1974
▁warm	-1975
▁machine	-1976
▁playing	-1977
▁online	-1978
▁street	-1979
▁shipment	-1980
▁Hello	-1981
▁natur	-1982
▁depend	-1983
▁Will	-1984
ggest	-1985
▁shopping	-1986
▁adm	-1987
▁receip	-1988
fully	-1989
ctor	-1990
▁along	-1991
▁chicken	-1992
▁Am	-1993
▁quantity	-1994
got	-1995
▁suggest	-1996
▁19	-1997
▁dut	-1998
▁elect	-1999
▁offic	-2000
▁forget	-2001
▁TV	-2002
▁typ	-2003
▁control	-2004
▁Bus	-2005
▁ste	-2006
ports	-2007
▁aftern	-2008
duced	-2009
▁education	-2010
▁ce	-2011
band	-2012
amples	-2013
ference	-2014
▁website	-2015
▁Phil	-2016
ale	-2017
▁fish	-2018
▁safe	-2019
▁satis	-2020
gth	-2021
go	-2022
mail	-2023
▁US	-2024
▁afternoon	-2025
▁Some	-2026
ps	-2027
▁advert	-2028
▁previous	-2029
▁necessary	-2030
▁parts	-2031
▁law	-2032
▁experien	-2033
phone	-2034
▁above	-2035
▁wants	-2036
▁space	-2037
▁Therefore	-2038
▁presentation	-2039
▁sometimes	-2040
▁begin	-2041
▁staff	-2042
▁prot	-2043
▁Intern	-2044
▁exercise	-2045
▁connect	-2046
▁expected	-2047
ivid	-2048
▁prob	-2049
▁snow	-2050
▁touch	-2051
▁learned	-2052
vies	-2053
▁glad	-2054
▁completed	-2055
▁bott	-2056
▁client	-2057
▁regist	-2058
tle	-2059
▁boyfriend	-2060
ume	-2061
▁foc	-2062
▁pen	-2063
▁gra	-2064
▁ones	-2065
▁taxi	-2066
▁Christ	-2067
▁function	-2068
▁Yeah	-2069
▁checking	-2070
▁interesting	-2071
gu	-2072
uck	-2073
▁ach	-2074
▁dev	-2075
▁sem	-2076
▁anyone	-2077
fra	-2078
ressed	-2079
▁longer	-2080
▁shoes	-2081
▁camera	-2082
vern	-2083
▁application	-2084
▁weight	-2085
usband	-2086
▁state	-2087
▁writing	-2088
▁written	-2089
omp	-2090
▁bar	-2091
▁Sorry	-2092
▁lives	-2093
▁appear	-2094
me	-2095
▁college	-2096
▁Pro	-2097
▁movies	-2098
▁pie	-2099
fraid	-2100
▁afraid	-2101
ball	-2102
conom	-2103
▁held	-2104
oke	-2105
body	-2106
▁goal	-2107
▁half	-2108
▁weeks	-2109
▁opinion	-2110
▁research	-2111
road	-2112
▁disapp	-2113
ral	-2114
▁key	-2115
▁medicine	-2116
lfriend	-2117
▁four	-2118
▁self	-2119
▁refer	-2120
▁white	-2121
▁site	-2122
▁shows	-2123
▁age	-2124
▁Philipp	-2125
▁11	-2126
▁earlier	-2127
▁grand	-2128
▁accident	-2129
▁original	-2130
▁kinds	-2131
▁holiday	-2132
▁husband	-2133
▁dish	-2134
▁taken	-2135
uro	-2136
▁sn	-2137
▁pot	-2138
ither	-2139
▁marketing	-2140
▁employees	-2141
resh	-2142
▁perfect	-2143
▁exist	-2144
▁smart	-2145
▁evening	-2146
irt	-2147
▁glo	-2148
▁upd	-2149
▁points	-2150
urg	-2151
▁via	-2152
▁Sure	-2153
▁eng	-2154
▁sun	-2155
▁details	-2156
▁positive	-2157
▁cop	-2158
▁increase	-2159
estival	-2160
gest	-2161
▁anal	-2162
▁teach	-2163
▁hig	-2164
pecially	-2165
▁son	-2166
▁reading	-2167
▁colors	-2168
bo	-2169
▁occur	-2170
ories	-2171
▁kids	-2172
▁including	-2173
▁girlfriend	-2174
ai	-2175
▁soci	-2176
▁traditional	-2177
▁cup	-2178
▁repres	-2179
▁di	-2180
▁beha	-2181
▁prepar	-2182
▁50	-2183
▁stat	-2184
▁cause	-2185
▁econom	-2186
▁located	-2187
▁rent	-2188
▁factory	-2189
iding	-2190
▁history	-2191
▁specific	-2192
cent	-2193
▁baby	-2194
▁giving	-2195
▁probably	-2196
▁abs	-2197
▁sick	-2198
▁hon	-2199
ission	-2200
▁Philippines	-2201
▁meat	-2202
▁cash	-2203
▁meaning	-2204
ton	-2205
atched	-2206
▁govern	-2207
▁duty	-2208
ateg	-2209
▁install	-2210
▁simple	-2211
▁dro	-2212
▁mass	-2213
lebr	-2214
▁trust	-2215
▁Should	-2216
▁clos	-2217
▁prin	-2218
ountain	-2219
itting	-2220
bal	-2221
▁opportun	-2222
▁Che	-2223
▁indust	-2224
▁looked	-2225
▁value	-2226
▁comfortable	-2227
ued	-2228
▁dest	-2229
▁changes	-2230
▁serious	-2231
▁mistake	-2232
▁receipt	-2233
▁guys	-2234
astic	-2235
rap	-2236
ering	-2237
▁Here	-2238
▁ru	-2239
▁healthy	-2240
▁Ind	-2241
▁guest	-2242
ude	-2243
▁By	-2244
▁ord	-2245
▁results	-2246
▁div	-2247
▁contents	-2248
▁directly	-2249
▁creat	-2250
ken	-2251
ump	-2252
▁record	-2253
just	-2254
▁flow	-2255
na	-2256
▁single	-2257
▁transport	-2258
ane	-2259
ural	-2260
ying	-2261
gress	-2262
▁base	-2263
▁celebr	-2264
imate	-2265
▁subject	-2266
ets	-2267
▁ben	-2268
▁road	-2269
ulation	-2270
aka	-2271
ted	-2272
▁Just	-2273
▁consum	-2274
▁convers	-2275
▁Many	-2276
▁spicy	-2277
▁passed	-2278
▁careful	-2279
▁ing	-2280
▁dram	-2281
▁film	-2282
▁costs	-2283
▁dress	-2284
▁board	-2285
▁De	-2286
▁Han	-2287
▁From	-2288
▁example	-2289
▁rev	-2290
ables	-2291
▁vers	-2292
▁door	-2293
▁gradu	-2294
▁Sp	-2295
▁tre	-2296
ique	-2297
▁Hong	-2298
▁suit	-2299
▁select	-2300
ufact	-2301
▁exhib	-2302
▁certain	-2303
▁tonight	-2304
▁University	-2305
erve	-2306
▁cir	-2307
ances	-2308
▁mention	-2309
▁samples	-2310
ery	-2311
nes	-2312
▁Not	-2313
▁repl	-2314
▁depos	-2315
▁equip	-2316
ze	-2317
pos	-2318
▁trouble	-2319
uff	-2320
▁tem	-2321
anger	-2322
ams	-2323
uly	-2324
▁Isn	-2325
▁prefer	-2326
▁join	-2327
▁Busan	-2328
▁ice	-2329
▁deep	-2330
▁wife	-2331
idence	-2332
▁local	-2333
▁abroad	-2334
▁married	-2335
▁ingred	-2336
▁standard	-2337
▁training	-2338
over	-2339
▁fresh	-2340
▁content	-2341
▁land	-2342
▁bra	-2343
▁solve	-2344
▁remain	-2345
edi	-2346
▁Park	-2347
▁cream	-2348
▁given	-2349
▁sports	-2350
▁employee	-2351
▁manufact	-2352
▁activities	-2353
▁cool	-2354
▁print	-2355
come	-2356
itted	-2357
▁games	-2358
▁regular	-2359
▁$	-2360
ives	-2361
▁ball	-2362
▁except	-2363
▁package	-2364
har	-2365
▁err	-2366
▁respect	-2367
▁cake	-2368
▁individ	-2369
▁require	-2370
▁management	-2371
▁supposed	-2372
pose	-2373
▁sweet	-2374
▁concer	-2375
▁police	-2376
to	-2377
▁bill	-2378
▁sens	-2379
▁asking	-2380
▁against	-2381
▁style	-2382
▁equipment	-2383
ures	-2384
aving	-2385
hind	-2386
▁Exc	-2387
ively	-2388
▁focus	-2389
▁attach	-2390
fast	-2391
llen	-2392
met	-2393
ron	-2394
▁swim	-2395
▁adjust	-2396
▁traveling	-2397
read	-2398
▁America	-2399
▁natural	-2400
▁society	-2401
uce	-2402
▁Wed	-2403
▁lab	-2404
▁ride	-2405
▁delayed	-2406
ches	-2407
▁fire	-2408
▁known	-2409
▁behind	-2410
▁ate	-2411
clock	-2412
▁screen	-2413
▁government	-2414
▁participate	-2415
new	-2416
▁inqu	-2417
urther	-2418
▁veget	-2419
▁submit	-2420
▁ple	-2421
▁match	-2422
▁God	-2423
▁soft	-2424
▁learning	-2425
▁dishes	-2426
ex	-2427
▁position	-2428
els	-2429
aper	-2430
▁bath	-2431
▁infl	-2432
▁technology	-2433
▁page	-2434
▁phys	-2435
ilities	-2436
oss	-2437
nesday	-2438
ny	-2439
▁fit	-2440
▁mis	-2441
selves	-2442
▁stren	-2443
▁access	-2444
▁separately	-2445
▁South	-2446
▁Wednesday	-2447
man	-2448
▁cra	-2449
▁overse	-2450
▁shipped	-2451
▁hang	-2452
▁Go	-2453
▁ability	-2454
▁Air	-2455
▁camp	-2456
▁lugg	-2457
sh	-2458
▁fill	-2459
▁sense	-2460
▁certific	-2461
▁poor	-2462
▁decide	-2463
▁attention	-2464
crib	-2465
▁step	-2466
▁surpr	-2467
▁His	-2468
▁par	-2469
▁lose	-2470
▁rooms	-2471
▁choice	-2472
▁impress	-2473
ional	-2474
icle	-2475
▁dem	-2476
▁skills	-2477
▁reasons	-2478
ili	-2479
▁ways	-2480
ruction	-2481
▁appoint	-2482
▁breakfast	-2483
ught	-2484
▁apart	-2485
▁luggage	-2486
▁visited	-2487
▁five	-2488
▁grade	-2489
▁addition	-2490
▁slow	-2491
▁drive	-2492
▁temper	-2493
▁required	-2494
▁mag	-2495
▁lower	-2496
▁assign	-2497
▁common	-2498
▁Although	-2499
▁carry	-2500
▁either	-2501
▁festival	-2502
▁progress	-2503
▁scen	-2504
je	-2505
▁stru	-2506
▁lic	-2507
▁satisf	-2508
▁fig	-2509
▁wearing	-2510
▁decision	-2511
orth	-2512
▁entr	-2513
▁compl	-2514
▁actually	-2515
useum	-2516
▁arm	-2517
▁doctor	-2518
▁practice	-2519
▁released	-2520
▁hate	-2521
▁overseas	-2522
▁soup	-2523
▁apolog	-2524
▁running	-2525
▁included	-2526
▁confirmed	-2527
▁represent	-2528
▁Tell	-2529
▁aren	-2530
▁Excuse	-2531
▁protect	-2532
▁Su	-2533
▁cover	-2534
▁tickets	-2535
▁port	-2536
▁stick	-2537
aw	-2538
mas	-2539
▁pm	-2540
ergy	-2541
▁boss	-2542
ocol	-2543
▁broken	-2544
free	-2545
cious	-2546
▁Euro	-2547
▁Or	-2548
▁glass	-2549
▁dom	-2550
yeong	-2551
▁daily	-2552
▁watched	-2553
▁tea	-2554
▁provided	-2555
iter	-2556
▁version	-2557
▁ang	-2558
▁convenient	-2559
▁Take	-2560
▁coun	-2561
▁individual	-2562
▁z	-2563
ots	-2564
▁heav	-2565
▁collect	-2566
chi	-2567
▁urg	-2568
▁dead	-2569
▁immedi	-2570
adem	-2571
ured	-2572
▁bur	-2573
ground	-2574
▁Ne	-2575
▁Fe	-2576
▁basic	-2577
▁seats	-2578
▁played	-2579
▁location	-2580
izz	-2581
▁gives	-2582
▁guide	-2583
▁starting	-2584
▁ID	-2585
ability	-2586
▁exactly	-2587
▁plans	-2588
▁normal	-2589
une	-2590
▁super	-2591
▁traffic	-2592
▁entrance	-2593
▁treatment	-2594
ky	-2595
▁Jeju	-2596
▁booked	-2597
▁Christmas	-2598
▁gone	-2599
▁sauce	-2600
▁types	-2601
▁stress	-2602
▁toward	-2603
▁achieve	-2604
▁concert	-2605
▁Internet	-2606
▁international	-2607
rew	-2608
▁wed	-2609
▁blue	-2610
▁window	-2611
ns	-2612
uk	-2613
bor	-2614
▁selling	-2615
▁ten	-2616
▁lack	-2617
▁autom	-2618
▁smile	-2619
▁search	-2620
▁seeing	-2621
▁exhibition	-2622
▁With	-2623
▁danger	-2624
▁issues	-2625
▁driving	-2626
uge	-2627
▁eye	-2628
onven	-2629
▁adult	-2630
▁prevent	-2631
▁mentioned	-2632
▁measure	-2633
▁straight	-2634
ooper	-2635
ursday	-2636
▁developed	-2637
rd	-2638
aged	-2639
▁libr	-2640
▁ident	-2641
▁transportation	-2642
▁fru	-2643
▁save	-2644
▁Thursday	-2645
▁internet	-2646
▁Well	-2647
▁priv	-2648
▁smell	-2649
▁driver	-2650
▁percent	-2651
▁opportunity	-2652
▁temperature	-2653
▁luck	-2654
▁deposit	-2655
▁Germ	-2656
oid	-2657
urance	-2658
▁helps	-2659
▁thanks	-2660
▁plane	-2661
▁finally	-2662
▁inconven	-2663
▁suddenly	-2664
ik	-2665
cri	-2666
asing	-2667
▁desk	-2668
▁nearby	-2669
▁mountain	-2670
ccer	-2671
▁register	-2672
head	-2673
▁Man	-2674
ential	-2675
▁memory	-2676
uous	-2677
▁Sec	-2678
▁role	-2679
▁beach	-2680
▁compared	-2681
ises	-2682
▁brought	-2683
por	-2684
light	-2685
▁beer	-2686
▁added	-2687
▁score	-2688
▁academ	-2689
▁becomes	-2690
▁passport	-2691
▁energy	-2692
▁general	-2693
▁professor	-2694
onse	-2695
▁catch	-2696
▁United	-2697
▁happiness	-2698
▁mot	-2699
▁moved	-2700
▁older	-2701
▁wedding	-2702
▁Q	-2703
▁hasn	-2704
▁younger	-2705
▁especially	-2706
imum	-2707
▁engine	-2708
▁oil	-2709
▁Maybe	-2710
▁defin	-2711
▁higher	-2712
▁ingredients	-2713
▁foods	-2714
▁uncom	-2715
▁moving	-2716
▁continue	-2717
0.	-2718
izing	-2719
urious	-2720
▁American	-2721
▁conversation	-2722
▁et	-2723
▁ess	-2724
▁feels	-2725
▁classes	-2726
imb	-2727
ogn	-2728
set	-2729
▁Ad	-2730
▁earth	-2731
▁license	-2732
▁whenever	-2733
▁certificate	-2734
▁task	-2735
▁behav	-2736
▁Europe	-2737
▁cooper	-2738
▁listening	-2739
hor	-2740
▁born	-2741
▁wouldn	-2742
▁library	-2743
▁advertise	-2744
iol	-2745
▁weak	-2746
▁cheap	-2747
▁liked	-2748
ief	-2749
▁mine	-2750
▁beginning	-2751
▁cos	-2752
▁mob	-2753
▁copy	-2754
▁nood	-2755
▁shape	-2756
▁stuff	-2757
▁bright	-2758
cer	-2759
▁Most	-2760
▁semester	-2761
▁apologize	-2762
raph	-2763
ailed	-2764
▁Last	-2765
▁displ	-2766
▁soccer	-2767
▁calling	-2768
▁bal	-2769
uesday	-2770
▁uncomfortable	-2771
▁member	-2772
▁sale	-2773
▁animals	-2774
▁forgot	-2775
▁unique	-2776
▁Tuesday	-2777
▁drinking	-2778
▁Ar	-2779
▁Acc	-2780
▁upload	-2781
▁influ	-2782
▁snack	-2783
▁Jan	-2784
▁hit	-2785
▁media	-2786
ossible	-2787
▁net	-2788
▁fell	-2789
▁block	-2790
▁industry	-2791
▁memories	-2792
▁repair	-2793
istic	-2794
▁third	-2795
▁medical	-2796
▁studied	-2797
▁changing	-2798
ato	-2799
bok	-2800
atic	-2801
▁dark	-2802
▁biggest	-2803
▁properly	-2804
iety	-2805
▁arr	-2806
illion	-2807
inally	-2808
▁staying	-2809
▁promotion	-2810
▁Act	-2811
▁Min	-2812
▁death	-2813
▁cooking	-2814
fety	-2815
▁likes	-2816
▁recogn	-2817
▁benef	-2818
▁immediately	-2819
ledge	-2820
▁bread	-2821
▁finan	-2822
▁purpose	-2823
▁impossible	-2824
▁volun	-2825
▁global	-2826
▁conduct	-2827
▁mix	-2828
ulations	-2829
▁leaving	-2830
▁lecture	-2831
▁Jo	-2832
▁Pl	-2833
▁cosmet	-2834
▁customs	-2835
▁shouldn	-2836
▁communication	-2837
▁button	-2838
▁nature	-2839
▁strength	-2840
amed	-2841
cast	-2842
▁hob	-2843
▁Te	-2844
▁ri	-2845
▁fan	-2846
▁perm	-2847
bit	-2848
like	-2849
ters	-2850
▁terms	-2851
▁starts	-2852
▁appointment	-2853
▁ill	-2854
▁sci	-2855
▁blo	-2856
▁Island	-2857
▁States	-2858
of	-2859
apt	-2860
ners	-2861
▁gain	-2862
▁island	-2863
▁concent	-2864
upp	-2865
▁separate	-2866
▁preparing	-2867
umb	-2868
▁18	-2869
iment	-2870
▁foot	-2871
▁viol	-2872
ashion	-2873
▁chocol	-2874
▁solution	-2875
▁enc	-2876
▁non	-2877
itude	-2878
urity	-2879
▁orders	-2880
▁Sha	-2881
▁kept	-2882
verage	-2883
▁fried	-2884
won	-2885
house	-2886
▁milk	-2887
▁Somet	-2888
▁green	-2889
▁wrote	-2890
▁maintain	-2891
▁shall	-2892
ney	-2893
▁spent	-2894
▁track	-2895
▁challen	-2896
▁personality	-2897
itor	-2898
▁log	-2899
▁huge	-2900
▁town	-2901
▁error	-2902
▁mobile	-2903
▁parking	-2904
▁walking	-2905
▁heavy	-2906
ury	-2907
▁feed	-2908
▁action	-2909
▁handle	-2910
▁allowed	-2911
pril	-2912
▁circ	-2913
▁frequ	-2914
▁limit	-2915
▁regret	-2916
▁Her	-2917
▁fight	-2918
▁museum	-2919
▁Everyone	-2920
▁official	-2921
▁aud	-2922
▁Kaka	-2923
▁fault	-2924
▁supply	-2925
▁turned	-2926
▁purchased	-2927
▁24	-2928
uary	-2929
▁ris	-2930
▁shown	-2931
▁direction	-2932
▁responsibility	-2933
rim	-2934
▁Oh	-2935
▁diet	-2936
▁April	-2937
back	-2938
▁double	-2939
▁national	-2940
ada	-2941
▁25	-2942
▁comb	-2943
▁March	-2944
▁display	-2945
▁distrib	-2946
▁understanding	-2947
▁note	-2948
cel	-2949
▁stom	-2950
▁fixed	-2951
▁object	-2952
ym	-2953
▁Any	-2954
▁gen	-2955
▁feature	-2956
▁expenses	-2957
▁insurance	-2958
wan	-2959
hood	-2960
oura	-2961
▁dry	-2962
▁continuous	-2963
▁Lee	-2964
ended	-2965
▁York	-2966
▁safety	-2967
▁status	-2968
▁Aug	-2969
▁sto	-2970
▁Aust	-2971
▁map	-2972
▁competition	-2973
▁emb	-2974
istics	-2975
▁affect	-2976
▁cute	-2977
▁advant	-2978
▁January	-2979
▁thoughts	-2980
▁completely	-2981
▁ow	-2982
▁200	-2983
▁imag	-2984
action	-2985
▁North	-2986
▁proced	-2987
▁president	-2988
ept	-2989
unk	-2990
▁fail	-2991
▁quiet	-2992
▁author	-2993
▁attract	-2994
▁confirmation	-2995
▁broad	-2996
▁response	-2997
▁lay	-2998
▁moist	-2999
▁tar	-3000
▁tend	-3001
▁cases	-3002
▁Second	-3003
▁reduce	-3004
▁Inst	-3005
▁temp	-3006
▁tren	-3007
▁fashion	-3008
▁swimming	-3009
▁etc	-3010
idered	-3011
▁honest	-3012
hang	-3013
▁egg	-3014
▁lived	-3015
▁further	-3016
▁detailed	-3017
▁services	-3018
▁Face	-3019
▁shut	-3020
▁drama	-3021
▁talked	-3022
▁consult	-3023
▁happens	-3024
▁neigh	-3025
ilt	-3026
▁ver	-3027
▁twice	-3028
pection	-3029
▁damage	-3030
▁ground	-3031
▁passion	-3032
▁neg	-3033
adays	-3034
▁cafe	-3035
hol	-3036
ley	-3037
▁reach	-3038
▁instru	-3039
▁physical	-3040
▁increased	-3041
aim	-3042
▁40	-3043
▁amaz	-3044
▁August	-3045
▁caused	-3046
▁include	-3047
▁bathroom	-3048
izes	-3049
mosp	-3050
▁Feb	-3051
▁Ital	-3052
▁unit	-3053
▁policy	-3054
'.	-3055
acy	-3056
rely	-3057
▁firm	-3058
▁loved	-3059
▁foreigners	-3060
▁angry	-3061
▁atmosp	-3062
▁effective	-3063
▁construction	-3064
▁aff	-3065
▁caf	-3066
ommod	-3067
▁throw	-3068
▁flu	-3069
▁operation	-3070
▁security	-3071
itary	-3072
▁pork	-3073
▁demand	-3074
▁opened	-3075
▁strateg	-3076
rit	-3077
▁ant	-3078
▁hung	-3079
▁knew	-3080
▁According	-3081
▁financial	-3082
▁considered	-3083
ober	-3084
▁squ	-3085
▁bigger	-3086
▁couple	-3087
▁visiting	-3088
▁experiences	-3089
nel	-3090
▁borrow	-3091
▁promise	-3092
▁Facebook	-3093
vant	-3094
▁moder	-3095
▁announ	-3096
▁entire	-3097
▁enjoyed	-3098
▁feelings	-3099
▁Look	-3100
▁code	-3101
▁eval	-3102
▁mult	-3103
itely	-3104
▁chocolate	-3105
▁accommod	-3106
airs	-3107
▁chat	-3108
▁million	-3109
▁opt	-3110
▁surger	-3111
▁variety	-3112
▁sky	-3113
oking	-3114
▁Gang	-3115
▁accur	-3116
▁particular	-3117
hy	-3118
zy	-3119
ats	-3120
▁missing	-3121
▁canceled	-3122
▁homework	-3123
▁knowledge	-3124
ining	-3125
▁create	-3126
▁spread	-3127
▁stores	-3128
▁conditions	-3129
estic	-3130
▁Next	-3131
▁blood	-3132
ruary	-3133
▁agency	-3134
▁cheese	-3135
▁atmosphere	-3136
ds	-3137
▁fair	-3138
▁nerv	-3139
▁pizz	-3140
▁volunte	-3141
▁translation	-3142
oung	-3143
urch	-3144
▁cross	-3145
▁leader	-3146
▁February	-3147
▁structure	-3148
▁conference	-3149
omen	-3150
▁makeup	-3151
▁dangerous	-3152
▁inspection	-3153
mm	-3154
▁dad	-3155
▁Right	-3156
▁complain	-3157
cohol	-3158
▁fem	-3159
▁sil	-3160
▁wall	-3161
ograph	-3162
▁buyer	-3163
▁spring	-3164
▁estimate	-3165
ooth	-3166
▁ter	-3167
▁July	-3168
duction	-3169
▁vegetables	-3170
▁ta	-3171
▁jud	-3172
▁Cl	-3173
▁Oct	-3174
▁chair	-3175
▁replace	-3176
▁reserve	-3177
▁behavior	-3178
ster	-3179
▁surgery	-3180
▁registered	-3181
iest	-3182
year	-3183
▁cry	-3184
▁hor	-3185
riage	-3186
▁fully	-3187
▁users	-3188
▁buying	-3189
▁planned	-3190
▁fab	-3191
▁suff	-3192
iced	-3193
▁wine	-3194
▁worth	-3195
▁active	-3196
▁defect	-3197
▁sleeping	-3198
▁carefully	-3199
cul	-3200
▁estab	-3201
▁voice	-3202
▁approval	-3203
30	-3204
▁hall	-3205
▁depending	-3206
arr	-3207
iver	-3208
▁Dae	-3209
alled	-3210
atory	-3211
▁Sept	-3212
▁link	-3213
▁speed	-3214
▁notice	-3215
▁prices	-3216
▁private	-3217
rel	-3218
▁Tr	-3219
▁decre	-3220
▁effic	-3221
▁scene	-3222
▁helped	-3223
▁update	-3224
▁empt	-3225
▁loss	-3226
▁owner	-3227
▁round	-3228
▁stage	-3229
▁events	-3230
▁figure	-3231
▁urgent	-3232
▁comfort	-3233
▁element	-3234
▁strange	-3235
lus	-3236
ysis	-3237
priate	-3238
▁device	-3239
▁Tw	-3240
▁guy	-3241
▁itself	-3242
▁Koreans	-3243
▁curious	-3244
▁helpful	-3245
▁precious	-3246
▁secret	-3247
▁September	-3248
▁destination	-3249
ware	-3250
ieved	-3251
▁App	-3252
▁bud	-3253
▁nut	-3254
▁earn	-3255
▁pool	-3256
ension	-3257
▁satisfied	-3258
▁pray	-3259
▁avoid	-3260
▁closed	-3261
▁flowers	-3262
▁vill	-3263
essert	-3264
▁claim	-3265
▁polit	-3266
▁Austral	-3267
▁somewhere	-3268
▁convenience	-3269
▁registration	-3270
uses	-3271
▁star	-3272
ending	-3273
▁determ	-3274
▁alcohol	-3275
alent	-3276
▁amazing	-3277
▁Viet	-3278
lement	-3279
▁pizza	-3280
▁cheaper	-3281
allet	-3282
▁Comp	-3283
▁section	-3284
▁hurry	-3285
▁grandm	-3286
▁Vietnam	-3287
▁provides	-3288
▁dessert	-3289
▁reflect	-3290
▁themselves	-3291
▁professional	-3292
▁representative	-3293
ram	-3294
▁gre	-3295
▁keeps	-3296
▁concept	-3297
▁patient	-3298
▁produce	-3299
▁telling	-3300
▁Only	-3301
▁risk	-3302
▁surf	-3303
rences	-3304
▁nervous	-3305
eng	-3306
anch	-3307
▁sour	-3308
▁chose	-3309
▁bottom	-3310
▁church	-3311
▁entered	-3312
iliar	-3313
▁October	-3314
▁Actually	-3315
▁surprised	-3316
gar	-3317
▁wash	-3318
ducing	-3319
▁broke	-3320
▁explan	-3321
▁issued	-3322
▁stomach	-3323
▁Hy	-3324
rate	-3325
▁fat	-3326
▁unf	-3327
▁neck	-3328
▁raise	-3329
▁hobby	-3330
sc	-3331
dong	-3332
▁empty	-3333
▁compon	-3334
▁domestic	-3335
▁obs	-3336
▁Make	-3337
▁piece	-3338
▁sounds	-3339
▁forever	-3340
▁speaking	-3341
▁Put	-3342
▁max	-3343
▁batter	-3344
▁Sometimes	-3345
▁Ke	-3346
▁drawing	-3347
▁produced	-3348
▁restaurants	-3349
min	-3350
put	-3351
▁Tha	-3352
▁Kong	-3353
▁shower	-3354
▁massage	-3355
▁military	-3356
▁pressure	-3357
▁16	-3358
▁bow	-3359
ellow	-3360
▁across	-3361
▁beauty	-3362
▁realized	-3363
▁successful	-3364
▁considering	-3365
cket	-3366
idge	-3367
word	-3368
board	-3369
inary	-3370
▁cars	-3371
▁coll	-3372
▁visa	-3373
fortun	-3374
▁ahead	-3375
bers	-3376
▁Canada	-3377
▁crow	-3378
▁hurts	-3379
▁network	-3380
▁partner	-3381
▁graduation	-3382
aves	-3383
cell	-3384
itch	-3385
▁Con	-3386
▁deg	-3387
idays	-3388
▁missed	-3389
▁becoming	-3390
▁responsible	-3391
▁roll	-3392
▁areas	-3393
▁showed	-3394
▁existing	-3395
▁reserved	-3396
▁wondering	-3397
▁wake	-3398
▁corpor	-3399
▁tastes	-3400
▁analysis	-3401
▁wonderful	-3402
oting	-3403
rently	-3404
▁counter	-3405
▁scheduled	-3406
su	-3407
ply	-3408
▁confident	-3409
rup	-3410
▁bes	-3411
▁sus	-3412
▁emerg	-3413
▁topic	-3414
▁target	-3415
reme	-3416
▁sex	-3417
antly	-3418
▁actor	-3419
▁growth	-3420
▁invent	-3421
▁pieces	-3422
▁academy	-3423
▁apartment	-3424
▁Z	-3425
the	-3426
▁dig	-3427
▁exit	-3428
▁tool	-3429
▁actual	-3430
▁flower	-3431
▁putting	-3432
orld	-3433
iling	-3434
▁gold	-3435
▁songs	-3436
▁marriage	-3437
▁communicate	-3438
oms	-3439
mony	-3440
sing	-3441
eared	-3442
▁relax	-3443
▁faster	-3444
▁Station	-3445
ded	-3446
▁fare	-3447
▁Those	-3448
▁damaged	-3449
▁follows	-3450
▁cosmetics	-3451
▁receiving	-3452
rict	-3453
▁lat	-3454
rench	-3455
▁feet	-3456
▁built	-3457
▁resour	-3458
▁definitely	-3459
▁Me	-3460
▁gar	-3461
▁lie	-3462
▁commer	-3463
▁created	-3464
san	-3465
▁hy	-3466
▁paint	-3467
▁resol	-3468
▁caught	-3469
▁smooth	-3470
▁effects	-3471
▁disappoint	-3472
▁fing	-3473
▁heat	-3474
▁lock	-3475
▁harder	-3476
▁bri	-3477
under	-3478
▁dise	-3479
▁returned	-3480
▁increasing	-3481
▁appropriate	-3482
uth	-3483
▁Hot	-3484
▁mat	-3485
iring	-3486
▁Germany	-3487
▁noodles	-3488
▁sitting	-3489
▁Mar	-3490
▁Was	-3491
▁web	-3492
▁Stud	-3493
cember	-3494
▁mouth	-3495
▁drinks	-3496
▁release	-3497
▁painting	-3498
▁advice	-3499
▁December	-3500
▁occurred	-3501
▁rad	-3502
▁analy	-3503
▁average	-3504
▁tourist	-3505
▁connected	-3506
▁Gu	-3507
▁Pr	-3508
ertain	-3509
▁France	-3510
▁modern	-3511
▁distance	-3512
▁ut	-3513
cher	-3514
ences	-3515
▁rich	-3516
▁till	-3517
▁wide	-3518
▁excited	-3519
ov	-3520
▁prior	-3521
atically	-3522
▁cultural	-3523
▁weekends	-3524
enty	-3525
omed	-3526
▁pan	-3527
▁sle	-3528
▁dance	-3529
▁oppos	-3530
▁sentence	-3531
▁13	-3532
▁adults	-3533
▁safely	-3534
▁yellow	-3535
▁opening	-3536
▁electric	-3537
▁programs	-3538
▁Tom	-3539
▁deb	-3540
▁tight	-3541
▁cleaning	-3542
▁inconvenience	-3543
▁14	-3544
▁Day	-3545
▁kit	-3546
rency	-3547
▁tele	-3548
▁tree	-3549
▁waste	-3550
▁normally	-3551
▁Cur	-3552
▁Try	-3553
ental	-3554
inder	-3555
▁Didn	-3556
▁activity	-3557
▁contacted	-3558
▁die	-3559
▁veh	-3560
arter	-3561
▁proud	-3562
▁budget	-3563
▁holidays	-3564
▁neighbor	-3565
▁agreement	-3566
▁advertisement	-3567
yeon	-3568
ength	-3569
▁propos	-3570
▁charged	-3571
▁contains	-3572
pro	-3573
▁bul	-3574
▁rout	-3575
▁uses	-3576
urning	-3577
▁bother	-3578
▁frequently	-3579
▁cere	-3580
▁spot	-3581
▁rules	-3582
▁excell	-3583
▁salary	-3584
dy	-3585
▁Pay	-3586
▁rid	-3587
▁Once	-3588
▁jobs	-3589
ison	-3590
▁tit	-3591
▁Good	-3592
▁lone	-3593
▁World	-3594
▁sheet	-3595
tes	-3596
epend	-3597
▁crit	-3598
▁installed	-3599
▁Le	-3600
▁June	-3601
▁ideas	-3602
▁meals	-3603
▁range	-3604
▁reality	-3605
▁background	-3606
▁smartphone	-3607
▁17	-3608
▁named	-3609
▁selected	-3610
▁i	-3611
▁beef	-3612
▁load	-3613
lished	-3614
▁sight	-3615
▁benefits	-3616
▁En	-3617
roll	-3618
▁fly	-3619
▁gas	-3620
▁truth	-3621
▁easier	-3622
▁likely	-3623
▁plastic	-3624
eth	-3625
iff	-3626
vey	-3627
▁ho	-3628
▁kn	-3629
▁fabric	-3630
▁patter	-3631
▁remove	-3632
▁singer	-3633
▁respond	-3634
▁negative	-3635
▁1.	-3636
lcome	-3637
▁Sams	-3638
▁Kakao	-3639
▁assist	-3640
▁slowly	-3641
▁wallet	-3642
▁girls	-3643
▁showing	-3644
▁Due	-3645
▁band	-3646
▁Before	-3647
▁accomp	-3648
▁export	-3649
▁describ	-3650
▁anywhere	-3651
▁Bl	-3652
goti	-3653
aging	-3654
▁worse	-3655
▁coupon	-3656
▁gather	-3657
▁leaves	-3658
▁slight	-3659
▁characters	-3660
gage	-3661
▁host	-3662
▁Australia	-3663
iry	-3664
adium	-3665
arant	-3666
▁golf	-3667
▁profit	-3668
▁recommended	-3669
ague	-3670
▁option	-3671
▁numbers	-3672
▁stopped	-3673
eal	-3674
inated	-3675
ourage	-3676
▁admin	-3677
▁shuttle	-3678
▁graduate	-3679
▁procedure	-3680
food	-3681
▁gym	-3682
illed	-3683
▁legal	-3684
▁asleep	-3685
▁simply	-3686
▁ju	-3687
▁acqu	-3688
▁pants	-3689
▁belong	-3690
▁interp	-3691
▁served	-3692
▁opinions	-3693
lex	-3694
umn	-3695
▁ign	-3696
▁trade	-3697
▁rights	-3698
▁extreme	-3699
▁designed	-3700
▁examination	-3701
▁continuously	-3702
ship	-3703
▁six	-3704
iform	-3705
▁negoti	-3706
▁paying	-3707
▁although	-3708
▁deadline	-3709
▁broadcast	-3710
hn	-3711
▁500	-3712
▁Tai	-3713
▁inn	-3714
▁Cont	-3715
▁Dong	-3716
▁Samsung	-3717
▁expense	-3718
▁towards	-3719
lder	-3720
▁tow	-3721
▁hungry	-3722
▁workers	-3723
▁economic	-3724
▁elementary	-3725
▁explanation	-3726
cil	-3727
cean	-3728
▁While	-3729
▁player	-3730
▁depends	-3731
fortunately	-3732
ians	-3733
irty	-3734
▁quit	-3735
▁user	-3736
▁peace	-3737
▁balance	-3738
▁feedback	-3739
▁esc	-3740
▁minute	-3741
▁improved	-3742
ips	-3743
▁funny	-3744
▁lesson	-3745
▁holding	-3746
▁includes	-3747
▁commercial	-3748
▁Ab	-3749
lies	-3750
▁Rec	-3751
▁dogs	-3752
▁stor	-3753
▁calls	-3754
▁conne	-3755
iple	-3756
▁pian	-3757
▁Check	-3758
▁invol	-3759
▁knows	-3760
▁newly	-3761
▁efforts	-3762
▁movement	-3763
▁suitable	-3764
▁excellent	-3765
ket	-3766
▁cab	-3767
▁whom	-3768
▁article	-3769
▁limited	-3770
▁uniform	-3771
▁emergency	-3772
chan	-3773
▁tall	-3774
idents	-3775
▁Shall	-3776
▁yours	-3777
▁occurs	-3778
▁himself	-3779
▁theater	-3780
▁grandmother	-3781
hand	-3782
▁remo	-3783
omeday	-3784
▁science	-3785
▁remaining	-3786
ara	-3787
▁aware	-3788
▁cheer	-3789
▁length	-3790
gy	-3791
key	-3792
lete	-3793
0,000	-3794
▁exec	-3795
▁repe	-3796
▁blank	-3797
▁indic	-3798
▁French	-3799
ray	-3800
chen	-3801
▁Cha	-3802
osing	-3803
▁gate	-3804
▁village	-3805
▁messages	-3806
▁experienced	-3807
▁Sing	-3808
▁fruit	-3809
▁instit	-3810
▁attitude	-3811
▁internal	-3812
▁2.	-3813
▁bell	-3814
▁brow	-3815
▁files	-3816
▁region	-3817
▁useful	-3818
▁arrange	-3819
▁misunder	-3820
▁patients	-3821
▁X	-3822
▁Its	-3823
▁upset	-3824
itation	-3825
▁filled	-3826
▁recent	-3827
cl	-3828
▁Dis	-3829
stick	-3830
▁dreams	-3831
▁nation	-3832
▁server	-3833
▁baggage	-3834
▁functions	-3835
▁organization	-3836
amm	-3837
hen	-3838
▁Dep	-3839
▁Par	-3840
▁joy	-3841
▁ran	-3842
▁sand	-3843
▁stri	-3844
▁career	-3845
▁clients	-3846
▁smoking	-3847
▁confidence	-3848
▁facilities	-3849
term	-3850
ateful	-3851
▁closer	-3852
▁corner	-3853
▁employ	-3854
▁seemed	-3855
▁stayed	-3856
▁download	-3857
▁standing	-3858
▁appearance	-3859
▁disappointed	-3860
uted	-3861
aches	-3862
▁drop	-3863
▁math	-3864
▁maybe	-3865
▁sugar	-3866
standing	-3867
▁setting	-3868
▁baseball	-3869
▁characteristics	-3870
▁sen	-3871
▁Russ	-3872
▁hous	-3873
phones	-3874
▁weird	-3875
▁solved	-3876
▁electron	-3877
▁Everything	-3878
amb	-3879
het	-3880
▁wra	-3881
ivity	-3882
cription	-3883
▁grateful	-3884
arket	-3885
verse	-3886
▁grades	-3887
▁manufacture	-3888
kyo	-3889
▁Col	-3890
aptop	-3891
stood	-3892
▁snacks	-3893
▁Airport	-3894
▁approach	-3895
▁password	-3896
▁impressive	-3897
".	-3898
ape	-3899
▁female	-3900
▁talent	-3901
▁Through	-3902
▁currency	-3903
▁nowadays	-3904
▁reference	-3905
rat	-3906
wang	-3907
▁Give	-3908
▁Asian	-3909
▁calcul	-3910
▁laptop	-3911
▁manual	-3912
▁administ	-3913
▁thankful	-3914
lla	-3915
▁dust	-3916
▁ware	-3917
▁lines	-3918
▁steak	-3919
▁contrib	-3920
▁letters	-3921
▁applying	-3922
▁investig	-3923
▁cooperation	-3924
▁21	-3925
▁pow	-3926
▁Like	-3927
▁cards	-3928
▁pun	-3929
▁elev	-3930
▁Tokyo	-3931
▁attra	-3932
▁estim	-3933
▁anyway	-3934
▁emotion	-3935
▁inquiry	-3936
▁players	-3937
▁realize	-3938
▁studies	-3939
▁advantage	-3940
▁differences	-3941
5.	-3942
▁ir	-3943
▁raw	-3944
▁arch	-3945
▁upon	-3946
▁valu	-3947
iction	-3948
▁tough	-3949
▁basket	-3950
▁economy	-3951
una	-3952
ache	-3953
▁jack	-3954
▁poll	-3955
▁Among	-3956
▁breat	-3957
▁title	-3958
itam	-3959
lymp	-3960
pper	-3961
▁suc	-3962
night	-3963
▁Come	-3964
▁compens	-3965
▁community	-3966
▁Year	-3967
▁king	-3968
▁Olymp	-3969
▁helping	-3970
▁overall	-3971
▁succeed	-3972
▁clothing	-3973
▁accommodation	-3974
leg	-3975
▁cart	-3976
▁ring	-3977
▁decor	-3978
▁familiar	-3979
▁whatever	-3980
▁Currently	-3981
eter	-3982
▁sym	-3983
▁café	-3984
▁toile	-3985
uations	-3986
▁guarant	-3987
ho	-3988
ror	-3989
▁dan	-3990
▁mall	-3991
atives	-3992
▁Hotel	-3993
▁piano	-3994
▁England	-3995
▁kitchen	-3996
▁influence	-3997
▁calm	-3998
▁meant	-3999
▁anytime	-4000
▁clearly	-4001
▁stories	-4002
▁consumers	-4003
cles	-4004
▁Sir	-4005
▁Cent	-4006
▁More	-4007
▁bags	-4008
▁fees	-4009
ession	-4010
▁brief	-4011
▁guests	-4012
▁placed	-4013
▁independ	-4014
amen	-4015
pite	-4016
▁Reg	-4017
ially	-4018
ishes	-4019
▁Each	-4020
▁fans	-4021
▁Other	-4022
▁Kimchi	-4023
▁Taiwan	-4024
rier	-4025
▁quot	-4026
▁upgr	-4027
▁animal	-4028
▁tempor	-4029
▁volume	-4030
▁consist	-4031
▁proposal	-4032
▁teaching	-4033
▁cellphone	-4034
ube	-4035
▁Gr	-4036
▁City	-4037
▁Nove	-4038
▁inde	-4039
▁nail	-4040
▁impact	-4041
▁potato	-4042
▁resources	-4043
▁introduced	-4044
▁Sm	-4045
▁spir	-4046
utions	-4047
▁boring	-4048
▁circum	-4049
▁remind	-4050
▁airline	-4051
▁November	-4052
▁expression	-4053
▁harm	-4054
▁thor	-4055
▁prote	-4056
▁opposite	-4057
▁experiment	-4058
aek	-4059
raw	-4060
ses	-4061
urb	-4062
▁liqu	-4063
▁wire	-4064
▁laugh	-4065
▁novel	-4066
▁shock	-4067
▁someday	-4068
▁init	-4069
▁salad	-4070
▁failed	-4071
▁master	-4072
▁seafood	-4073
▁relevant	-4074
▁requests	-4075
▁possibility	-4076
zing	-4077
▁Two	-4078
▁began	-4079
▁plant	-4080
▁lonely	-4081
▁keeping	-4082
▁washing	-4083
▁participated	-4084
▁automatically	-4085
▁23	-4086
▁id	-4087
ators	-4088
▁vict	-4089
▁arrival	-4090
▁smaller	-4091
▁Sa	-4092
▁ok	-4093
hest	-4094
▁Amaz	-4095
▁legs	-4096
▁trend	-4097
▁storage	-4098
▁informed	-4099
▁signific	-4100
gn	-4101
att	-4102
▁Ji	-4103
apers	-4104
ening	-4105
sy	-4106
▁Des	-4107
▁ban	-4108
iland	-4109
▁qual	-4110
▁boxes	-4111
▁ended	-4112
▁serve	-4113
▁Thailand	-4114
▁submitted	-4115
oll	-4116
orn	-4117
town	-4118
arily	-4119
▁emot	-4120
▁subst	-4121
▁cooked	-4122
▁height	-4123
▁scared	-4124
▁surface	-4125
▁updated	-4126
▁accurate	-4127
▁essential	-4128
▁pred	-4129
▁wrap	-4130
▁laund	-4131
▁acting	-4132
▁leaders	-4133
▁maximum	-4134
▁container	-4135
▁assignment	-4136
▁investment	-4137
▁inj	-4138
▁thick	-4139
licated	-4140
▁bottle	-4141
▁images	-4142
▁joined	-4143
fficient	-4144
▁circumst	-4145
▁director	-4146
▁King	-4147
▁died	-4148
ternal	-4149
▁ocean	-4150
▁usual	-4151
▁latest	-4152
▁actions	-4153
▁accepted	-4154
▁impression	-4155
bum	-4156
▁Car	-4157
▁cru	-4158
▁pupp	-4159
▁however	-4160
▁announce	-4161
▁humans	-4162
▁packing	-4163
▁promised	-4164
▁developing	-4165
mble	-4166
▁rob	-4167
▁mask	-4168
▁shot	-4169
▁juice	-4170
▁entertain	-4171
▁connection	-4172
rest	-4173
▁Com	-4174
▁cit	-4175
asant	-4176
▁asse	-4177
▁branch	-4178
▁booking	-4179
▁ceremony	-4180
▁manufacturing	-4181
20	-4182
arm	-4183
ondon	-4184
using	-4185
▁mood	-4186
▁toilet	-4187
▁values	-4188
▁divided	-4189
▁National	-4190
▁mistakes	-4191
▁languages	-4192
ech	-4193
apore	-4194
round	-4195
▁dorm	-4196
▁exha	-4197
▁agent	-4198
▁categ	-4199
▁units	-4200
▁artist	-4201
▁videos	-4202
▁complex	-4203
▁features	-4204
▁Singapore	-4205
▁processed	-4206
EO	-4207
ki	-4208
zz	-4209
▁1,	-4210
itory	-4211
▁burn	-4212
▁kill	-4213
▁drunk	-4214
▁London	-4215
▁downtown	-4216
cut	-4217
rated	-4218
▁cargo	-4219
ological	-4220
▁capital	-4221
▁musical	-4222
▁volunteer	-4223
▁reasonable	-4224
lled	-4225
▁Aren	-4226
▁hero	-4227
▁click	-4228
▁truly	-4229
▁usage	-4230
▁During	-4231
▁thorough	-4232
▁Unfortunately	-4233
ousand	-4234
▁India	-4235
▁force	-4236
▁laundry	-4237
▁purchasing	-4238
ino	-4239
▁postp	-4240
▁Finally	-4241
▁concerned	-4242
ji	-4243
cks	-4244
▁lif	-4245
orrow	-4246
▁surv	-4247
▁Amazon	-4248
▁attack	-4249
▁exclud	-4250
▁groups	-4251
▁minimum	-4252
▁monitor	-4253
▁confused	-4254
▁cy	-4255
icon	-4256
▁Mom	-4257
orter	-4258
▁woke	-4259
▁Italy	-4260
▁newsp	-4261
▁terri	-4262
▁annual	-4263
▁exhaust	-4264
▁vehicle	-4265
▁sensitive	-4266
fl	-4267
▁pet	-4268
anced	-4269
▁loud	-4270
▁rank	-4271
▁sincerely	-4272
▁situations	-4273
▁conditioner	-4274
ids	-4275
oub	-4276
iors	-4277
vent	-4278
▁Per	-4279
▁hom	-4280
icles	-4281
▁bicy	-4282
▁sympt	-4283
▁battery	-4284
▁warehouse	-4285
gle	-4286
▁Es	-4287
▁mic	-4288
▁fort	-4289
▁sort	-4290
▁mixed	-4291
▁lately	-4292
▁stadium	-4293
▁surround	-4294
▁satisfact	-4295
▁International	-4296
wa	-4297
iny	-4298
ped	-4299
▁Sw	-4300
▁marry	-4301
▁names	-4302
▁princ	-4303
▁10,000	-4304
▁causes	-4305
▁expand	-4306
▁lovely	-4307
▁perspect	-4308
▁requires	-4309
▁concentrate	-4310
hold	-4311
erson	-4312
▁push	-4313
▁plate	-4314
▁strategy	-4315
▁attending	-4316
▁complicated	-4317
aret	-4318
page	-4319
▁spl	-4320
▁gard	-4321
pected	-4322
▁drank	-4323
▁marked	-4324
▁series	-4325
▁methods	-4326
▁elevator	-4327
▁Won	-4328
▁ath	-4329
▁wan	-4330
▁Thus	-4331
▁labor	-4332
▁loves	-4333
▁motor	-4334
▁shops	-4335
iration	-4336
▁desire	-4337
▁growing	-4338
▁tracking	-4339
▁accounting	-4340
..	-4341
hered	-4342
▁1,000	-4343
▁noise	-4344
▁slept	-4345
▁smoke	-4346
▁tasks	-4347
▁Gyeong	-4348
▁highly	-4349
▁riding	-4350
▁archite	-4351
▁thousand	-4352
▁mir	-4353
▁Hall	-4354
▁nose	-4355
▁bored	-4356
▁carried	-4357
▁approved	-4358
▁incident	-4359
▁restrict	-4360
▁perfectly	-4361
▁suggested	-4362
bu	-4363
ls	-4364
po	-4365
:00	-4366
:30	-4367
▁kim	-4368
▁tag	-4369
ipped	-4370
▁John	-4371
▁susp	-4372
▁airpl	-4373
▁fever	-4374
▁habit	-4375
▁lucky	-4376
▁aspect	-4377
▁fruits	-4378
▁scener	-4379
onna	-4380
▁Res	-4381
ulate	-4382
▁Jack	-4383
▁Third	-4384
▁relig	-4385
▁seller	-4386
▁everyday	-4387
▁challenge	-4388
nis	-4389
▁$1	-4390
▁Tra	-4391
▁mel	-4392
▁pair	-4393
▁models	-4394
▁cancell	-4395
▁disease	-4396
▁overtime	-4397
▁valuable	-4398
hop	-4399
▁PO	-4400
▁pal	-4401
▁Jung	-4402
▁absor	-4403
▁enjoying	-4404
▁slightly	-4405
ows	-4406
ager	-4407
empt	-4408
rees	-4409
ilies	-4410
▁citiz	-4411
▁Lastly	-4412
▁profile	-4413
▁components	-4414
rop	-4415
days	-4416
ened	-4417
▁cig	-4418
▁path	-4419
father	-4420
▁nights	-4421
▁taught	-4422
▁sharing	-4423
▁attractive	-4424
▁contacting	-4425
▁difficulties	-4426
jang	-4427
▁jour	-4428
▁greet	-4429
▁guard	-4430
▁liter	-4431
▁losing	-4432
▁monthly	-4433
▁passing	-4434
▁treated	-4435
▁tourists	-4436
▁finishing	-4437
kg	-4438
pa	-4439
bon	-4440
ler	-4441
▁PM	-4442
alty	-4443
▁ble	-4444
iency	-4445
▁fund	-4446
artment	-4447
▁annivers	-4448
▁teachers	-4449
▁memorable	-4450
▁60	-4451
ites	-4452
wers	-4453
▁sty	-4454
icing	-4455
▁bear	-4456
▁cast	-4457
▁drug	-4458
▁contest	-4459
▁evidence	-4460
▁explained	-4461
▁throughout	-4462
▁advertising	-4463
for	-4464
jin	-4465
▁Bu	-4466
▁Ge	-4467
king	-4468
▁cher	-4469
▁rule	-4470
▁launch	-4471
▁reward	-4472
▁raining	-4473
▁singing	-4474
▁potential	-4475
▁participating	-4476
bang	-4477
▁Add	-4478
oogle	-4479
▁disp	-4480
▁pill	-4481
▁wood	-4482
▁pasta	-4483
▁trees	-4484
▁crowded	-4485
▁highest	-4486
▁naturally	-4487
▁neighborhood	-4488
een	-4489
atform	-4490
▁Young	-4491
▁frame	-4492
▁homet	-4493
▁ramen	-4494
▁stars	-4495
▁worker	-4496
▁Alright	-4497
▁operating	-4498
agram	-4499
▁chem	-4500
▁fant	-4501
▁Paris	-4502
▁Their	-4503
▁joint	-4504
▁sells	-4505
▁embarr	-4506
▁finger	-4507
▁invite	-4508
▁alright	-4509
▁hometown	-4510
▁signature	-4511
lim	-4512
unt	-4513
urse	-4514
▁Use	-4515
fered	-4516
ounds	-4517
▁lens	-4518
▁cable	-4519
▁draft	-4520
▁label	-4521
▁freely	-4522
▁scenery	-4523
▁totally	-4524
▁willing	-4525
▁designer	-4526
▁regularly	-4527
ifts	-4528
▁lip	-4529
▁Cong	-4530
▁decl	-4531
▁phen	-4532
▁cloud	-4533
▁tests	-4534
▁compar	-4535
50	-4536
▁Ky	-4537
iers	-4538
ender	-4539
usion	-4540
coming	-4541
▁Child	-4542
▁eaten	-4543
▁elder	-4544
▁enhan	-4545
▁immig	-4546
▁rough	-4547
▁trave	-4548
▁vitam	-4549
▁burden	-4550
▁obtain	-4551
▁revised	-4552
▁efficient	-4553
▁embarrass	-4554
▁regardless	-4555
▁cancellation	-4556
BC	-4557
bed	-4558
has	-4559
▁Hi	-4560
eing	-4561
lict	-4562
▁fra	-4563
▁2016	-4564
▁ends	-4565
▁util	-4566
▁adding	-4567
▁signed	-4568
▁Especially	-4569
▁0	-4570
asy	-4571
gart	-4572
▁jump	-4573
▁scent	-4574
ciation	-4575
▁allows	-4576
▁spirit	-4577
▁survey	-4578
▁therap	-4579
▁glasses	-4580
▁families	-4581
▁statement	-4582
2.	-4583
af	-4584
▁27	-4585
▁Mo	-4586
osen	-4587
▁bak	-4588
▁prec	-4589
▁sets	-4590
▁stops	-4591
▁deeply	-4592
▁jacket	-4593
▁mostly	-4594
▁observ	-4595
▁orange	-4596
▁quarter	-4597
indergart	-4598
▁overcome	-4599
▁stressed	-4600
▁establish	-4601
▁importance	-4602
ruct	-4603
▁Get	-4604
▁ded	-4605
▁rom	-4606
vered	-4607
▁Song	-4608
▁bike	-4609
▁doub	-4610
▁male	-4611
arched	-4612
▁honey	-4613
▁Really	-4614
▁kindly	-4615
▁factors	-4616
▁entering	-4617
▁handsome	-4618
▁relative	-4619
▁departure	-4620
▁ourselves	-4621
▁packaging	-4622
▁CEO	-4623
▁aim	-4624
▁unc	-4625
iving	-4626
▁Keep	-4627
▁gotten	-4628
▁kimchi	-4629
▁notify	-4630
▁airplane	-4631
▁cultures	-4632
▁extremely	-4633
▁political	-4634
▁preparation	-4635
▁installation	-4636
yed	-4637
▁Fl	-4638
cies	-4639
▁gri	-4640
esome	-4641
▁sett	-4642
▁recru	-4643
▁saved	-4644
▁pencil	-4645
▁switch	-4646
▁dischar	-4647
▁comments	-4648
▁pleasure	-4649
▁projects	-4650
▁difficulty	-4651
▁anniversary	-4652
ode	-4653
▁PC	-4654
▁Mic	-4655
▁civ	-4656
lfare	-4657
▁cand	-4658
▁stew	-4659
▁climb	-4660
▁magaz	-4661
▁mainly	-4662
▁comment	-4663
▁hearing	-4664
▁offered	-4665
▁conflict	-4666
▁partners	-4667
▁phenomen	-4668
▁translate	-4669
PS	-4670
care	-4671
▁lux	-4672
acity	-4673
▁pull	-4674
▁award	-4675
▁river	-4676
imately	-4677
▁property	-4678
▁suffering	-4679
▁foundation	-4680
▁personally	-4681
▁previously	-4682
pes	-4683
aces	-4684
▁Mal	-4685
imbap	-4686
▁Send	-4687
▁capt	-4688
▁shar	-4689
▁teams	-4690
▁printing	-4691
▁restroom	-4692
▁spending	-4693
▁originally	-4694
▁understood	-4695
cm	-4696
▁300	-4697
▁umb	-4698
going	-4699
oring	-4700
▁seve	-4701
▁brain	-4702
▁evalu	-4703
▁flavor	-4704
▁origin	-4705
▁awesome	-4706
▁modified	-4707
▁celebrate	-4708
▁implement	-4709
▁kindergart	-4710
▁consideration	-4711
▁Ear	-4712
▁fear	-4713
estern	-4714
▁shared	-4715
▁cigaret	-4716
▁designs	-4717
▁emotions	-4718
▁computers	-4719
▁discussion	-4720
▁electronic	-4721
▁eventually	-4722
egr	-4723
▁Ok	-4724
aint	-4725
imin	-4726
▁Har	-4727
▁hat	-4728
▁Brit	-4729
▁Happ	-4730
▁eggs	-4731
▁subs	-4732
▁dirty	-4733
▁straw	-4734
▁umbre	-4735
▁withd	-4736
▁Gangnam	-4737
▁schools	-4738
▁conducted	-4739
▁Ste	-4740
▁mer	-4741
▁army	-4742
▁plays	-4743
▁shirt	-4744
▁stamp	-4745
▁Google	-4746
▁income	-4747
▁covered	-4748
▁finding	-4749
▁exciting	-4750
▁ordinary	-4751
▁grandfather	-4752
▁Co	-4753
▁Pre	-4754
▁wet	-4755
▁salt	-4756
▁tooth	-4757
lection	-4758
▁School	-4759
▁chosen	-4760
▁friendly	-4761
▁platform	-4762
▁classroom	-4763
▁graduated	-4764
▁evaluation	-4765
▁improvement	-4766
▁iP	-4767
▁Cal	-4768
▁hop	-4769
place	-4770
▁Cons	-4771
▁boat	-4772
▁teen	-4773
▁faith	-4774
▁outdo	-4775
▁skill	-4776
▁trash	-4777
▁creative	-4778
▁disappear	-4779
pid	-4780
▁sir	-4781
▁asso	-4782
▁fits	-4783
▁summ	-4784
▁emphas	-4785
▁tennis	-4786
▁pattern	-4787
▁arriving	-4788
▁processing	-4789
▁regulations	-4790
▁distribution	-4791
▁Af	-4792
▁mad	-4793
▁pig	-4794
▁dates	-4795
▁gonna	-4796
▁mechan	-4797
▁resort	-4798
▁senior	-4799
▁speech	-4800
▁texture	-4801
▁ordering	-4802
▁certainly	-4803
▁foreigner	-4804
▁exercising	-4805
▁population	-4806
harm	-4807
▁cous	-4808
▁pink	-4809
▁scan	-4810
▁congr	-4811
related	-4812
▁software	-4813
▁transaction	-4814
4.	-4815
itar	-4816
▁argu	-4817
▁teeth	-4818
▁compare	-4819
▁matters	-4820
▁officer	-4821
▁options	-4822
▁promote	-4823
▁appeared	-4824
▁consumer	-4825
▁homepage	-4826
▁corporate	-4827
▁discussed	-4828
▁photograph	-4829
edom	-4830
ores	-4831
▁rat	-4832
▁ski	-4833
▁tim	-4834
riger	-4835
▁Prof	-4836
▁soap	-4837
▁crazy	-4838
▁turns	-4839
▁valid	-4840
▁bicycle	-4841
▁dancing	-4842
▁dropped	-4843
▁Recently	-4844
▁moisture	-4845
▁organized	-4846
▁technical	-4847
▁commission	-4848
▁relationships	-4849
dom	-4850
lear	-4851
resp	-4852
▁led	-4853
▁farm	-4854
▁terr	-4855
▁blind	-4856
▁crime	-4857
▁graph	-4858
▁input	-4859
iveness	-4860
▁exceed	-4861
▁lights	-4862
▁congrat	-4863
▁imagine	-4864
▁terrible	-4865
▁buildings	-4866
▁kindergarten	-4867
10	-4868
7.	-4869
▁Wa	-4870
bies	-4871
wise	-4872
▁Has	-4873
▁Lot	-4874
illeg	-4875
▁expert	-4876
▁channel	-4877
▁univers	-4878
▁umbrella	-4879
▁practical	-4880
▁reservations	-4881
men	-4882
▁3.	-4883
know	-4884
▁USA	-4885
▁rib	-4886
▁Asia	-4887
▁Both	-4888
orrect	-4889
▁court	-4890
▁honor	-4891
▁illeg	-4892
▁exclus	-4893
▁source	-4894
▁stairs	-4895
▁pleasant	-4896
▁refriger	-4897
NS	-4898
▁Us	-4899
bage	-4900
made	-4901
rupt	-4902
▁Mac	-4903
▁hes	-4904
▁cities	-4905
▁integr	-4906
▁rental	-4907
▁welcome	-4908
▁expressed	-4909
▁basketball	-4910
chol	-4911
▁guid	-4912
▁lying	-4913
▁actors	-4914
▁degree	-4915
▁parcel	-4916
▁discrim	-4917
▁traveled	-4918
▁uploaded	-4919
▁seriously	-4920
▁meaningful	-4921
▁introduction	-4922
▁Br	-4923
mbol	-4924
▁Jin	-4925
▁upp	-4926
▁insp	-4927
▁album	-4928
▁detect	-4929
▁modify	-4930
▁Congrat	-4931
▁camping	-4932
▁meetings	-4933
▁quotation	-4934
▁Department	-4935
▁Jes	-4936
▁nor	-4937
▁spr	-4938
useok	-4939
▁conv	-4940
▁Until	-4941
▁stret	-4942
▁tasty	-4943
▁whose	-4944
▁Hanbok	-4945
▁approx	-4946
▁assess	-4947
▁forest	-4948
▁houses	-4949
▁settle	-4950
▁falling	-4951
▁markets	-4952
▁operate	-4953
▁Children	-4954
▁organize	-4955
▁temporary	-4956
▁friendship	-4957
▁circumstances	-4958
da	-4959
pop	-4960
▁lob	-4961
enger	-4962
▁pregn	-4963
▁upper	-4964
▁extend	-4965
▁surely	-4966
▁Chuseok	-4967
▁arrives	-4968
ma	-4969
▁Ro	-4970
aven	-4971
hone	-4972
ushi	-4973
essel	-4974
gging	-4975
▁basis	-4976
▁grown	-4977
▁Wouldn	-4978
▁delete	-4979
▁garden	-4980
▁packed	-4981
▁pocket	-4982
▁raised	-4983
▁Further	-4984
▁answers	-4985
▁Po	-4986
jeon	-4987
vious	-4988
▁High	-4989
▁Pres	-4990
▁cott	-4991
▁hamb	-4992
▁brown	-4993
▁arrang	-4994
▁medium	-4995
▁picked	-4996
▁interior	-4997
▁reported	-4998
▁weakness	-4999
▁thoroughly	-5000
▁22	-5001
arest	-5002
▁flex	-5003
▁forg	-5004
▁runs	-5005
terday	-5006
▁scary	-5007
▁stuck	-5008
▁symbol	-5009
▁wealth	-5010
▁Profess	-5011
▁knowing	-5012
▁involved	-5013
▁Yesterday	-5014
sha	-5015
▁Pa	-5016
aced	-5017
ibly	-5018
oted	-5019
▁Rep	-5020
▁Sam	-5021
▁dye	-5022
aries	-5023
ulous	-5024
▁hire	-5025
▁mode	-5026
▁prop	-5027
▁thin	-5028
▁buses	-5029
▁German	-5030
▁offers	-5031
▁capacity	-5032
▁inventory	-5033
abor	-5034
▁pad	-5035
iture	-5036
oices	-5037
order	-5038
iation	-5039
▁Jesus	-5040
▁annoy	-5041
▁gifts	-5042
▁Italian	-5043
▁besides	-5044
▁cleaned	-5045
▁concern	-5046
▁freedom	-5047
▁shooting	-5048
▁happening	-5049
▁impressed	-5050
ived	-5051
asion	-5052
▁logo	-5053
▁rock	-5054
▁soul	-5055
igence	-5056
▁frust	-5057
▁thinks	-5058
▁vessel	-5059
▁largest	-5060
▁lessons	-5061
3.	-5062
IC	-5063
MS	-5064
▁DH	-5065
▁Hum	-5066
idden	-5067
iking	-5068
▁coat	-5069
▁cris	-5070
▁perf	-5071
isions	-5072
▁innov	-5073
▁suits	-5074
▁powder	-5075
▁remote	-5076
▁strict	-5077
▁predict	-5078
▁welfare	-5079
▁established	-5080
▁transferred	-5081
▁consultation	-5082
▁satisfaction	-5083
▁Congratulations	-5084
ks	-5085
reg	-5086
uis	-5087
▁Sy	-5088
haps	-5089
pack	-5090
rial	-5091
▁10%	-5092
▁dil	-5093
▁pus	-5094
urger	-5095
▁cats	-5096
▁rapid	-5097
▁sport	-5098
▁compos	-5099
▁headqu	-5100
▁histor	-5101
▁larger	-5102
▁happily	-5103
▁external	-5104
▁followed	-5105
▁permission	-5106
▁Art	-5107
known	-5108
ublic	-5109
▁Call	-5110
▁bowl	-5111
▁Afric	-5112
▁ideal	-5113
▁motiv	-5114
▁renew	-5115
▁shame	-5116
actions	-5117
▁systems	-5118
▁Olympics	-5119
▁subjects	-5120
▁searching	-5121
▁phenomenon	-5122
▁perspective	-5123
hai	-5124
how	-5125
▁ful	-5126
▁hole	-5127
▁nurse	-5128
▁route	-5129
olution	-5130
▁absent	-5131
▁critic	-5132
▁Another	-5133
▁century	-5134
▁earthqu	-5135
▁Secondly	-5136
▁childhood	-5137
▁interpret	-5138
▁accomplish	-5139
▁additionally	-5140
TA	-5141
iable	-5142
ulated	-5143
▁judge	-5144
▁paste	-5145
▁altern	-5146
▁plants	-5147
▁enterpr	-5148
▁pollution	-5149
▁celebrities	-5150
▁engineering	-5151
▁rub	-5152
▁tor	-5153
▁nurs	-5154
overed	-5155
▁5,000	-5156
▁autumn	-5157
▁crying	-5158
▁unable	-5159
▁charges	-5160
▁fishing	-5161
▁printed	-5162
▁multiple	-5163
▁newspaper	-5164
▁providing	-5165
▁recognize	-5166
▁constantly	-5167
gen	-5168
ori	-5169
rics	-5170
▁fro	-5171
▁pron	-5172
▁puppy	-5173
▁cleans	-5174
▁prohib	-5175
▁appears	-5176
▁leading	-5177
▁muscles	-5178
▁citizens	-5179
▁headache	-5180
anc	-5181
yond	-5182
▁DHL	-5183
▁amb	-5184
▁Chan	-5185
▁grew	-5186
▁onto	-5187
▁booth	-5188
▁sides	-5189
▁worst	-5190
▁worries	-5191
▁Instagram	-5192
▁depressed	-5193
▁attachment	-5194
▁certification	-5195
1.	-5196
reed	-5197
▁row	-5198
iance	-5199
lines	-5200
▁East	-5201
▁chew	-5202
▁pros	-5203
▁sites	-5204
▁plenty	-5205
▁failure	-5206
▁greatly	-5207
▁organiz	-5208
▁testing	-5209
▁machines	-5210
▁intention	-5211
▁paintings	-5212
▁sentences	-5213
▁leadership	-5214
agn	-5215
▁bi	-5216
▁cas	-5217
agues	-5218
itors	-5219
lling	-5220
▁chef	-5221
▁magn	-5222
undred	-5223
▁civil	-5224
▁shrim	-5225
▁theme	-5226
▁afford	-5227
▁destro	-5228
▁gained	-5229
▁Company	-5230
▁increases	-5231
▁environmental	-5232
aew	-5233
kes	-5234
ony	-5235
▁26	-5236
utes	-5237
▁Cho	-5238
▁Nam	-5239
▁fer	-5240
▁kne	-5241
▁soy	-5242
agers	-5243
anish	-5244
attle	-5245
itate	-5246
▁choo	-5247
▁Still	-5248
▁adapt	-5249
▁doubt	-5250
▁goals	-5251
▁stain	-5252
▁cotton	-5253
▁dramas	-5254
▁theory	-5255
▁nearest	-5256
▁actively	-5257
▁decrease	-5258
▁facility	-5259
▁advantages	-5260
▁significant	-5261
▁Bra	-5262
▁Show	-5263
▁stir	-5264
▁Daegu	-5265
▁Shang	-5266
▁Women	-5267
▁sizes	-5268
▁youth	-5269
▁listed	-5270
▁noodle	-5271
▁degrees	-5272
▁Students	-5273
▁priority	-5274
▁terminal	-5275
▁employment	-5276
▁IT	-5277
inar	-5278
▁jun	-5279
▁phr	-5280
antic	-5281
▁grab	-5282
▁dolls	-5283
▁magic	-5284
▁prize	-5285
▁weren	-5286
▁Custom	-5287
▁dispos	-5288
▁unlike	-5289
▁artwork	-5290
▁kindness	-5291
▁exhausted	-5292
▁guarantee	-5293
▁efficiency	-5294
▁inconvenient	-5295
▁opportunities	-5296
▁28	-5297
▁70	-5298
ties	-5299
▁gap	-5300
▁gun	-5301
▁ult	-5302
▁Jeon	-5303
▁furn	-5304
▁laun	-5305
▁Gwang	-5306
▁schol	-5307
▁sushi	-5308
▁intell	-5309
▁severe	-5310
▁victim	-5311
▁despite	-5312
▁compensation	-5313
box	-5314
▁War	-5315
wered	-5316
▁Think	-5317
▁produ	-5318
▁uncle	-5319
▁walked	-5320
▁Instead	-5321
▁records	-5322
▁accounts	-5323
▁presents	-5324
▁educational	-5325
▁manufacturer	-5326
▁Ms	-5327
eral	-5328
ondo	-5329
▁ine	-5330
iries	-5331
▁pharm	-5332
▁beyond	-5333
▁brands	-5334
▁papers	-5335
▁scient	-5336
▁withdraw	-5337
▁membership	-5338
▁Sc	-5339
iber	-5340
▁yog	-5341
aling	-5342
berry	-5343
▁neat	-5344
▁About	-5345
▁demon	-5346
▁Russia	-5347
▁beside	-5348
▁illust	-5349
▁phones	-5350
▁stable	-5351
▁Indones	-5352
▁initial	-5353
▁outdoor	-5354
▁boarding	-5355
▁urgently	-5356
▁Professor	-5357
▁expecting	-5358
▁translator	-5359
▁&	-5360
off	-5361
illa	-5362
▁rot	-5363
▁spa	-5364
▁Shin	-5365
▁Time	-5366
▁moon	-5367
▁recy	-5368
▁rude	-5369
▁Based	-5370
▁leads	-5371
▁butter	-5372
▁threat	-5373
▁hundred	-5374
▁engineer	-5375
▁shoulder	-5376
med	-5377
aded	-5378
oned	-5379
otto	-5380
rite	-5381
▁Mus	-5382
fried	-5383
▁flat	-5384
▁idol	-5385
▁lady	-5386
vision	-5387
▁lover	-5388
▁mirror	-5389
▁managed	-5390
▁upgrade	-5391
▁Shanghai	-5392
▁reaction	-5393
▁comfortably	-5394
OE	-5395
point	-5396
▁Star	-5397
▁adop	-5398
▁leak	-5399
▁Great	-5400
▁catal	-5401
▁menus	-5402
▁seven	-5403
▁format	-5404
▁muscle	-5405
▁conclus	-5406
▁courage	-5407
▁illegal	-5408
▁penalty	-5409
▁displayed	-5410
▁exchanged	-5411
▁beforehand	-5412
▁Furthermore	-5413
▁SNS	-5414
▁Tur	-5415
▁jam	-5416
▁pure	-5417
▁spare	-5418
▁wanna	-5419
▁excess	-5420
▁loving	-5421
▁reject	-5422
▁estimated	-5423
▁competitive	-5424
ao	-5425
ana	-5426
ipe	-5427
uel	-5428
▁er	-5429
ades	-5430
aled	-5431
ingu	-5432
▁gat	-5433
cient	-5434
gment	-5435
wondo	-5436
▁clock	-5437
▁eight	-5438
▁scale	-5439
▁tools	-5440
▁relieve	-5441
▁turning	-5442
▁Tomorrow	-5443
▁directions	-5444
▁attractions	-5445
5,	-5446
▁x	-5447
▁Ag	-5448
▁Os	-5449
▁tu	-5450
inct	-5451
▁Ass	-5452
▁anx	-5453
▁scr	-5454
itter	-5455
▁arms	-5456
▁iron	-5457
▁divor	-5458
▁occup	-5459
▁sandw	-5460
▁liquid	-5461
▁pepper	-5462
▁Someone	-5463
▁devices	-5464
▁focused	-5465
▁parties	-5466
▁audience	-5467
▁symptoms	-5468
▁correctly	-5469
▁proceeded	-5470
▁recognized	-5471
8.	-5472
AT	-5473
▁-	-5474
▁Dr	-5475
ancy	-5476
▁era	-5477
▁sin	-5478
mates	-5479
▁indo	-5480
▁repa	-5481
▁radio	-5482
▁allerg	-5483
▁British	-5484
▁attempt	-5485
▁demonst	-5486
▁chemical	-5487
▁gathered	-5488
▁majoring	-5489
▁supplies	-5490
▁returning	-5491
yn	-5492
uct	-5493
▁AS	-5494
mark	-5495
▁Rem	-5496
▁mur	-5497
andom	-5498
inter	-5499
▁ment	-5500
▁reve	-5501
▁tire	-5502
▁unex	-5503
ipping	-5504
▁Lotte	-5505
▁bills	-5506
▁bound	-5507
▁reven	-5508
▁dating	-5509
▁waited	-5510
▁benefit	-5511
▁diverse	-5512
▁admission	-5513
▁designated	-5514
▁combination	-5515
ij	-5516
500	-5517
hab	-5518
▁Ed	-5519
▁Bes	-5520
▁wid	-5521
issue	-5522
▁Talk	-5523
▁dawn	-5524
▁Happy	-5525
▁wheel	-5526
▁posted	-5527
▁square	-5528
▁bottles	-5529
▁fastest	-5530
▁obvious	-5531
▁sticker	-5532
▁advanced	-5533
▁dormitory	-5534
▁inquiries	-5535
asc	-5536
bye	-5537
zed	-5538
sych	-5539
▁ABC	-5540
akers	-5541
▁Part	-5542
▁typh	-5543
engers	-5544
uclear	-5545
▁Spain	-5546
▁forms	-5547
▁inner	-5548
ression	-5549
ultural	-5550
▁50,000	-5551
▁agreed	-5552
▁checks	-5553
▁Besides	-5554
▁Nowadays	-5555
▁moisturi	-5556
▁postpone	-5557
▁colleagues	-5558
▁generation	-5559
▁supporting	-5560
▁announcement	-5561
9.	-5562
isy	-5563
zen	-5564
iles	-5565
ouch	-5566
▁tom	-5567
▁fold	-5568
▁Doesn	-5569
▁bloss	-5570
▁cloth	-5571
▁begins	-5572
▁factor	-5573
▁guitar	-5574
▁iPhone	-5575
▁relief	-5576
▁Firstly	-5577
▁courses	-5578
▁mission	-5579
▁recorded	-5580
▁somebody	-5581
▁supported	-5582
▁administration	-5583
ti	-5584
zer	-5585
▁0.	-5586
bble	-5587
▁Hey	-5588
▁rum	-5589
otalk	-5590
▁shoe	-5591
▁stim	-5592
▁virt	-5593
▁Never	-5594
▁Market	-5595
▁Regard	-5596
▁unless	-5597
▁deleted	-5598
▁Moreover	-5599
▁affected	-5600
▁consists	-5601
▁elements	-5602
▁smoothly	-5603
hem	-5604
oro	-5605
rom	-5606
▁Da	-5607
iant	-5608
ilos	-5609
irts	-5610
rant	-5611
icies	-5612
▁Wait	-5613
▁apple	-5614
▁steps	-5615
▁truck	-5616
▁exists	-5617
▁therapy	-5618
▁creating	-5619
▁examples	-5620
▁launched	-5621
▁represents	-5622
▁disappeared	-5623
▁immigration	-5624
▁successfully	-5625
%.	-5626
gs	-5627
etic	-5628
▁199	-5629
▁Pal	-5630
▁Spe	-5631
▁sou	-5632
▁prem	-5633
▁prim	-5634
▁worn	-5635
▁bless	-5636
▁humid	-5637
respond	-5638
tenance	-5639
▁cousin	-5640
▁filter	-5641
▁sleepy	-5642
▁cutting	-5643
▁grilled	-5644
▁reduced	-5645
▁Festival	-5646
▁answered	-5647
▁choosing	-5648
▁searched	-5649
▁translated	-5650
▁universities	-5651
col	-5652
iner	-5653
teok	-5654
▁Tae	-5655
▁dur	-5656
▁eth	-5657
istry	-5658
▁bridge	-5659
▁Spanish	-5660
▁central	-5661
▁heading	-5662
▁assigned	-5663
▁visitors	-5664
▁discounts	-5665
▁determined	-5666
▁earthquake	-5667
▁unexpected	-5668
▁31	-5669
▁Bud	-5670
▁Pol	-5671
▁shy	-5672
entle	-5673
shirt	-5674
▁Line	-5675
▁Love	-5676
▁coin	-5677
▁brush	-5678
▁contr	-5679
▁entry	-5680
▁suffer	-5681
▁freight	-5682
▁pleased	-5683
▁powerful	-5684
▁replaced	-5685
▁generally	-5686
▁producing	-5687
▁discounted	-5688
▁requirements	-5689
fers	-5690
wear	-5691
▁awk	-5692
▁vir	-5693
ghter	-5694
venir	-5695
▁coke	-5696
▁scar	-5697
▁Jeong	-5698
▁pride	-5699
quality	-5700
▁execut	-5701
▁handling	-5702
▁souvenir	-5703
▁defective	-5704
▁schedules	-5705
▁tradition	-5706
▁attendance	-5707
▁correspond	-5708
▁everywhere	-5709
▁suggestion	-5710
▁refrigerator	-5711
yer	-5712
▁2,	-5713
▁80	-5714
▁Ho	-5715
ards	-5716
▁god	-5717
ously	-5718
▁rush	-5719
▁skirt	-5720
▁athlet	-5721
▁defend	-5722
▁dollar	-5723
▁awkward	-5724
▁perfume	-5725
▁recover	-5726
▁session	-5727
▁shipper	-5728
▁policies	-5729
▁supports	-5730
▁textbook	-5731
▁component	-5732
▁performed	-5733
▁separated	-5734
▁electricity	-5735
mo	-5736
war	-5737
jong	-5738
▁tip	-5739
olute	-5740
proof	-5741
▁fool	-5742
▁Beach	-5743
▁hello	-5744
▁optim	-5745
▁overl	-5746
▁errors	-5747
▁retire	-5748
▁achieved	-5749
▁chatting	-5750
▁connecting	-5751
▁regulation	-5752
▁appreciated	-5753
Talk	-5754
▁Red	-5755
▁sav	-5756
aming	-5757
▁beat	-5758
▁pump	-5759
▁wore	-5760
▁belly	-5761
▁lobby	-5762
▁salty	-5763
▁Fortun	-5764
▁Though	-5765
▁cherry	-5766
▁smells	-5767
▁writer	-5768
▁Looking	-5769
▁influen	-5770
▁removed	-5771
▁seminar	-5772
▁basement	-5773
▁continued	-5774
▁furniture	-5775
▁gradually	-5776
▁reviewing	-5777
▁conclusion	-5778
▁(	-5779
edy	-5780
ila	-5781
▁Up	-5782
name	-5783
wide	-5784
▁Ins	-5785
inate	-5786
▁fulf	-5787
▁psych	-5788
▁rates	-5789
▁Anyway	-5790
▁patent	-5791
together	-5792
▁catalog	-5793
▁consign	-5794
▁digital	-5795
▁leather	-5796
▁lipstick	-5797
▁romantic	-5798
▁strongly	-5799
▁authority	-5800
▁standards	-5801
▁individuals	-5802
▁maintenance	-5803
▁discrimination	-5804
hee	-5805
jud	-5806
raft	-5807
▁nar	-5808
▁Jang	-5809
▁Serv	-5810
▁blow	-5811
▁enem	-5812
▁hide	-5813
lessly	-5814
▁brings	-5815
▁hotels	-5816
▁secure	-5817
▁identify	-5818
▁construct	-5819
▁encourage	-5820
▁broadcasting	-5821
imi	-5822
uts	-5823
bokki	-5824
sized	-5825
▁Such	-5826
▁mart	-5827
▁Center	-5828
▁flying	-5829
▁hiking	-5830
▁levels	-5831
▁manner	-5832
▁refres	-5833
▁salmon	-5834
▁Nothing	-5835
▁elderly	-5836
▁hanging	-5837
▁touched	-5838
▁typhoon	-5839
▁receipts	-5840
▁incorrect	-5841
▁lunchtime	-5842
▁personnel	-5843
▁passengers	-5844
▁protection	-5845
ox	-5846
ido	-5847
▁4.	-5848
▁ge	-5849
aign	-5850
bits	-5851
uing	-5852
vest	-5853
▁San	-5854
▁Sim	-5855
▁nav	-5856
▁toy	-5857
▁vib	-5858
▁Jane	-5859
▁belt	-5860
▁wave	-5861
ensive	-5862
▁horse	-5863
▁gentle	-5864
▁indeed	-5865
▁tomato	-5866
▁blanket	-5867
▁painful	-5868
▁reached	-5869
▁remains	-5870
▁scholars	-5871
▁everybody	-5872
▁instructions	-5873
▁concentration	-5874
-1	-5875
▁IP	-5876
▁fif	-5877
ctors	-5878
igent	-5879
▁adap	-5880
▁bare	-5881
▁thro	-5882
▁Gener	-5883
▁alive	-5884
▁exams	-5885
▁pages	-5886
▁prett	-5887
iculous	-5888
▁fields	-5889
▁motion	-5890
▁punish	-5891
▁closest	-5892
▁journey	-5893
▁speaker	-5894
▁pregnant	-5895
▁repeated	-5896
▁attendant	-5897
▁expiration	-5898
▁practicing	-5899
▁television	-5900
ils	-5901
uls	-5902
hour	-5903
illy	-5904
▁See	-5905
▁cow	-5906
aewon	-5907
▁Earth	-5908
▁Elect	-5909
▁alarm	-5910
▁crack	-5911
▁assemb	-5912
▁landsc	-5913
▁revise	-5914
▁invited	-5915
▁reports	-5916
▁sightse	-5917
▁stretch	-5918
▁tourism	-5919
▁cosmetic	-5920
▁payments	-5921
▁collection	-5922
▁requesting	-5923
▁sne	-5924
▁yen	-5925
abled	-5926
▁bean	-5927
▁kick	-5928
▁hidden	-5929
▁tested	-5930
▁closing	-5931
▁noticed	-5932
▁magazine	-5933
▁interests	-5934
▁published	-5935
▁solutions	-5936
▁profession	-5937
▁embarrassed	-5938
ED	-5939
lest	-5940
▁Hon	-5941
▁Med	-5942
▁mac	-5943
based	-5944
▁anti	-5945
▁race	-5946
iments	-5947
▁associ	-5948
▁insert	-5949
▁profits	-5950
▁arranged	-5951
▁teenagers	-5952
▁sufficient	-5953
CO	-5954
ups	-5955
▁arts	-5956
▁tone	-5957
▁Osaka	-5958
▁accum	-5959
▁beans	-5960
▁towel	-5961
▁cancer	-5962
▁ignore	-5963
▁nobody	-5964
▁retail	-5965
▁100,000	-5966
▁nuclear	-5967
▁streets	-5968
▁vitamin	-5969
▁attended	-5970
▁campaign	-5971
▁describe	-5972
▁disaster	-5973
▁stronger	-5974
▁weekdays	-5975
▁attaching	-5976
▁Fortunately	-5977
▁smartphones	-5978
...	-5979
nic	-5980
asty	-5981
eong	-5982
hern	-5983
▁Mex	-5984
apped	-5985
poses	-5986
▁ears	-5987
▁lies	-5988
enture	-5989
▁chart	-5990
▁proof	-5991
▁solid	-5992
▁sweat	-5993
▁tries	-5994
▁babies	-5995
▁boiled	-5996
▁aspects	-5997
▁injured	-5998
▁letting	-5999
▁reviews	-6000
▁touching	-6001
▁President	-6002
▁determine	-6003
▁exclusive	-6004
▁ingredient	-6005
▁procedures	-6006
▁proceeding	-6007
▁entertainment	-6008
Pal	-6009
kin	-6010
▁MO	-6011
itis	-6012
estly	-6013
▁Braz	-6014
▁dont	-6015
▁mold	-6016
▁Mexic	-6017
▁Tower	-6018
▁prove	-6019
▁rainy	-6020
▁sharp	-6021
▁tells	-6022
▁absolute	-6023
▁carrying	-6024
ifications	-6025
▁accidents	-6026
▁gathering	-6027
upid	-6028
▁voc	-6029
▁Comm	-6030
▁plug	-6031
▁purs	-6032
advant	-6033
▁Being	-6034
▁salon	-6035
▁stone	-6036
▁talks	-6037
▁trips	-6038
ittance	-6039
▁visual	-6040
▁printer	-6041
▁purposes	-6042
▁traveler	-6043
▁wrapping	-6044
▁Kakaotalk	-6045
▁afterward	-6046
ito	-6047
▁ep	-6048
gthe	-6049
▁Out	-6050
▁obl	-6051
▁Kang	-6052
▁clin	-6053
▁crim	-6054
▁cuis	-6055
▁modu	-6056
▁gramm	-6057
▁layer	-6058
▁micro	-6059
▁minim	-6060
▁shoot	-6061
ificial	-6062
jection	-6063
▁addict	-6064
▁former	-6065
▁verify	-6066
▁Itaewon	-6067
▁Welcome	-6068
▁seconds	-6069
▁tuition	-6070
▁potatoes	-6071
▁KakaoTalk	-6072
▁clearance	-6073
▁collected	-6074
▁emotional	-6075
▁extension	-6076
▁relatives	-6077
▁complaints	-6078
▁industrial	-6079
▁invitation	-6080
▁relatively	-6081
▁participants	-6082
RW	-6083
ago	-6084
ano	-6085
des	-6086
ula	-6087
fish	-6088
oons	-6089
▁jew	-6090
cribe	-6091
store	-6092
▁bond	-6093
ffered	-6094
▁Enjoy	-6095
▁Start	-6096
▁motto	-6097
▁sacri	-6098
▁PayPal	-6099
▁shrimp	-6100
▁temple	-6101
▁twenty	-6102
friendly	-6103
▁analyze	-6104
▁billion	-6105
▁briefly	-6106
▁coating	-6107
▁fighting	-6108
▁surprise	-6109
▁transform	-6110
▁businesses	-6111
▁prohibited	-6112
▁consumption	-6113
▁independent	-6114
▁specifically	-6115
▁participation	-6116
eds	-6117
▁Fed	-6118
▁TOE	-6119
▁Bank	-6120
▁Work	-6121
▁lend	-6122
▁zone	-6123
inting	-6124
▁Apple	-6125
▁broch	-6126
▁nutri	-6127
▁opens	-6128
▁slipp	-6129
ibimbap	-6130
ication	-6131
▁candid	-6132
▁hardly	-6133
▁killed	-6134
▁colored	-6135
▁academic	-6136
▁automatic	-6137
▁disadvant	-6138
2,	-6139
IN	-6140
wh	-6141
ios	-6142
ogi	-6143
urt	-6144
▁45	-6145
orge	-6146
rete	-6147
▁den	-6148
▁pul	-6149
aghet	-6150
▁nutr	-6151
▁pour	-6152
market	-6153
▁roast	-6154
▁wrink	-6155
▁Disney	-6156
▁excuse	-6157
▁incred	-6158
▁extract	-6159
▁seasons	-6160
▁criminal	-6161
▁announced	-6162
▁cooperate	-6163
▁exercises	-6164
▁sightseeing	-6165
▁architecture	-6166
▁performances	-6167
ms	-6168
sm	-6169
emp	-6170
ero	-6171
lom	-6172
omy	-6173
usi	-6174
▁Ul	-6175
▁ly	-6176
ette	-6177
mate	-6178
▁Cor	-6179
▁Haw	-6180
▁dum	-6181
inton	-6182
▁Hope	-6183
▁Yong	-6184
▁cough	-6185
▁socks	-6186
▁wound	-6187
istance	-6188
▁facial	-6189
▁random	-6190
▁saving	-6191
▁princip	-6192
▁resident	-6193
▁soldiers	-6194
▁household	-6195
ene	-6196
ius	-6197
whe	-6198
▁Ma	-6199
▁Bel	-6200
▁bon	-6201
▁dip	-6202
arian	-6203
▁boil	-6204
▁gall	-6205
▁resc	-6206
▁trial	-6207
aghetti	-6208
▁differ	-6209
▁fluent	-6210
▁philos	-6211
▁prompt	-6212
▁strugg	-6213
▁garbage	-6214
▁matches	-6215
▁collabor	-6216
▁listened	-6217
▁measures	-6218
▁suffered	-6219
▁decisions	-6220
▁hamburger	-6221
▁playground	-6222
▁hospitalized	-6223
▁conversations	-6224
OS	-6225
TS	-6226
pal	-6227
vis	-6228
▁29	-6229
husi	-6230
▁ens	-6231
▁ren	-6232
press	-6233
tered	-6234
▁Over	-6235
▁Team	-6236
▁bull	-6237
▁cups	-6238
araoke	-6239
▁Human	-6240
▁River	-6241
▁metal	-6242
▁neckl	-6243
▁numer	-6244
▁Brazil	-6245
▁Malays	-6246
▁bakery	-6247
▁carbon	-6248
▁ending	-6249
▁escape	-6250
▁fourth	-6251
▁hairst	-6252
▁stupid	-6253
▁disturb	-6254
▁smiling	-6255
▁Whenever	-6256
▁composed	-6257
▁focusing	-6258
▁philosop	-6259
▁refunded	-6260
▁improving	-6261
▁assessment	-6262
▁approximately	-6263
▁Qu	-6264
▁Jun	-6265
▁Sum	-6266
▁pra	-6267
▁euro	-6268
▁rise	-6269
▁weap	-6270
ensity	-6271
▁irrit	-6272
▁mouse	-6273
▁split	-6274
▁Indian	-6275
▁formal	-6276
▁native	-6277
▁dealing	-6278
▁wrapped	-6279
▁concerns	-6280
▁offering	-6281
▁religion	-6282
▁assistant	-6283
▁practiced	-6284
▁remittance	-6285
▁scholarship	-6286
gin	-6287
▁UK	-6288
case	-6289
moon	-6290
▁Mid	-6291
▁lad	-6292
▁tie	-6293
▁Taek	-6294
▁aunt	-6295
▁core	-6296
▁toys	-6297
▁chest	-6298
▁fairy	-6299
▁funds	-6300
usement	-6301
▁30,000	-6302
▁Africa	-6303
▁narrow	-6304
▁scenes	-6305
▁enthusi	-6306
▁exposed	-6307
▁moments	-6308
▁precise	-6309
▁raising	-6310
▁workout	-6311
▁adjusted	-6312
▁believed	-6313
▁bringing	-6314
▁category	-6315
▁distingu	-6316
▁identity	-6317
▁imported	-6318
▁operated	-6319
▁sunlight	-6320
▁wherever	-6321
▁purchases	-6322
▁particularly	-6323
ES	-6324
gi	-6325
uty	-6326
ault	-6327
▁Att	-6328
▁Bar	-6329
sters	-6330
young	-6331
▁wise	-6332
▁Write	-6333
▁flour	-6334
▁genre	-6335
▁notes	-6336
▁strap	-6337
▁taxes	-6338
agement	-6339
▁Museum	-6340
▁blocks	-6341
▁desper	-6342
▁phrase	-6343
▁stored	-6344
▁absence	-6345
▁figures	-6346
▁repaired	-6347
▁workshop	-6348
▁abilities	-6349
▁celebrity	-6350
▁presented	-6351
▁strengthe	-6352
▁attraction	-6353
▁discussing	-6354
▁positively	-6355
11	-6356
my	-6357
ama	-6358
uum	-6359
▁CD	-6360
▁Jj	-6361
▁Dav	-6362
▁Del	-6363
iques	-6364
▁cock	-6365
▁envy	-6366
▁drawn	-6367
▁fries	-6368
▁noisy	-6369
igation	-6370
▁Manila	-6371
▁bubble	-6372
▁scores	-6373
▁cookies	-6374
▁harmful	-6375
▁joining	-6376
▁managing	-6377
▁patience	-6378
▁sometime	-6379
▁fantastic	-6380
▁composition	-6381
▁applications	-6382
aps	-6383
oot	-6384
▁Wi	-6385
cest	-6386
umes	-6387
▁KRW	-6388
▁Sup	-6389
ieving	-6390
▁dumpl	-6391
▁minor	-6392
▁ratio	-6393
▁Perhaps	-6394
▁Western	-6395
▁goodbye	-6396
▁happier	-6397
▁European	-6398
▁articles	-6399
▁forecast	-6400
▁mountains	-6401
▁cigarettes	-6402
▁internship	-6403
fu	-6404
gon	-6405
▁35	-6406
▁AP	-6407
▁CC	-6408
down	-6409
eras	-6410
mpoo	-6411
▁pic	-6412
chers	-6413
heart	-6414
itute	-6415
osity	-6416
overy	-6417
▁Prov	-6418
▁chop	-6419
▁fest	-6420
▁lift	-6421
ashimi	-6422
▁Under	-6423
▁cells	-6424
▁liber	-6425
▁quote	-6426
▁Unlike	-6427
▁orient	-6428
▁poster	-6429
▁towels	-6430
▁vision	-6431
▁Usually	-6432
itionally	-6433
▁interpre	-6434
▁pharmacy	-6435
▁relieved	-6436
▁accurately	-6437
▁artificial	-6438
▁effectively	-6439
ker	-6440
que	-6441
▁AM	-6442
▁ox	-6443
bing	-6444
elly	-6445
▁mal	-6446
iforn	-6447
ograp	-6448
ounge	-6449
outer	-6450
water	-6451
years	-6452
▁Hang	-6453
▁Stop	-6454
▁White	-6455
▁cabin	-6456
▁cakes	-6457
▁chief	-6458
▁knife	-6459
▁pills	-6460
▁tower	-6461
▁20,000	-6462
▁ancest	-6463
▁cleaner	-6464
▁couples	-6465
▁forgive	-6466
▁allergic	-6467
▁diseases	-6468
▁Christian	-6469
▁processes	-6470
▁frustrated	-6471
▁description	-6472
▁institution	-6473
▁introducing	-6474
▁advertisements	-6475
eper	-6476
gogi	-6477
wood	-6478
▁tap	-6479
cript	-6480
▁Norm	-6481
▁Chung	-6482
▁conse	-6483
▁corre	-6484
▁diagn	-6485
▁diary	-6486
▁faces	-6487
▁screw	-6488
ography	-6489
▁fundam	-6490
▁habits	-6491
▁passes	-6492
▁sensor	-6493
▁Russian	-6494
▁cuisine	-6495
▁greater	-6496
▁herself	-6497
▁instant	-6498
▁midterm	-6499
▁publish	-6500
▁reminds	-6501
▁Californ	-6502
▁talented	-6503
▁troubles	-6504
▁historical	-6505
IP	-6506
▁6.	-6507
▁90	-6508
▁Sky	-6509
▁Find	-6510
▁Turn	-6511
▁acts	-6512
▁defe	-6513
▁diss	-6514
▁mand	-6515
letion	-6516
person	-6517
stairs	-6518
▁Hawai	-6519
▁cried	-6520
▁dough	-6521
▁jewel	-6522
▁Having	-6523
▁mental	-6524
▁owners	-6525
▁studio	-6526
▁throat	-6527
▁closely	-6528
▁creates	-6529
▁objects	-6530
▁breaking	-6531
▁amusement	-6532
▁animation	-6533
▁graduating	-6534
▁intelligence	-6535
agon	-6536
assy	-6537
bors	-6538
bered	-6539
myeon	-6540
obile	-6541
▁beds	-6542
▁buff	-6543
▁nick	-6544
▁noon	-6545
▁puri	-6546
▁skip	-6547
▁symp	-6548
cation	-6549
▁Event	-6550
▁equal	-6551
▁spons	-6552
▁belief	-6553
▁circle	-6554
▁vacuum	-6555
▁blocked	-6556
▁cameras	-6557
▁encoura	-6558
▁fingers	-6559
▁hobbies	-6560
▁manners	-6561
▁satisfy	-6562
▁sincere	-6563
▁Indonesia	-6564
▁passionate	-6565
▁resolution	-6566
▁accessories	-6567
▁negotiation	-6568
▁promotional	-6569
▁investigation	-6570
▁characteristic	-6571
▁specifications	-6572
AN	-6573
▁“	-6574
▁je	-6575
acha	-6576
hent	-6577
olen	-6578
osis	-6579
utor	-6580
what	-6581
cknow	-6582
craft	-6583
▁Sung	-6584
▁asks	-6585
▁fuel	-6586
▁tape	-6587
arters	-6588
▁Trans	-6589
▁bloom	-6590
▁dried	-6591
▁tears	-6592
itution	-6593
▁Always	-6594
▁resume	-6595
▁fortune	-6596
▁portion	-6597
▁assemble	-6598
▁constant	-6599
▁necklace	-6600
▁princess	-6601
▁proposed	-6602
▁upcoming	-6603
▁Taekwondo	-6604
▁enjoyable	-6605
▁calculated	-6606
▁popularity	-6607
▁supplement	-6608
▁expressions	-6609
Fi	-6610
The	-6611
gel	-6612
▁Na	-6613
lets	-6614
part	-6615
rehe	-6616
tail	-6617
▁Sang	-6618
▁butt	-6619
▁crew	-6620
▁lazy	-6621
▁lips	-6622
▁mini	-6623
▁badly	-6624
▁rains	-6625
▁remem	-6626
▁robot	-6627
▁breath	-6628
▁compat	-6629
▁resear	-6630
▁Control	-6631
▁actress	-6632
▁artists	-6633
▁conclud	-6634
▁examine	-6635
▁ferment	-6636
▁grammar	-6637
▁heating	-6638
▁resolve	-6639
▁resting	-6640
▁shampoo	-6641
▁Business	-6642
▁combined	-6643
▁behaviors	-6644
▁assignments	-6645
▁imagination	-6646
▁replacement	-6647
▁identification	-6648
bi	-6649
km	-6650
gue	-6651
isa	-6652
▁Im	-6653
▁Fin	-6654
▁Net	-6655
▁tur	-6656
▁unn	-6657
▁zoo	-6658
isure	-6659
▁bite	-6660
▁caut	-6661
▁laws	-6662
ansion	-6663
shaped	-6664
▁Honey	-6665
▁fancy	-6666
▁acknow	-6667
▁beings	-6668
▁desert	-6669
▁emails	-6670
▁formed	-6671
▁frozen	-6672
▁heaven	-6673
▁injury	-6674
▁lawyer	-6675
▁styles	-6676
▁elastic	-6677
▁consignee	-6678
▁hairstyle	-6679
▁principle	-6680
▁reception	-6681
▁reflected	-6682
▁California	-6683
▁challenges	-6684
▁compliment	-6685
elf	-6686
loy	-6687
▁Op	-6688
host	-6689
▁Aut	-6690
▁Fil	-6691
▁Hae	-6692
▁ham	-6693
▁pil	-6694
eding	-6695
▁100%	-6696
▁Choi	-6697
▁Were	-6698
▁acid	-6699
▁vend	-6700
cribed	-6701
encies	-6702
parent	-6703
rating	-6704
▁appet	-6705
▁essay	-6706
▁grows	-6707
▁index	-6708
▁recip	-6709
▁gender	-6710
▁indoor	-6711
▁lounge	-6712
▁essence	-6713
▁Mountain	-6714
▁beverage	-6715
▁disabled	-6716
▁measured	-6717
▁midnight	-6718
▁patterns	-6719
▁contracts	-6720
▁described	-6721
▁contribute	-6722
▁recommendation	-6723
ixt	-6724
ran	-6725
vit	-6726
▁3,	-6727
unar	-6728
▁Off	-6729
▁Sub	-6730
▁mut	-6731
▁wit	-6732
icide	-6733
rical	-6734
▁Jose	-6735
▁List	-6736
▁bulk	-6737
▁drew	-6738
▁unav	-6739
▁Grand	-6740
▁Using	-6741
▁aband	-6742
▁shift	-6743
▁Palace	-6744
▁digest	-6745
▁meters	-6746
▁pronun	-6747
▁sexual	-6748
▁silver	-6749
▁stated	-6750
▁stolen	-6751
▁washed	-6752
▁enhance	-6753
▁motorcy	-6754
▁protein	-6755
▁recruit	-6756
▁solving	-6757
▁winning	-6758
▁dressing	-6759
▁Regarding	-6760
▁forgotten	-6761
▁honeymoon	-6762
▁discharged	-6763
▁enterprise	-6764
▁independence	-6765
6.	-6766
iam	-6767
nal	-6768
▁5.	-6769
aker	-6770
inos	-6771
tery	-6772
▁van	-6773
class	-6774
hetic	-6775
ivals	-6776
umber	-6777
▁Bang	-6778
▁Budd	-6779
▁Port	-6780
▁blog	-6781
▁merc	-6782
▁2,000	-6783
▁multi	-6784
▁waist	-6785
▁burger	-6786
▁buyers	-6787
▁earned	-6788
▁repeat	-6789
▁unfair	-6790
▁Product	-6791
▁authent	-6792
▁leisure	-6793
▁offline	-6794
▁settled	-6795
▁typical	-6796
ibilities	-6797
▁Consider	-6798
▁Republic	-6799
▁violence	-6800
▁corrected	-6801
▁selection	-6802
▁workplace	-6803
▁alternative	-6804
spe	-6805
▁CO	-6806
cont	-6807
lass	-6808
race	-6809
rain	-6810
▁muk	-6811
▁yes	-6812
irman	-6813
jeong	-6814
▁Chic	-6815
▁Fore	-6816
▁eyel	-6817
▁kiss	-6818
▁rein	-6819
▁subt	-6820
▁tail	-6821
ynasty	-6822
▁Black	-6823
▁House	-6824
▁coins	-6825
▁falls	-6826
▁caring	-6827
▁golden	-6828
▁guidel	-6829
▁critical	-6830
▁lectures	-6831
▁notebook	-6832
▁occasion	-6833
▁complaint	-6834
▁continues	-6835
▁decreased	-6836
▁strategies	-6837
▁expectations	-6838
▁organizations	-6839
60	-6840
:3	-6841
AP	-6842
sa	-6843
ext	-6844
olm	-6845
phe	-6846
vin	-6847
▁IS	-6848
▁Inc	-6849
▁bod	-6850
▁dim	-6851
force	-6852
ijing	-6853
table	-6854
uting	-6855
▁Four	-6856
▁Zeal	-6857
▁chap	-6858
▁edge	-6859
▁mild	-6860
▁pets	-6861
▁tong	-6862
▁unus	-6863
ishing	-6864
▁democ	-6865
▁wears	-6866
▁advise	-6867
▁faulty	-6868
▁Beijing	-6869
▁Shouldn	-6870
▁Zealand	-6871
▁sashimi	-6872
▁shortly	-6873
▁cheapest	-6874
▁concrete	-6875
▁hesitate	-6876
▁keyboard	-6877
▁politics	-6878
▁sandwich	-6879
▁answering	-6880
▁architect	-6881
▁strawberry	-6882
▁techniques	-6883
▁corporation	-6884
▁differently	-6885
fit	-6886
iot	-6887
omb	-6888
oto	-6889
▁7.	-6890
▁La	-6891
suit	-6892
uine	-6893
▁Hel	-6894
▁fle	-6895
▁wel	-6896
▁diam	-6897
▁rail	-6898
▁soph	-6899
▁wild	-6900
minton	-6901
▁grant	-6902
▁patch	-6903
▁purif	-6904
fection	-6905
▁Hawaii	-6906
▁Winter	-6907
▁crisis	-6908
▁locked	-6909
▁mature	-6910
▁Daejeon	-6911
▁ancient	-6912
▁anybody	-6913
▁finance	-6914
▁neither	-6915
▁singers	-6916
▁Honestly	-6917
▁stations	-6918
▁festivals	-6919
▁landscape	-6920
▁neighbors	-6921
▁recognition	-6922
AR	-6923
IM	-6924
pie	-6925
▁Ce	-6926
▁Ju	-6927
▁od	-6928
ucks	-6929
▁Edu	-6930
▁Gal	-6931
▁Men	-6932
▁awa	-6933
▁fal	-6934
print	-6935
▁Play	-6936
▁Yoon	-6937
▁jeal	-6938
▁vary	-6939
▁Chang	-6940
▁Micha	-6941
▁Watch	-6942
▁amend	-6943
▁films	-6944
▁nails	-6945
▁spoon	-6946
▁steel	-6947
▁threw	-6948
▁duties	-6949
▁chances	-6950
▁command	-6951
▁jealous	-6952
▁mukbang	-6953
▁serving	-6954
▁warming	-6955
▁warrant	-6956
▁charming	-6957
▁greatest	-6958
▁happiest	-6959
▁Everybody	-6960
▁administr	-6961
▁colleague	-6962
▁defendant	-6963
▁luxurious	-6964
▁specialty	-6965
▁telephone	-6966
▁vegetable	-6967
▁literature	-6968
3,	-6969
py	-6970
ado	-6971
yal	-6972
▁3-	-6973
▁El	-6974
born	-6975
face	-6976
look	-6977
▁50%	-6978
▁USD	-6979
▁2017	-6980
▁Char	-6981
▁Rome	-6982
▁leaf	-6983
▁rose	-6984
inseng	-6985
sticks	-6986
▁TOEIC	-6987
▁brace	-6988
▁signs	-6989
▁waves	-6990
▁Middle	-6991
▁wishes	-6992
inations	-6993
▁Despite	-6994
▁flights	-6995
▁genuine	-6996
▁majored	-6997
▁charging	-6998
▁guarante	-6999
▁uniforms	-7000
▁conscious	-7001
▁spaghetti	-7002
▁expressing	-7003
bre	-7004
sis	-7005
rown	-7006
▁Eun	-7007
▁Set	-7008
▁nap	-7009
ieves	-7010
undae	-7011
while	-7012
▁2014	-7013
▁Jong	-7014
▁Thai	-7015
▁bene	-7016
▁recyc	-7017
▁criter	-7018
▁divide	-7019
▁domain	-7020
▁forced	-7021
▁refers	-7022
▁signal	-7023
▁Chicago	-7024
▁Michael	-7025
▁Service	-7026
▁relaxed	-7027
▁trading	-7028
formation	-7029
▁brochure	-7030
▁distinct	-7031
▁reviewed	-7032
▁somewhat	-7033
▁Americans	-7034
▁allowance	-7035
▁calculate	-7036
▁photograp	-7037
▁quantities	-7038
▁outstanding	-7039
▁pronunciation	-7040
1,	-7041
40	-7042
etch	-7043
ript	-7044
▁198	-7045
▁Ask	-7046
▁Gir	-7047
▁Jae	-7048
▁cou	-7049
▁thr	-7050
▁Life	-7051
▁bird	-7052
▁fake	-7053
▁ours	-7054
▁oven	-7055
▁rode	-7056
▁slic	-7057
▁ther	-7058
illing	-7059
urgers	-7060
▁assum	-7061
▁incur	-7062
▁moves	-7063
▁packs	-7064
▁south	-7065
ologies	-7066
▁prison	-7067
▁recall	-7068
▁script	-7069
▁spaces	-7070
▁karaoke	-7071
▁rapidly	-7072
▁confusion	-7073
▁Vietnamese	-7074
▁supermarket	-7075
▁prescription	-7076
cho	-7077
son	-7078
▁00	-7079
▁AI	-7080
▁Ha	-7081
▁OS	-7082
▁ur	-7083
ango	-7084
cipe	-7085
▁Jen	-7086
▁bid	-7087
▁boo	-7088
eness	-7089
oween	-7090
▁Sant	-7091
▁epis	-7092
▁lamp	-7093
▁yoga	-7094
cience	-7095
estyle	-7096
ulture	-7097
▁3,000	-7098
▁dying	-7099
▁euros	-7100
▁react	-7101
amiliar	-7102
▁appeal	-7103
▁facing	-7104
▁pursue	-7105
▁rarely	-7106
▁stands	-7107
▁tiring	-7108
▁affects	-7109
▁shocked	-7110
▁sisters	-7111
▁survive	-7112
▁Halloween	-7113
▁altogether	-7114
▁definition	-7115
▁mechanical	-7116
sp	-7117
100	-7118
ica	-7119
woo	-7120
icip	-7121
nels	-7122
▁400	-7123
▁Ser	-7124
▁der	-7125
▁gro	-7126
▁pin	-7127
ading	-7128
hroom	-7129
▁Gold	-7130
▁vote	-7131
cerity	-7132
▁humor	-7133
▁trick	-7134
▁inevit	-7135
▁filming	-7136
▁lightly	-7137
▁painted	-7138
▁posture	-7139
▁acquaint	-7140
▁annoying	-7141
▁football	-7142
▁mushroom	-7143
▁numerous	-7144
▁supplied	-7145
▁bookstore	-7146
▁technique	-7147
▁disposable	-7148
▁instrument	-7149
▁punishment	-7150
▁refreshing	-7151
▁statements	-7152
▁challenging	-7153
▁partnership	-7154
▁specialized	-7155
▁notification	-7156
AD	-7157
ER	-7158
fa	-7159
ux	-7160
rab	-7161
list	-7162
outs	-7163
▁Dan	-7164
▁sib	-7165
check	-7166
liest	-7167
month	-7168
ollow	-7169
▁appl	-7170
▁calc	-7171
▁info	-7172
▁joke	-7173
▁lets	-7174
▁nine	-7175
▁oily	-7176
▁seal	-7177
▁Hongk	-7178
▁Suwon	-7179
▁Three	-7180
▁bonus	-7181
▁disag	-7182
▁harsh	-7183
▁stead	-7184
loyment	-7185
▁arrest	-7186
▁barely	-7187
▁calend	-7188
▁casual	-7189
▁joyful	-7190
▁lotion	-7191
▁recipe	-7192
▁terror	-7193
▁Without	-7194
▁nursing	-7195
▁premium	-7196
▁propose	-7197
▁revenue	-7198
▁windows	-7199
▁backpack	-7200
▁borrowed	-7201
▁mistaken	-7202
▁nickname	-7203
▁Something	-7204
▁existence	-7205
▁waterproof	-7206
▁competitors	-7207
▁manufactured	-7208
▁specification	-7209
IS	-7210
bec	-7211
jun	-7212
▁Ac	-7213
angs	-7214
▁Mil	-7215
ecess	-7216
▁Hold	-7217
▁boys	-7218
▁loan	-7219
▁yard	-7220
▁Games	-7221
▁agend	-7222
▁coord	-7223
▁escal	-7224
▁persu	-7225
▁scold	-7226
▁Jeonju	-7227
▁Turkey	-7228
▁behalf	-7229
▁breaks	-7230
▁hearts	-7231
▁lowest	-7232
▁stocks	-7233
▁causing	-7234
▁experts	-7235
▁illness	-7236
▁signing	-7237
teokbokki	-7238
▁Hongkong	-7239
▁flexible	-7240
▁intended	-7241
▁superior	-7242
▁badminton	-7243
▁cleansing	-7244
▁nutrients	-7245
▁concerning	-7246
▁unfamiliar	-7247
▁accordingly	-7248
▁experiencing	-7249
wr	-7250
ifi	-7251
▁2-	-7252
▁LG	-7253
rets	-7254
uate	-7255
▁20%	-7256
▁30%	-7257
▁Pot	-7258
▁tal	-7259
iders	-7260
irect	-7261
▁debt	-7262
▁dent	-7263
▁inse	-7264
▁rely	-7265
▁roof	-7266
ustain	-7267
▁curry	-7268
▁loose	-7269
▁meets	-7270
▁outer	-7271
▁battle	-7272
▁chairs	-7273
▁luxury	-7274
▁output	-7275
▁trends	-7276
▁wooden	-7277
▁Manager	-7278
▁damages	-7279
▁delight	-7280
▁dressed	-7281
▁lighter	-7282
▁virtual	-7283
▁admitted	-7284
▁peaceful	-7285
▁rejected	-7286
▁stickers	-7287
▁classical	-7288
▁residents	-7289
▁sincerity	-7290
▁completion	-7291
▁influenced	-7292
▁surprising	-7293
▁fundamental	-7294
."	-7295
bel	-7296
dae	-7297
lam	-7298
law	-7299
mal	-7300
rep	-7301
▁dy	-7302
gant	-7303
phew	-7304
▁Cup	-7305
▁Emp	-7306
▁ast	-7307
▁avo	-7308
▁hug	-7309
▁Feel	-7310
▁James	-7311
▁admit	-7312
▁deals	-7313
▁ghost	-7314
▁syrup	-7315
hearted	-7316
▁declar	-7317
▁fortun	-7318
▁nephew	-7319
▁picnic	-7320
▁Olympic	-7321
▁climate	-7322
▁drivers	-7323
▁brothers	-7324
▁controll	-7325
▁worrying	-7326
▁referring	-7327
▁absolutely	-7328
▁philosophy	-7329
▁distributed	-7330
▁surrounding	-7331
▁headquarters	-7332
',	-7333
aser	-7334
aste	-7335
bean	-7336
weed	-7337
well	-7338
yang	-7339
▁Fam	-7340
▁Woo	-7341
▁ade	-7342
▁cho	-7343
▁eco	-7344
▁vou	-7345
allow	-7346
bucks	-7347
▁Hyun	-7348
liness	-7349
reness	-7350
▁clubs	-7351
▁spect	-7352
▁toast	-7353
▁width	-7354
▁copies	-7355
▁deduct	-7356
▁ensure	-7357
▁league	-7358
▁resign	-7359
ferences	-7360
▁cafeter	-7361
▁context	-7362
▁haircut	-7363
▁possess	-7364
▁regions	-7365
▁Malaysia	-7366
▁climbing	-7367
▁earliest	-7368
▁prevents	-7369
▁therefore	-7370
▁retirement	-7371
▁vegetarian	-7372
▁considerate	-7373
▁departments	-7374
▁instruction	-7375
▁accidentally	-7376
▁transferring	-7377
OT	-7378
▁Mc	-7379
atis	-7380
emor	-7381
rene	-7382
walk	-7383
▁Big	-7384
▁Sea	-7385
▁Seo	-7386
▁ank	-7387
▁bot	-7388
▁kil	-7389
▁rab	-7390
▁ske	-7391
undai	-7392
▁tips	-7393
▁David	-7394
▁banks	-7395
▁false	-7396
▁fewer	-7397
▁grass	-7398
▁spray	-7399
▁estate	-7400
▁extent	-7401
▁fought	-7402
▁mathem	-7403
▁rising	-7404
▁strike	-7405
▁transm	-7406
▁divorce	-7407
▁handled	-7408
▁harmony	-7409
▁jewelry	-7410
▁lacking	-7411
▁vehicles	-7412
▁discharge	-7413
▁excluding	-7414
▁objective	-7415
▁strengths	-7416
▁worldwide	-7417
▁chopsticks	-7418
▁collecting	-7419
▁installing	-7420
▁motorcycle	-7421
▁prescribed	-7422
AS	-7423
aked	-7424
xual	-7425
▁Bal	-7426
▁hip	-7427
style	-7428
▁lake	-7429
▁none	-7430
▁saus	-7431
▁soju	-7432
▁trim	-7433
▁vert	-7434
angers	-7435
minute	-7436
▁2015.	-7437
▁drugs	-7438
▁spots	-7439
▁views	-7440
▁Paypal	-7441
▁garlic	-7442
▁hospit	-7443
▁palace	-7444
▁tissue	-7445
▁widely	-7446
▁anxious	-7447
▁selfish	-7448
▁calories	-7449
▁evaluate	-7450
▁prettier	-7451
▁steadily	-7452
▁cafeteria	-7453
▁expansion	-7454
▁creativity	-7455
▁organizing	-7456
▁remembered	-7457
▁countryside	-7458
▁volunteering	-7459
12	-7460
aid	-7461
chon	-7462
▁Ori	-7463
▁Anna	-7464
▁Cour	-7465
▁Supp	-7466
▁dece	-7467
▁edit	-7468
▁poem	-7469
▁seek	-7470
▁sung	-7471
▁unre	-7472
▁Store	-7473
▁Techn	-7474
▁Water	-7475
▁angle	-7476
▁jeans	-7477
▁tours	-7478
▁unfor	-7479
▁virus	-7480
▁weigh	-7481
ulating	-7482
▁Jackal	-7483
▁Travel	-7484
▁convey	-7485
▁covers	-7486
▁franch	-7487
▁Hyundai	-7488
▁apology	-7489
▁courier	-7490
▁defined	-7491
▁gallery	-7492
▁organic	-7493
▁sympath	-7494
▁unusual	-7495
▁argument	-7496
▁blossoms	-7497
▁disagree	-7498
▁officers	-7499
▁recovery	-7500
▁Starbucks	-7501
▁batteries	-7502
▁deposited	-7503
▁delivering	-7504
▁physically	-7505
oty	-7506
oman	-7507
oses	-7508
▁Bul	-7509
▁cro	-7510
duces	-7511
orted	-7512
▁Ever	-7513
▁ages	-7514
▁knee	-7515
▁Frank	-7516
▁innoc	-7517
▁sauna	-7518
▁shake	-7519
▁assume	-7520
▁diplom	-7521
▁gently	-7522
▁sector	-7523
▁stream	-7524
▁tongue	-7525
▁carrier	-7526
▁hardest	-7527
▁primary	-7528
▁quietly	-7529
▁regards	-7530
▁calendar	-7531
▁packages	-7532
▁excessive	-7533
▁institute	-7534
▁messenger	-7535
▁adjustment	-7536
▁assistance	-7537
▁interviews	-7538
bow	-7539
opus	-7540
▁Gre	-7541
▁Hye	-7542
▁Que	-7543
atics	-7544
▁Baek	-7545
▁YouT	-7546
▁cush	-7547
▁icon	-7548
▁sofa	-7549
▁Apply	-7550
▁chain	-7551
▁champ	-7552
▁horiz	-7553
▁minds	-7554
▁onion	-7555
▁shell	-7556
▁prince	-7557
▁skiing	-7558
▁speaks	-7559
▁sunset	-7560
▁filling	-7561
▁inquire	-7562
▁privacy	-7563
▁steamed	-7564
▁sustain	-7565
▁channels	-7566
▁criteria	-7567
▁generous	-7568
▁Education	-7569
▁stability	-7570
▁scientific	-7571
▁maintaining	-7572
▁moisturizing	-7573
fin	-7574
▁1-	-7575
▁Bo	-7576
▁EX	-7577
gien	-7578
gypt	-7579
hyun	-7580
iger	-7581
racy	-7582
rian	-7583
▁Gan	-7584
▁Wow	-7585
▁fax	-7586
▁fur	-7587
▁oct	-7588
▁wis	-7589
▁West	-7590
▁dial	-7591
▁oint	-7592
▁rare	-7593
▁writ	-7594
judice	-7595
▁alley	-7596
▁charm	-7597
▁wrist	-7598
▁admire	-7599
▁bodies	-7600
▁deterg	-7601
▁fallen	-7602
▁summar	-7603
▁athlete	-7604
▁capture	-7605
▁ceiling	-7606
▁embassy	-7607
▁housing	-7608
▁pressed	-7609
▁violent	-7610
▁hardship	-7611
▁judgment	-7612
▁supplier	-7613
▁shoulders	-7614
▁classmates	-7615
▁innovation	-7616
▁operations	-7617
▁revolution	-7618
▁interpreter	-7619
▁verification	-7620
CC	-7621
eks	-7622
eve	-7623
lar	-7624
▁MC	-7625
weet	-7626
▁10.	-7627
▁Por	-7628
▁hyd	-7629
▁ped	-7630
acter	-7631
elled	-7632
ittee	-7633
▁Mary	-7634
▁cant	-7635
▁hack	-7636
▁sang	-7637
▁stab	-7638
▁Egypt	-7639
▁chewy	-7640
▁circu	-7641
▁flash	-7642
utation	-7643
▁Follow	-7644
▁agenda	-7645
▁behave	-7646
▁junior	-7647
▁module	-7648
▁states	-7649
▁valley	-7650
▁belongs	-7651
▁burning	-7652
▁crucial	-7653
▁dreamed	-7654
▁expired	-7655
▁fitting	-7656
▁fulfill	-7657
▁pension	-7658
▁posting	-7659
▁warning	-7660
▁Electron	-7661
▁assembly	-7662
▁extended	-7663
▁designing	-7664
▁movements	-7665
▁underwear	-7666
▁acceptable	-7667
.,	-7668
Ex	-7669
pm	-7670
Kim	-7671
ini	-7672
▁Law	-7673
▁UPS	-7674
▁lod	-7675
▁pit	-7676
▁swo	-7677
ajang	-7678
ontin	-7679
wards	-7680
▁Food	-7681
▁grat	-7682
▁pity	-7683
▁shad	-7684
iences	-7685
itions	-7686
▁2017.	-7687
▁Harry	-7688
▁Music	-7689
▁coach	-7690
▁drops	-7691
▁incom	-7692
▁Mother	-7693
▁Person	-7694
▁bitter	-7695
▁crimes	-7696
▁horror	-7697
▁lyrics	-7698
▁microw	-7699
▁murder	-7700
▁nations	-7701
▁scratch	-7702
▁swollen	-7703
▁instance	-7704
▁leftover	-7705
▁promises	-7706
▁unforget	-7707
▁wireless	-7708
▁cigarette	-7709
▁confusing	-7710
▁reduction	-7711
▁correction	-7712
▁internally	-7713
▁measurement	-7714
ka	-7715
ppy	-7716
ria	-7717
sec	-7718
▁AA	-7719
▁Cr	-7720
▁Id	-7721
▁ec	-7722
grad	-7723
ulum	-7724
▁aid	-7725
ashes	-7726
isher	-7727
▁curi	-7728
▁obst	-7729
▁smok	-7730
▁sole	-7731
▁vacc	-7732
avored	-7733
iverse	-7734
rehens	-7735
▁Inter	-7736
▁aging	-7737
▁aside	-7738
▁begun	-7739
▁drove	-7740
▁flood	-7741
▁marks	-7742
▁posts	-7743
inating	-7744
▁hiring	-7745
▁loaded	-7746
▁planet	-7747
▁pulled	-7748
▁rented	-7749
▁topics	-7750
▁affairs	-7751
▁defects	-7752
▁funeral	-7753
▁checkout	-7754
▁cocktail	-7755
▁district	-7756
▁memorize	-7757
▁promoted	-7758
▁reliable	-7759
▁resolved	-7760
▁skincare	-7761
▁sneakers	-7762
▁unnecess	-7763
▁highlight	-7764
▁applicants	-7765
▁exchanging	-7766
▁underground	-7767
▁modification	-7768
▁photographer	-7769
▁corresponding	-7770
TV	-7771
aya	-7772
ghw	-7773
ops	-7774
:30.	-7775
odel	-7776
▁EMS	-7777
▁uns	-7778
aring	-7779
urban	-7780
▁Read	-7781
▁buck	-7782
▁fasc	-7783
▁insu	-7784
▁torn	-7785
▁twin	-7786
giving	-7787
▁2016.	-7788
▁Exper	-7789
▁birds	-7790
▁enemy	-7791
ception	-7792
eration	-7793
▁Office	-7794
▁Sounds	-7795
▁Things	-7796
▁fridge	-7797
▁hoping	-7798
▁ranked	-7799
▁Develop	-7800
▁approve	-7801
▁coupons	-7802
▁ginseng	-7803
▁refused	-7804
▁routine	-7805
▁suicide	-7806
▁trained	-7807
▁victory	-7808
▁excluded	-7809
▁guardian	-7810
▁managers	-7811
▁resemble	-7812
▁resource	-7813
▁committed	-7814
▁indicated	-7815
▁lifestyle	-7816
▁microwave	-7817
▁Eventually	-7818
▁motivation	-7819
▁performing	-7820
▁unforgettable	-7821
IF	-7822
TM	-7823
au	-7824
fol	-7825
lin	-7826
▁CS	-7827
▁ax	-7828
anda	-7829
gers	-7830
isco	-7831
roid	-7832
▁pha	-7833
ician	-7834
power	-7835
▁Sout	-7836
▁Wind	-7837
▁Yeon	-7838
▁Yout	-7839
▁font	-7840
▁slip	-7841
arious	-7842
▁anger	-7843
▁gorge	-7844
▁rolls	-7845
▁spoke	-7846
inosaur	-7847
verages	-7848
▁Friend	-7849
▁Pororo	-7850
▁campus	-7851
▁parked	-7852
▁sooner	-7853
▁subtit	-7854
▁bedroom	-7855
▁capable	-7856
▁charger	-7857
▁fitness	-7858
▁grandma	-7859
▁picking	-7860
▁proport	-7861
▁pushing	-7862
▁shorter	-7863
▁election	-7864
▁reducing	-7865
▁warranty	-7866
▁awareness	-7867
▁destroyed	-7868
▁guesthouse	-7869
▁officially	-7870
▁declaration	-7871
▁headquarter	-7872
▁unnecessary	-7873
8,	-7874
asp	-7875
ema	-7876
▁36	-7877
▁4,	-7878
coin	-7879
olly	-7880
▁Bas	-7881
▁cin	-7882
▁fed	-7883
reens	-7884
▁pine	-7885
▁wage	-7886
▁ankle	-7887
▁dynam	-7888
▁facts	-7889
▁femin	-7890
▁heads	-7891
▁hired	-7892
▁maxim	-7893
▁stood	-7894
▁Choose	-7895
▁Valent	-7896
▁commit	-7897
▁hygien	-7898
▁myster	-7899
▁nearly	-7900
▁plates	-7901
▁purple	-7902
▁serial	-7903
▁trains	-7904
▁Central	-7905
▁ignored	-7906
▁symptom	-7907
abilities	-7908
▁Normally	-7909
▁desserts	-7910
▁ointment	-7911
▁vitamins	-7912
▁passenger	-7913
▁comparison	-7914
▁medication	-7915
▁misunderstand	-7916
ta	-7917
isc	-7918
pot	-7919
▁OK	-7920
▁UN	-7921
cers	-7922
erry	-7923
rise	-7924
▁Ben	-7925
▁Ven	-7926
▁mud	-7927
etime	-7928
▁Dear	-7929
▁Moon	-7930
▁Nice	-7931
▁ease	-7932
▁ribs	-7933
▁root	-7934
▁sequ	-7935
▁sexy	-7936
▁thus	-7937
verted	-7938
▁Enter	-7939
▁Yeong	-7940
▁bride	-7941
▁candy	-7942
▁curve	-7943
▁fatig	-7944
▁reset	-7945
▁roads	-7946
▁unemp	-7947
▁Sejong	-7948
▁Summer	-7949
▁tender	-7950
▁vendor	-7951
▁desired	-7952
▁fantasy	-7953
▁sadness	-7954
▁unknown	-7955
▁wanting	-7956
▁analyzed	-7957
▁athletes	-7958
▁bleeding	-7959
▁division	-7960
▁gorgeous	-7961
▁adjusting	-7962
▁applicant	-7963
▁basically	-7964
▁beverages	-7965
▁bothering	-7966
▁escalator	-7967
▁protected	-7968
▁reporting	-7969
▁associated	-7970
▁consistent	-7971
▁controlled	-7972
▁explaining	-7973
▁identified	-7974
▁insufficient	-7975
MP	-7976
ya	-7977
300	-7978
lor	-7979
mel	-7980
rip	-7981
▁Av	-7982
rint	-7983
▁Glo	-7984
▁Val	-7985
▁ads	-7986
▁san	-7987
rings	-7988
ushed	-7989
▁apps	-7990
▁eats	-7991
▁hook	-7992
▁panc	-7993
▁shel	-7994
▁soil	-7995
▁Green	-7996
▁grace	-7997
▁stays	-7998
▁storm	-7999
smoking	-8000
▁Joseon	-8001
▁apples	-8002
▁assets	-8003
▁breast	-8004
▁clinic	-8005
▁cookie	-8006
▁fairly	-8007
▁insect	-8008
▁sheets	-8009
▁thirty	-8010
▁Whether	-8011
▁costume	-8012
▁discard	-8013
▁inspect	-8014
▁seaweed	-8015
▁guidance	-8016
▁certified	-8017
▁curiosity	-8018
▁departing	-8019
▁designers	-8020
▁discontin	-8021
▁gratitude	-8022
▁mandatory	-8023
▁nutrition	-8024
▁suspended	-8025
▁convention	-8026
▁settlement	-8027
▁Additionally	-8028
,"	-8029
BA	-8030
eem	-8031
guk	-8032
oos	-8033
opy	-8034
ora	-8035
▁9.	-8036
▁LC	-8037
▁ug	-8038
acle	-8039
brow	-8040
otic	-8041
▁150	-8042
▁Sin	-8043
▁hun	-8044
earch	-8045
iated	-8046
▁Mart	-8047
▁Term	-8048
▁Yang	-8049
▁bran	-8050
▁mile	-8051
▁tuna	-8052
▁whis	-8053
ilding	-8054
▁Skype	-8055
▁audit	-8056
▁chips	-8057
▁flies	-8058
▁medal	-8059
▁recon	-8060
section	-8061
working	-8062
▁Myeong	-8063
▁decent	-8064
▁harmon	-8065
▁pushed	-8066
▁refuse	-8067
▁remark	-8068
▁tables	-8069
▁visits	-8070
▁volunt	-8071
▁wholes	-8072
▁Gwangju	-8073
▁benefic	-8074
▁differs	-8075
▁editing	-8076
▁endless	-8077
▁heavily	-8078
▁screens	-8079
▁colorful	-8080
▁diligent	-8081
▁possibly	-8082
▁regional	-8083
▁stomacha	-8084
▁wrinkles	-8085
▁responses	-8086
▁compensate	-8087
▁discovered	-8088
▁percentage	-8089
▁reputation	-8090
▁statistics	-8091
▁approaching	-8092
▁congratulate	-8093
▁communicating	-8094
▁interpretation	-8095
.'	-8096
9,	-8097
▁BL	-8098
▁DV	-8099
▁om	-8100
live	-8101
phan	-8102
rast	-8103
▁LED	-8104
▁eld	-8105
▁por	-8106
▁tun	-8107
bably	-8108
isted	-8109
▁Rice	-8110
▁flag	-8111
▁gray	-8112
▁pose	-8113
▁puts	-8114
▁west	-8115
apping	-8116
uction	-8117
▁Press	-8118
▁knock	-8119
▁plain	-8120
berries	-8121
ointing	-8122
▁Anyone	-8123
▁Cheong	-8124
▁Nobody	-8125
▁Songdo	-8126
▁floors	-8127
▁hiding	-8128
▁shapes	-8129
▁sorrow	-8130
▁weekly	-8131
▁Stadium	-8132
▁breathe	-8133
▁cushion	-8134
▁oneself	-8135
▁seniors	-8136
▁witness	-8137
▁firmware	-8138
▁honestly	-8139
▁inspired	-8140
▁protects	-8141
▁removing	-8142
▁revealed	-8143
▁seasoned	-8144
▁treasure	-8145
▁accepting	-8146
▁attracted	-8147
▁executive	-8148
▁injection	-8149
▁invention	-8150
▁occurring	-8151
▁recording	-8152
▁belongings	-8153
▁confirming	-8154
▁industries	-8155
▁properties	-8156
▁suggestions	-8157
▁transactions	-8158
yo	-8159
olk	-8160
▁Ty	-8161
gung	-8162
iate	-8163
lege	-8164
▁Chi	-8165
▁Mad	-8166
▁Pur	-8167
▁Squ	-8168
▁bug	-8169
▁wat	-8170
overs	-8171
rates	-8172
▁Test	-8173
▁chip	-8174
▁duck	-8175
▁flaw	-8176
▁hell	-8177
school	-8178
warder	-8179
▁Franc	-8180
▁Islam	-8181
▁Kevin	-8182
▁Place	-8183
▁adequ	-8184
▁antib	-8185
▁bench	-8186
▁broth	-8187
▁cycle	-8188
▁explo	-8189
▁fragr	-8190
▁holds	-8191
▁jelly	-8192
▁opera	-8193
▁rides	-8194
▁roles	-8195
▁15,000	-8196
▁Health	-8197
▁Mexico	-8198
▁elimin	-8199
▁enroll	-8200
▁layout	-8201
▁polite	-8202
▁serves	-8203
▁deserve	-8204
▁killing	-8205
▁Probably	-8206
▁commonly	-8207
▁entirely	-8208
▁greeting	-8209
▁interact	-8210
▁respected	-8211
▁maintained	-8212
▁certificates	-8213
▁institutions	-8214
▁technologies	-8215
IT	-8216
▁‘	-8217
hin	-8218
onal	-8219
quet	-8220
stem	-8221
▁Ken	-8222
▁Met	-8223
▁Son	-8224
▁und	-8225
eters	-8226
piece	-8227
▁Bill	-8228
▁Miss	-8229
▁Mong	-8230
▁Vill	-8231
▁bone	-8232
▁plot	-8233
▁poly	-8234
▁sore	-8235
▁FedEx	-8236
▁Kyung	-8237
▁asset	-8238
▁blame	-8239
▁cruel	-8240
▁vocab	-8241
riculum	-8242
unction	-8243
▁Pyeong	-8244
▁barbec	-8245
▁cruise	-8246
▁evenly	-8247
▁inches	-8248
▁snowed	-8249
▁stimul	-8250
▁varies	-8251
▁chapter	-8252
▁circuit	-8253
▁conserv	-8254
▁defense	-8255
▁preserv	-8256
▁returns	-8257
▁snowing	-8258
▁teaches	-8259
▁Whatever	-8260
▁absorbed	-8261
▁branches	-8262
▁majority	-8263
▁notified	-8264
▁obtained	-8265
▁punished	-8266
▁revision	-8267
▁settings	-8268
▁shocking	-8269
▁ancestors	-8270
▁depression	-8271
▁Considering	-8272
▁arrangement	-8273
▁distinguish	-8274
▁consistently	-8275
▁individually	-8276
azz	-8277
ham	-8278
iev	-8279
oop	-8280
she	-8281
▁5,	-8282
▁BB	-8283
▁TH	-8284
▁Ve	-8285
▁pu	-8286
fall	-8287
hyth	-8288
▁Rob	-8289
iller	-8290
osure	-8291
works	-8292
▁2015	-8293
▁Expl	-8294
▁Paul	-8295
▁Room	-8296
▁Swit	-8297
▁Tour	-8298
▁Walk	-8299
▁cler	-8300
▁dear	-8301
▁lean	-8302
▁memo	-8303
▁peak	-8304
▁pens	-8305
▁sake	-8306
▁vent	-8307
dering	-8308
ellect	-8309
▁Bring	-8310
▁Seung	-8311
▁Sweet	-8312
▁agric	-8313
▁enorm	-8314
▁risks	-8315
colored	-8316
issions	-8317
▁Street	-8318
▁bucket	-8319
▁rubber	-8320
▁thesis	-8321
▁diction	-8322
▁honored	-8323
▁intense	-8324
▁shaking	-8325
▁soldier	-8326
▁stocked	-8327
▁utilize	-8328
▁victims	-8329
▁Remember	-8330
▁teamwork	-8331
▁websites	-8332
▁Valentine	-8333
▁abandoned	-8334
▁copyright	-8335
▁decorated	-8336
▁exception	-8337
▁forwarder	-8338
▁overnight	-8339
▁recovered	-8340
▁thickness	-8341
▁categories	-8342
▁competitor	-8343
▁achievement	-8344
▁calculation	-8345
bn	-8346
aki	-8347
squ	-8348
▁Em	-8349
▁PD	-8350
vals	-8351
▁600	-8352
▁Ber	-8353
▁Bit	-8354
▁Jul	-8355
▁Sur	-8356
▁oxy	-8357
▁ven	-8358
essed	-8359
ifies	-8360
ribly	-8361
▁Blue	-8362
▁Book	-8363
▁Free	-8364
▁Mark	-8365
▁Open	-8366
▁cure	-8367
▁lied	-8368
▁tank	-8369
nament	-8370
orters	-8371
▁Buddh	-8372
▁lemon	-8373
▁oppon	-8374
▁Master	-8375
▁Spring	-8376
▁accord	-8377
▁betray	-8378
▁perman	-8379
▁amounts	-8380
▁elegant	-8381
▁eyebrow	-8382
▁fatigue	-8383
▁highway	-8384
▁landing	-8385
istration	-8386
▁appetite	-8387
▁cheering	-8388
▁inviting	-8389
▁lifetime	-8390
▁relation	-8391
▁throwing	-8392
▁upgraded	-8393
▁verified	-8394
▁vertical	-8395
▁Customers	-8396
▁breathing	-8397
▁comparing	-8398
▁contained	-8399
▁earphones	-8400
▁immediate	-8401
▁launching	-8402
▁religious	-8403
▁screening	-8404
▁containers	-8405
▁curriculum	-8406
▁meticulous	-8407
▁monitoring	-8408
▁installment	-8409
▁necessarily	-8410
▁stomachache	-8411
▁disappointing	-8412
▁misunderstood	-8413
ige	-8414
▁$2	-8415
fice	-8416
▁Non	-8417
▁aer	-8418
▁bat	-8419
▁gel	-8420
avors	-8421
icate	-8422
▁1000	-8423
▁Chun	-8424
▁Land	-8425
▁Meet	-8426
▁carr	-8427
▁tale	-8428
▁wifi	-8429
flight	-8430
▁Smith	-8431
▁finds	-8432
▁hated	-8433
▁queen	-8434
▁squid	-8435
▁stere	-8436
▁theat	-8437
▁toler	-8438
oration	-8439
osexual	-8440
zerland	-8441
▁buffet	-8442
▁comedy	-8443
▁counse	-8444
▁licens	-8445
▁lovers	-8446
▁taller	-8447
▁tariff	-8448
▁Dynasty	-8449
▁Youtube	-8450
▁aggress	-8451
▁bothers	-8452
▁butterf	-8453
▁graphic	-8454
▁thermal	-8455
▁visible	-8456
▁accompan	-8457
▁acquired	-8458
▁bracelet	-8459
▁creation	-8460
▁fluently	-8461
▁humidity	-8462
▁invented	-8463
▁universe	-8464
▁conflicts	-8465
▁generated	-8466
▁magazines	-8467
▁prejudice	-8468
▁spreading	-8469
▁completing	-8470
▁consulting	-8471
▁resistance	-8472
▁Switzerland	-8473
▁investigate	-8474
▁meaningless	-8475
▁illustration	-8476
80	-8477
MO	-8478
yu	-8479
Bay	-8480
esh	-8481
rer	-8482
▁LA	-8483
▁Ob	-8484
norm	-8485
▁123	-8486
▁Sil	-8487
▁Yoo	-8488
▁shr	-8489
arium	-8490
organ	-8491
▁Plus	-8492
▁Yuna	-8493
▁clar	-8494
▁dyed	-8495
▁hadn	-8496
▁mill	-8497
▁sees	-8498
▁ster	-8499
inking	-8500
ounter	-8501
▁boost	-8502
▁bunch	-8503
▁param	-8504
▁shelf	-8505
▁taxis	-8506
▁Comple	-8507
▁Eating	-8508
▁Rather	-8509
▁forces	-8510
▁headed	-8511
▁intent	-8512
▁layers	-8513
▁nicely	-8514
▁rained	-8515
▁shadow	-8516
▁thread	-8517
▁College	-8518
▁Teacher	-8519
▁Village	-8520
▁applies	-8521
▁cooling	-8522
▁dislike	-8523
▁loading	-8524
▁skating	-8525
▁suspect	-8526
▁western	-8527
▁airlines	-8528
▁matching	-8529
▁produces	-8530
▁adventure	-8531
▁fermented	-8532
▁otherwise	-8533
▁territory	-8534
▁guaranteed	-8535
▁innovative	-8536
▁desperately	-8537
▁fingerprint	-8538
▁temporarily	-8539
▁surroundings	-8540
▁establishment	-8541
▁recommendations	-8542
car	-8543
rid	-8544
▁Ah	-8545
▁Lu	-8546
▁PP	-8547
ilty	-8548
site	-8549
▁API	-8550
▁Bet	-8551
▁Int	-8552
▁Los	-8553
▁Pat	-8554
acing	-8555
ashed	-8556
athon	-8557
cular	-8558
hythm	-8559
loved	-8560
▁Ange	-8561
▁Arab	-8562
▁Nams	-8563
▁arom	-8564
▁clip	-8565
▁iced	-8566
▁spin	-8567
ultane	-8568
▁Excel	-8569
▁Money	-8570
▁Seong	-8571
▁adopt	-8572
▁arrow	-8573
▁lasts	-8574
▁shout	-8575
▁stole	-8576
▁toner	-8577
▁Sports	-8578
▁Taking	-8579
▁bullet	-8580
▁claims	-8581
▁handic	-8582
▁infect	-8583
▁YouTube	-8584
▁choices	-8585
▁enables	-8586
▁issuing	-8587
▁octopus	-8588
▁partial	-8589
▁voucher	-8590
▁dinosaur	-8591
▁freshman	-8592
▁horizont	-8593
▁accompany	-8594
▁daughters	-8595
▁dumplings	-8596
▁expresses	-8597
▁intellect	-8598
▁negotiate	-8599
▁promoting	-8600
▁specified	-8601
▁applicable	-8602
▁experiments	-8603
▁translating	-8604
▁understands	-8605
ola	-8606
▁34	-8607
▁CP	-8608
▁Ga	-8609
itto	-8610
yung	-8611
▁Det	-8612
▁Imp	-8613
▁Pri	-8614
▁Rel	-8615
▁Str	-8616
▁Sud	-8617
▁Wal	-8618
▁lid	-8619
block	-8620
raint	-8621
ulary	-8622
umped	-8623
▁Cebu	-8624
▁Soon	-8625
▁poet	-8626
▁tons	-8627
▁ugly	-8628
▁wipe	-8629
▁Above	-8630
▁Bible	-8631
▁Steve	-8632
▁accel	-8633
▁baked	-8634
▁north	-8635
▁panel	-8636
▁tires	-8637
▁Indust	-8638
▁closet	-8639
▁fixing	-8640
▁itiner	-8641
▁oxygen	-8642
▁wheels	-8643
▁winner	-8644
▁Contact	-8645
▁Gangwon	-8646
▁acquire	-8647
▁classic	-8648
▁commute	-8649
▁council	-8650
▁curtain	-8651
▁dentist	-8652
▁focuses	-8653
▁somehow	-8654
▁agencies	-8655
▁contacts	-8656
▁contrast	-8657
▁frequent	-8658
▁outgoing	-8659
▁portable	-8660
▁terribly	-8661
▁upstairs	-8662
▁watermel	-8663
▁franchise	-8664
▁strategic	-8665
▁substance	-8666
▁uploading	-8667
▁mysterious	-8668
▁repeatedly	-8669
▁Information	-8670
▁implemented	-8671
▁unavailable	-8672
7,	-8673
ga	-8674
bag	-8675
bnb	-8676
yun	-8677
ails	-8678
heon	-8679
itan	-8680
ulpt	-8681
▁Bre	-8682
▁Coc	-8683
▁Jim	-8684
▁Mat	-8685
▁gum	-8686
▁wig	-8687
heast	-8688
ipper	-8689
▁Disc	-8690
▁Inte	-8691
▁Kids	-8692
▁crab	-8693
▁dizz	-8694
▁meas	-8695
▁mort	-8696
▁myst	-8697
▁rope	-8698
▁tube	-8699
▁Sales	-8700
▁Ulsan	-8701
▁accom	-8702
▁ambul	-8703
▁coast	-8704
▁colon	-8705
▁fired	-8706
▁urban	-8707
▁wings	-8708
ructure	-8709
▁Global	-8710
▁affili	-8711
▁castle	-8712
▁contro	-8713
▁drawer	-8714
▁endure	-8715
▁folder	-8716
▁inject	-8717
▁ladies	-8718
▁oldest	-8719
▁pounds	-8720
▁promot	-8721
▁rabbit	-8722
▁sculpt	-8723
▁wisdom	-8724
onscious	-8725
▁annoyed	-8726
▁episode	-8727
▁summary	-8728
▁trusted	-8729
▁weapons	-8730
▁cautious	-8731
▁cheerful	-8732
▁earrings	-8733
▁laughing	-8734
▁lighting	-8735
▁roommate	-8736
▁tendency	-8737
▁acknowled	-8738
▁analyzing	-8739
▁factories	-8740
▁itinerary	-8741
▁sacrifice	-8742
▁simultane	-8743
▁automobile	-8744
▁containing	-8745
▁integrated	-8746
▁preference	-8747
▁restricted	-8748
▁instruments	-8749
▁Thanksgiving	-8750
▁discontinued	-8751
gor	-8752
zes	-8753
anes	-8754
char	-8755
dney	-8756
isms	-8757
onom	-8758
type	-8759
wing	-8760
▁Dad	-8761
▁Dok	-8762
▁Run	-8763
▁Sol	-8764
▁bum	-8765
anges	-8766
iches	-8767
▁Help	-8768
▁Real	-8769
▁burd	-8770
▁carp	-8771
▁evil	-8772
▁rear	-8773
▁tent	-8774
▁tiny	-8775
▁vari	-8776
esteem	-8777
▁2014.	-8778
▁Class	-8779
▁Dream	-8780
▁State	-8781
▁conso	-8782
▁oblig	-8783
▁royal	-8784
▁rumor	-8785
▁sciss	-8786
▁stiff	-8787
leyball	-8788
reprene	-8789
▁Sydney	-8790
▁absorb	-8791
▁donate	-8792
▁pillow	-8793
▁silent	-8794
▁statue	-8795
▁triang	-8796
ollywood	-8797
▁boiling	-8798
▁consequ	-8799
▁demands	-8800
▁diamond	-8801
▁liberal	-8802
▁outcome	-8803
▁readers	-8804
▁sausage	-8805
▁useless	-8806
▁Province	-8807
▁barbecue	-8808
▁examined	-8809
▁improves	-8810
▁invoices	-8811
▁versions	-8812
▁Gyeongbok	-8813
▁candidate	-8814
▁detergent	-8815
▁precisely	-8816
▁residence	-8817
▁controvers	-8818
▁electrical	-8819
▁treatments	-8820
▁vocabulary	-8821
▁Electronics	-8822
4,	-8823
bl	-8824
▁u	-8825
axy	-8826
▁8.	-8827
▁SP	-8828
▁oy	-8829
acon	-8830
ella	-8831
ends	-8832
jung	-8833
teen	-8834
usan	-8835
▁197	-8836
▁Cap	-8837
▁Jud	-8838
▁Yet	-8839
▁tab	-8840
erget	-8841
istan	-8842
rogen	-8843
▁Boss	-8844
▁Lord	-8845
▁Oper	-8846
▁Wasn	-8847
▁corn	-8848
▁eBay	-8849
▁east	-8850
▁scal	-8851
▁soda	-8852
atural	-8853
screen	-8854
▁heels	-8855
▁mosqu	-8856
▁rises	-8857
▁texts	-8858
▁walls	-8859
lements	-8860
looking	-8861
▁abnorm	-8862
▁banana	-8863
▁deeper	-8864
▁guilty	-8865
▁handed	-8866
▁heater	-8867
▁outfit	-8868
▁reform	-8869
▁Foreign	-8870
▁Various	-8871
▁adopted	-8872
▁buttons	-8873
▁dispute	-8874
▁energet	-8875
▁hurting	-8876
▁scolded	-8877
▁talents	-8878
▁bibimbap	-8879
▁incurred	-8880
▁opponent	-8881
▁randomly	-8882
▁supervis	-8883
▁committee	-8884
▁democracy	-8885
▁healthier	-8886
▁preferred	-8887
▁reactions	-8888
▁realistic	-8889
▁newspapers	-8890
▁preventing	-8891
▁satisfying	-8892
▁submission	-8893
▁interaction	-8894
▁significantly	-8895
▁accommodations	-8896
can	-8897
▁Ca	-8898
▁Il	-8899
▁PR	-8900
▁Sl	-8901
daem	-8902
zzle	-8903
▁Cut	-8904
▁Dub	-8905
▁Nor	-8906
▁Sal	-8907
▁Vis	-8908
▁cuc	-8909
▁odd	-8910
ander	-8911
aying	-8912
▁2000	-8913
▁Luck	-8914
▁Pork	-8915
▁Word	-8916
▁ador	-8917
▁fork	-8918
▁nuts	-8919
▁popc	-8920
▁silk	-8921
▁slim	-8922
▁tatt	-8923
▁weld	-8924
agraph	-8925
shirts	-8926
▁Hanok	-8927
▁caffe	-8928
▁craft	-8929
▁crowd	-8930
▁excel	-8931
▁grill	-8932
▁repet	-8933
▁solar	-8934
arently	-8935
▁Airbnb	-8936
▁debate	-8937
▁gloves	-8938
▁string	-8939
▁violin	-8940
▁Angeles	-8941
▁Science	-8942
▁Twitter	-8943
▁beloved	-8944
▁bulgogi	-8945
▁easiest	-8946
▁passage	-8947
▁pointed	-8948
▁pronoun	-8949
▁swallow	-8950
itiveness	-8951
▁Ministry	-8952
▁Starting	-8953
▁artistic	-8954
▁commemor	-8955
▁dreaming	-8956
▁enormous	-8957
▁operates	-8958
▁shortage	-8959
▁postponed	-8960
▁recycling	-8961
▁seasoning	-8962
▁succeeded	-8963
▁Australian	-8964
▁compatible	-8965
▁comprehens	-8966
▁functional	-8967
▁incredible	-8968
▁principles	-8969
▁ridiculous	-8970
▁efficiently	-8971
▁circumstance	-8972
▁disadvantages	-8973
▁personalities	-8974
▁administrative	-8975
-2	-8976
RA	-8977
aza	-8978
boy	-8979
cur	-8980
vil	-8981
▁4-	-8982
▁na	-8983
▁tv	-8984
▁xx	-8985
ales	-8986
city	-8987
doll	-8988
flow	-8989
ghwa	-8990
ires	-8991
izer	-8992
oles	-8993
olic	-8994
test	-8995
▁250	-8996
▁Dec	-8997
▁Dri	-8998
▁Soo	-8999
amsil	-9000
hamed	-9001
▁Game	-9002
▁Main	-9003
▁affe	-9004
▁foam	-9005
▁gear	-9006
▁unst	-9007
icated	-9008
lasses	-9009
rained	-9010
terior	-9011
▁Cheon	-9012
▁Filip	-9013
▁Lunar	-9014
▁brave	-9015
▁cafes	-9016
▁pairs	-9017
▁Father	-9018
▁Flitto	-9019
▁attrib	-9020
▁bacter	-9021
▁cloudy	-9022
▁column	-9023
▁contem	-9024
▁define	-9025
▁liquor	-9026
▁onions	-9027
▁Android	-9028
▁Chicken	-9029
▁General	-9030
▁accompl	-9031
▁checkup	-9032
▁doctors	-9033
▁replied	-9034
▁restock	-9035
▁romance	-9036
isticated	-9037
roduction	-9038
▁aircraft	-9039
▁catching	-9040
▁duration	-9041
▁pressing	-9042
▁protocol	-9043
▁province	-9044
▁purifier	-9045
▁stranger	-9046
ajangmyeon	-9047
▁evaluated	-9048
▁investors	-9049
▁paperwork	-9050
▁strangers	-9051
▁counseling	-9052
▁dictionary	-9053
▁laboratory	-9054
▁stationery	-9055
▁volleyball	-9056
▁accommodate	-9057
▁association	-9058
▁celebration	-9059
▁documentary	-9060
▁embarrassing	-9061
▁restrictions	-9062
45	-9063
EM	-9064
asm	-9065
hot	-9066
kok	-9067
ona	-9068
pan	-9069
soo	-9070
▁5-	-9071
atin	-9072
ikes	-9073
itud	-9074
whel	-9075
▁Bor	-9076
▁Nep	-9077
▁Pra	-9078
▁Sad	-9079
▁Tem	-9080
▁alp	-9081
▁nom	-9082
comes	-9083
inity	-9084
level	-9085
nergy	-9086
▁Hosp	-9087
▁Wall	-9088
▁glue	-9089
▁itch	-9090
▁tied	-9091
▁ward	-9092
erable	-9093
inding	-9094
▁Group	-9095
▁Smart	-9096
▁angel	-9097
▁argue	-9098
▁debut	-9099
▁disin	-9100
▁mango	-9101
▁manip	-9102
▁moral	-9103
▁perce	-9104
▁stack	-9105
▁vivid	-9106
rations	-9107
theless	-9108
▁Little	-9109
▁lenses	-9110
▁pickup	-9111
▁rhythm	-9112
▁cabbage	-9113
▁centers	-9114
▁eternal	-9115
▁explore	-9116
▁hitting	-9117
▁lodging	-9118
▁viewers	-9119
▁handmade	-9120
▁imagined	-9121
▁inquired	-9122
▁indicates	-9123
▁positions	-9124
▁secretary	-9125
▁subtitles	-9126
▁wholesale	-9127
▁accordance	-9128
▁customized	-9129
▁decreasing	-9130
▁homosexual	-9131
▁inevitable	-9132
▁instructor	-9133
▁prevention	-9134
▁professors	-9135
▁celebrating	-9136
▁inspiration	-9137
▁transparent	-9138
▁conveniently	-9139
▁sophisticated	-9140
",	-9141
.1	-9142
5%	-9143
▁Mi	-9144
oken	-9145
▁fry	-9146
field	-9147
inkle	-9148
ridge	-9149
▁2018	-9150
▁Hist	-9151
▁Home	-9152
▁Move	-9153
▁disg	-9154
▁fond	-9155
▁hill	-9156
▁outs	-9157
▁peel	-9158
▁prog	-9159
▁quiz	-9160
hedule	-9161
ifying	-9162
ushing	-9163
velope	-9164
▁Light	-9165
▁Santa	-9166
▁acted	-9167
▁brows	-9168
▁eager	-9169
▁laser	-9170
▁latte	-9171
▁shots	-9172
▁skate	-9173
iminals	-9174
ologist	-9175
▁Family	-9176
▁Jamsil	-9177
▁Parent	-9178
▁border	-9179
▁excite	-9180
▁greasy	-9181
▁interm	-9182
▁intest	-9183
▁limits	-9184
▁marine	-9185
▁poison	-9186
▁rescue	-9187
▁resend	-9188
▁smiles	-9189
▁steady	-9190
iconduct	-9191
▁consent	-9192
▁credits	-9193
▁dynamic	-9194
▁mystery	-9195
▁puppies	-9196
▁species	-9197
▁worship	-9198
▁artworks	-9199
▁discover	-9200
▁exceeded	-9201
▁explains	-9202
▁fountain	-9203
▁interval	-9204
▁overwhel	-9205
▁portions	-9206
▁treating	-9207
▁Hollywood	-9208
▁criminals	-9209
▁practices	-9210
▁selecting	-9211
▁utilizing	-9212
▁beneficial	-9213
▁conducting	-9214
▁elasticity	-9215
▁incredibly	-9216
▁researched	-9217
▁tournament	-9218
▁limitations	-9219
▁photography	-9220
▁unfortunately	-9221
BS	-9222
log	-9223
mma	-9224
was	-9225
▁HR	-9226
▁Mu	-9227
▁kg	-9228
comm	-9229
ders	-9230
onge	-9231
umin	-9232
vity	-9233
▁Hee	-9234
▁Ice	-9235
▁Vol	-9236
▁rul	-9237
▁une	-9238
appro	-9239
itage	-9240
▁Gwan	-9241
▁Plan	-9242
▁Wolm	-9243
▁issu	-9244
istant	-9245
ixture	-9246
umbers	-9247
▁Const	-9248
▁Power	-9249
▁Super	-9250
▁abund	-9251
▁abuse	-9252
▁audio	-9253
▁awake	-9254
▁chees	-9255
▁chili	-9256
▁divid	-9257
▁fiber	-9258
▁fifth	-9259
▁firms	-9260
▁holes	-9261
▁knees	-9262
▁pilot	-9263
▁retri	-9264
▁rings	-9265
▁snows	-9266
▁Design	-9267
▁League	-9268
▁Namsan	-9269
▁Sudden	-9270
▁finals	-9271
▁losses	-9272
▁mutual	-9273
▁yogurt	-9274
▁Bangkok	-9275
▁Hongdae	-9276
▁anxiety	-9277
▁crossed	-9278
▁default	-9279
▁equally	-9280
▁granted	-9281
▁journal	-9282
▁justice	-9283
▁observe	-9284
▁persist	-9285
▁shining	-9286
▁tension	-9287
▁audition	-9288
▁divorced	-9289
▁donation	-9290
▁mentally	-9291
▁sacrific	-9292
▁youngest	-9293
▁ambulance	-9294
▁competent	-9295
▁encounter	-9296
▁execution	-9297
▁frequency	-9298
▁identical	-9299
▁literally	-9300
▁locations	-9301
▁medicines	-9302
▁shipments	-9303
▁progressed	-9304
▁electronics	-9305
▁unemployment	-9306
▁psychological	-9307
:1	-9308
OC	-9309
OP	-9310
fr	-9311
iel	-9312
sle	-9313
uet	-9314
▁32	-9315
dern	-9316
vial	-9317
▁BTS	-9318
▁Dem	-9319
▁FTA	-9320
▁Lou	-9321
▁mig	-9322
chang	-9323
losed	-9324
▁CCTV	-9325
▁Camb	-9326
▁Cath	-9327
▁Rock	-9328
▁pean	-9329
▁seas	-9330
▁soot	-9331
▁unha	-9332
▁Admin	-9333
▁Found	-9334
▁Peter	-9335
▁burst	-9336
▁clerk	-9337
▁escap	-9338
▁peach	-9339
chester	-9340
vention	-9341
▁baking	-9342
▁crispy	-9343
▁dental	-9344
▁frying	-9345
▁scenar	-9346
▁sticky	-9347
▁Thirdly	-9348
▁ashamed	-9349
▁counsel	-9350
▁daytime	-9351
▁healing	-9352
▁islands	-9353
▁leakage	-9354
▁lottery	-9355
▁sources	-9356
▁surfing	-9357
▁updates	-9358
▁Bibimbap	-9359
▁balanced	-9360
▁decorate	-9361
▁definite	-9362
▁exposure	-9363
▁innocent	-9364
▁receiver	-9365
▁reflects	-9366
▁relaxing	-9367
▁replying	-9368
▁wondered	-9369
▁Francisco	-9370
▁favorable	-9371
▁infection	-9372
▁Management	-9373
▁proportion	-9374
▁publishing	-9375
▁stretching	-9376
▁enterprises	-9377
▁mathematics	-9378
32	-9379
DA	-9380
mi	-9381
oe	-9382
hou	-9383
hye	-9384
iar	-9385
oft	-9386
olf	-9387
▁EM	-9388
▁UV	-9389
▁jj	-9390
code	-9391
ctic	-9392
fied	-9393
firm	-9394
stal	-9395
▁Fig	-9396
▁Gim	-9397
▁Lim	-9398
▁pip	-9399
▁spo	-9400
worth	-9401
▁Mina	-9402
▁drum	-9403
▁flew	-9404
▁pace	-9405
▁pays	-9406
▁pear	-9407
▁seed	-9408
▁zero	-9409
angeul	-9410
asting	-9411
orient	-9412
▁Jenny	-9413
▁Union	-9414
▁freel	-9415
▁horri	-9416
▁paink	-9417
▁phase	-9418
▁swear	-9419
▁venue	-9420
develop	-9421
▁Cambod	-9422
▁adoles	-9423
▁basics	-9424
▁clouds	-9425
▁discom	-9426
▁fellow	-9427
▁novels	-9428
▁sliced	-9429
▁subsid	-9430
▁tasted	-9431
▁Express	-9432
▁Washing	-9433
▁anticip	-9434
▁cartoon	-9435
▁mindset	-9436
▁neglect	-9437
▁popcorn	-9438
▁protest	-9439
▁ranking	-9440
▁regrets	-9441
▁savings	-9442
▁sellers	-9443
▁Haeundae	-9444
▁addicted	-9445
▁adequate	-9446
▁alliance	-9447
▁darkness	-9448
▁deciding	-9449
▁observed	-9450
▁producer	-9451
▁referred	-9452
▁reporter	-9453
▁tomatoes	-9454
▁achieving	-9455
▁economics	-9456
▁energetic	-9457
▁expanding	-9458
▁interface	-9459
▁releasing	-9460
▁uncertain	-9461
▁excitement	-9462
▁guidelines	-9463
▁substances	-9464
▁sunglasses	-9465
▁thoughtful	-9466
▁approximate	-9467
▁problematic	-9468
▁disadvantage	-9469
▁perspectives	-9470
▁productivity	-9471
▁authorization	-9472
▁consciousness	-9473
▁competitiveness	-9474
si	-9475
▁.	-9476
iox	-9477
mar	-9478
osh	-9479
tim	-9480
away	-9481
▁120	-9482
▁Ann	-9483
▁Cle	-9484
▁Mun	-9485
▁Tax	-9486
▁sed	-9487
ilton	-9488
ivery	-9489
▁Geun	-9490
▁Long	-9491
▁Phot	-9492
▁drow	-9493
▁gest	-9494
▁inex	-9495
▁lung	-9496
▁melt	-9497
▁reun	-9498
▁wins	-9499
atient	-9500
itudes	-9501
▁Canad	-9502
▁Party	-9503
▁balls	-9504
▁bones	-9505
▁boots	-9506
▁cares	-9507
▁flows	-9508
▁lists	-9509
▁thumb	-9510
▁timet	-9511
▁yield	-9512
itivity	-9513
limited	-9514
▁Hangul	-9515
▁Mongol	-9516
▁Seeing	-9517
▁Unless	-9518
▁cowork	-9519
▁diving	-9520
▁drying	-9521
▁editor	-9522
▁gloomy	-9523
▁nurses	-9524
▁stroll	-9525
▁wasted	-9526
▁Friends	-9527
▁advised	-9528
▁compuls	-9529
▁exhibit	-9530
▁founded	-9531
▁mothers	-9532
▁offices	-9533
▁perhaps	-9534
▁periods	-9535
▁roasted	-9536
▁soybean	-9537
▁wrongly	-9538
▁envelope	-9539
▁equality	-9540
▁equipped	-9541
▁junction	-9542
▁scissors	-9543
▁slippery	-9544
ailability	-9545
▁diagnosis	-9546
▁hospitals	-9547
▁necessity	-9548
▁principal	-9549
▁souvenirs	-9550
▁Tteokbokki	-9551
▁classified	-9552
▁discomfort	-9553
▁surrounded	-9554
▁suspicious	-9555
▁researching	-9556
▁semiconduct	-9557
▁accomplished	-9558
▁explanations	-9559
▁intellectual	-9560
▁intersection	-9561
EL	-9562
za	-9563
ari	-9564
bin	-9565
eon	-9566
gir	-9567
hal	-9568
ita	-9569
ura	-9570
▁SK	-9571
▁Si	-9572
▁Yu	-9573
atsu	-9574
eram	-9575
semb	-9576
▁1.5	-9577
▁Pen	-9578
▁dat	-9579
▁ink	-9580
▁pud	-9581
▁rac	-9582
yalty	-9583
▁Gate	-9584
▁Gree	-9585
▁Know	-9586
▁Rest	-9587
▁grey	-9588
▁keys	-9589
▁sink	-9590
rolled	-9591
▁Dokdo	-9592
▁Greek	-9593
▁brill	-9594
▁filed	-9595
▁forth	-9596
▁idols	-9597
▁jokes	-9598
▁lacks	-9599
▁pores	-9600
▁rehab	-9601
▁rival	-9602
orthern	-9603
▁bleach	-9604
▁dining	-9605
▁discip	-9606
▁heroes	-9607
▁incent	-9608
▁linked	-9609
▁rumors	-9610
▁stabil	-9611
function	-9612
oriented	-9613
▁Explain	-9614
▁Hangeul	-9615
▁Seattle	-9616
▁Sundays	-9617
▁Support	-9618
▁barrier	-9619
▁burdens	-9620
▁claimed	-9621
▁largely	-9622
▁mixture	-9623
▁ongoing	-9624
▁sunrise	-9625
▁viewing	-9626
astically	-9627
unication	-9628
▁Describe	-9629
▁Terminal	-9630
▁bothered	-9631
▁chairman	-9632
▁expanded	-9633
▁marathon	-9634
▁meantime	-9635
▁survival	-9636
▁Otherwise	-9637
▁accessory	-9638
▁authentic	-9639
▁developer	-9640
▁eliminate	-9641
▁intensity	-9642
▁interrupt	-9643
▁measuring	-9644
▁officials	-9645
▁paragraph	-9646
▁thousands	-9647
▁undergrad	-9648
▁decoration	-9649
▁downloaded	-9650
▁emphasized	-9651
▁entreprene	-9652
▁forwarding	-9653
▁hamburgers	-9654
▁presenting	-9655
▁protecting	-9656
▁Nevertheless	-9657
▁satisfactory	-9658
▁qualification	-9659
AC	-9660
ID	-9661
NA	-9662
RL	-9663
ml	-9664
nut	-9665
loin	-9666
▁12.	-9667
▁Bob	-9668
ckets	-9669
esity	-9670
merce	-9671
orney	-9672
stone	-9673
▁Cook	-9674
▁Eiff	-9675
▁Lear	-9676
▁Mike	-9677
▁Post	-9678
▁Soup	-9679
▁bars	-9680
▁lamb	-9681
▁melo	-9682
▁nons	-9683
▁pond	-9684
▁tang	-9685
acific	-9686
allest	-9687
ferent	-9688
iances	-9689
issued	-9690
making	-9691
▁Queen	-9692
▁coinc	-9693
▁defic	-9694
▁dizzy	-9695
▁fluct	-9696
▁greed	-9697
▁hesit	-9698
▁messy	-9699
▁remit	-9700
▁spell	-9701
▁tiger	-9702
minutes	-9703
▁Bridge	-9704
▁Fourth	-9705
▁Galaxy	-9706
▁Greece	-9707
▁Potter	-9708
▁colder	-9709
▁collap	-9710
▁cultiv	-9711
▁deserv	-9712
▁melted	-9713
▁savory	-9714
▁stages	-9715
▁struct	-9716
▁blossom	-9717
▁ethical	-9718
▁exclude	-9719
▁jumping	-9720
▁pretend	-9721
▁renting	-9722
▁rewards	-9723
▁touches	-9724
▁Hospital	-9725
▁adorable	-9726
▁caffeine	-9727
▁dispatch	-9728
▁enhanced	-9729
▁feminine	-9730
▁receives	-9731
▁slippers	-9732
▁suitcase	-9733
▁variable	-9734
▁affection	-9735
▁alongside	-9736
▁companion	-9737
▁fortunate	-9738
▁importing	-9739
▁violation	-9740
▁acceptance	-9741
▁reschedule	-9742
▁watermelon	-9743
▁accumulated	-9744
▁expectation	-9745
▁researchers	-9746
▁occasionally	-9747
▁congratulations	-9748
.?	-9749
90	-9750
DP	-9751
cs	-9752
ads	-9753
ami	-9754
cal	-9755
oko	-9756
oph	-9757
oven	-9758
▁Dar	-9759
▁Den	-9760
▁bio	-9761
▁blu	-9762
▁han	-9763
▁syn	-9764
▁tid	-9765
▁vul	-9766
ictor	-9767
▁Prep	-9768
▁abst	-9769
▁cave	-9770
vation	-9771
▁Color	-9772
▁Court	-9773
▁Kyoto	-9774
▁awful	-9775
▁debit	-9776
▁faced	-9777
▁homes	-9778
▁macar	-9779
▁rooft	-9780
▁scalp	-9781
▁shine	-9782
igently	-9783
▁conver	-9784
▁defeat	-9785
▁drives	-9786
▁explos	-9787
▁filmed	-9788
▁rating	-9789
▁rechar	-9790
▁roller	-9791
▁sketch	-9792
▁unlock	-9793
▁waiter	-9794
▁weapon	-9795
▁Bitcoin	-9796
▁compete	-9797
▁destroy	-9798
▁enemies	-9799
▁foolish	-9800
▁lawsuit	-9801
▁massive	-9802
▁placing	-9803
▁roughly	-9804
▁suppose	-9805
▁trivial	-9806
icultural	-9807
▁exterior	-9808
▁facebook	-9809
▁freezing	-9810
▁indirect	-9811
▁minimize	-9812
▁mosquito	-9813
▁prospect	-9814
▁smallest	-9815
▁speakers	-9816
▁disinfect	-9817
▁expertise	-9818
▁travelers	-9819
▁candidates	-9820
▁distribute	-9821
▁encouraged	-9822
▁loneliness	-9823
▁supervisor	-9824
▁constructed	-9825
▁photographs	-9826
▁acquaintance	-9827
▁concentrated	-9828
due	-9829
▁SM	-9830
cery	-9831
hous	-9832
ller	-9833
pass	-9834
roph	-9835
tesy	-9836
▁Ari	-9837
▁Eve	-9838
▁Mir	-9839
▁Tan	-9840
▁aqu	-9841
exist	-9842
oston	-9843
▁Asso	-9844
▁Back	-9845
▁Swed	-9846
▁diab	-9847
▁dies	-9848
▁hits	-9849
▁semi	-9850
gorith	-9851
hedral	-9852
▁Macao	-9853
▁Nepal	-9854
▁ceram	-9855
▁chick	-9856
▁fraud	-9857
▁parks	-9858
▁rural	-9859
▁tends	-9860
▁trail	-9861
▁union	-9862
ensions	-9863
regular	-9864
▁alphab	-9865
▁chores	-9866
▁cinema	-9867
▁cutlet	-9868
▁depict	-9869
▁firmly	-9870
▁prelim	-9871
▁reader	-9872
▁senses	-9873
▁splend	-9874
▁bubbles	-9875
▁existed	-9876
▁fabrics	-9877
▁grocery	-9878
▁keyword	-9879
▁monster	-9880
▁toothbr	-9881
▁trainer	-9882
▁Suddenly	-9883
▁athletic	-9884
▁attempts	-9885
▁covering	-9886
▁employed	-9887
▁oriental	-9888
▁regarded	-9889
▁decreases	-9890
▁estimates	-9891
▁finalized	-9892
▁mushrooms	-9893
▁qualities	-9894
▁complement	-9895
▁forgetting	-9896
▁influences	-9897
▁navigation	-9898
▁submitting	-9899
▁distributor	-9900
▁registering	-9901
▁restriction	-9902
▁unconscious	-9903
▁availability	-9904
▁confidential	-9905
▁collaboration	-9906
▁simultaneously	-9907
18	-9908
AM	-9909
hae	-9910
hak	-9911
▁7,	-9912
▁Gl	-9913
▁HQ	-9914
rary	-9915
zard	-9916
▁10-	-9917
▁700	-9918
▁EXO	-9919
▁Hen	-9920
▁Joo	-9921
▁USB	-9922
▁cub	-9923
chief	-9924
ghwam	-9925
inded	-9926
inger	-9927
kerel	-9928
lette	-9929
▁Fall	-9930
▁Lots	-9931
▁Nick	-9932
▁Pass	-9933
▁Snow	-9934
▁fart	-9935
▁proc	-9936
▁tofu	-9937
▁tomb	-9938
igible	-9939
▁Vitam	-9940
▁bangs	-9941
▁cater	-9942
▁combo	-9943
▁engra	-9944
▁giant	-9945
▁grape	-9946
▁mount	-9947
▁scarf	-9948
▁serum	-9949
▁trace	-9950
rencies	-9951
▁Corpor	-9952
▁Eiffel	-9953
▁Engine	-9954
▁Venice	-9955
▁banned	-9956
▁closes	-9957
▁mixing	-9958
▁ribbon	-9959
▁stamps	-9960
▁thirst	-9961
▁Complex	-9962
▁citizen	-9963
▁cleared	-9964
▁decline	-9965
▁earning	-9966
▁edition	-9967
▁flavors	-9968
▁gaining	-9969
▁harvest	-9970
▁infants	-9971
▁pulling	-9972
▁rooftop	-9973
▁wealthy	-9974
▁Airlines	-9975
▁Cambodia	-9976
▁Gyeongju	-9977
▁Studying	-9978
▁captured	-9979
▁contrary	-9980
▁departed	-9981
▁detected	-9982
▁inserted	-9983
▁meanings	-9984
▁memorial	-9985
▁presence	-9986
▁sequence	-9987
▁stereoty	-9988
▁stopping	-9989
▁unstable	-9990
▁Depending	-9991
▁appointed	-9992
▁permanent	-9993
▁permitted	-9994
▁qualified	-9995
▁timetable	-9996
▁generations	-9997
▁enthusiastic	-9998
▁documentation	-9999
▁professionals	-10000
DS	-10001
hel	-10002
nia	-10003
olt	-10004
▁IC	-10005
▁Ja	-10006
elve	-10007
size	-10008
urry	-10009
▁10,	-10010
▁Bup	-10011
▁MOQ	-10012
▁Tor	-10013
▁VAT	-10014
▁cyl	-10015
▁dia	-10016
▁hel	-10017
▁jum	-10018
▁nic	-10019
▁tox	-10020
ament	-10021
arrhe	-10022
chain	-10023
sided	-10024
▁Alex	-10025
▁Seok	-10026
▁Wang	-10027
▁auto	-10028
▁axis	-10029
▁tumb	-10030
astern	-10031
ifully	-10032
orders	-10033
porary	-10034
▁2015,	-10035
▁Below	-10036
▁Going	-10037
▁Naver	-10038
▁Trump	-10039
▁adhes	-10040
▁alloc	-10041
▁hates	-10042
▁safer	-10043
▁shade	-10044
▁sunny	-10045
▁surve	-10046
▁wider	-10047
▁Boston	-10048
▁Coffee	-10049
▁Hilton	-10050
▁Pohang	-10051
▁Public	-10052
▁Social	-10053
▁config	-10054
▁deputy	-10055
▁fright	-10056
▁intend	-10057
▁neatly	-10058
▁praise	-10059
▁shares	-10060
▁steril	-10061
▁stuffy	-10062
▁toothp	-10063
▁Luckily	-10064
▁Mexican	-10065
▁Working	-10066
▁categor	-10067
▁deliber	-10068
▁elected	-10069
▁insects	-10070
▁nowhere	-10071
▁outline	-10072
▁painter	-10073
▁pencils	-10074
▁refresh	-10075
fortunate	-10076
▁Customer	-10077
▁avoiding	-10078
▁blessing	-10079
▁drawings	-10080
▁manpower	-10081
▁obsessed	-10082
▁Americano	-10083
▁addiction	-10084
▁criticism	-10085
▁describes	-10086
▁miserable	-10087
▁motivated	-10088
▁textbooks	-10089
▁unlimited	-10090
▁diligently	-10091
▁estimation	-10092
▁complaining	-10093
▁flexibility	-10094
▁programming	-10095
▁requirement	-10096
▁unfortunate	-10097
▁appreciation	-10098
▁improvements	-10099
▁organizational	-10100
ja	-10101
jo	-10102
no	-10103
aze	-10104
hwa	-10105
jae	-10106
juk	-10107
ros	-10108
sed	-10109
ste	-10110
▁48	-10111
▁IR	-10112
▁Ol	-10113
▁ST	-10114
eled	-10115
eric	-10116
hale	-10117
irth	-10118
long	-10119
omin	-10120
sang	-10121
▁Bay	-10122
▁Cre	-10123
▁Doo	-10124
▁Fre	-10125
▁Hol	-10126
▁MOU	-10127
▁Sar	-10128
▁Ton	-10129
▁ted	-10130
▁tut	-10131
comed	-10132
grade	-10133
ierce	-10134
ingly	-10135
lands	-10136
▁Draw	-10137
▁Hans	-10138
▁Lisa	-10139
▁Mean	-10140
▁Phys	-10141
▁True	-10142
▁bold	-10143
▁dign	-10144
▁fate	-10145
▁myth	-10146
▁stro	-10147
eprint	-10148
rilled	-10149
▁Ocean	-10150
▁Order	-10151
▁Study	-10152
▁bland	-10153
▁burnt	-10154
▁etiqu	-10155
▁merit	-10156
▁miles	-10157
▁picky	-10158
▁sheep	-10159
▁spark	-10160
▁steam	-10161
▁thief	-10162
anguage	-10163
emption	-10164
uration	-10165
▁Econom	-10166
▁advent	-10167
▁blouse	-10168
▁brunch	-10169
▁comply	-10170
▁consol	-10171
▁cooler	-10172
▁merits	-10173
▁proved	-10174
▁ruined	-10175
▁spoken	-10176
▁waking	-10177
▁decides	-10178
▁formula	-10179
▁longest	-10180
▁mileage	-10181
▁oranges	-10182
▁passive	-10183
▁pumpkin	-10184
▁renewed	-10185
▁sibling	-10186
▁unhappy	-10187
▁vending	-10188
▁vessels	-10189
▁visitor	-10190
▁Dongdaem	-10191
▁Thinking	-10192
▁abundant	-10193
▁blankets	-10194
▁brighter	-10195
▁costumes	-10196
▁coverage	-10197
▁extraord	-10198
▁persuade	-10199
▁protagon	-10200
▁remained	-10201
▁workload	-10202
▁attitudes	-10203
▁blueprint	-10204
▁brilliant	-10205
▁concluded	-10206
▁crosswalk	-10207
▁housework	-10208
rastructure	-10209
▁Experience	-10210
▁chocolates	-10211
▁originated	-10212
▁perception	-10213
▁recruiting	-10214
▁sandwiches	-10215
▁weaknesses	-10216
▁beautifully	-10217
▁connections	-10218
▁cooperative	-10219
▁governments	-10220
▁intelligent	-10221
▁sensitivity	-10222
▁demonstration	-10223
6,	-10224
70	-10225
Ch	-10226
top	-10227
▁6-	-10228
▁Sn	-10229
amph	-10230
ands	-10231
card	-10232
deed	-10233
gain	-10234
iary	-10235
kind	-10236
life	-10237
▁Ban	-10238
▁Gil	-10239
▁Ive	-10240
▁Mor	-10241
▁URL	-10242
▁VIP	-10243
5,000	-10244
apsed	-10245
hesis	-10246
lings	-10247
▁Anim	-10248
▁Aven	-10249
▁Nike	-10250
▁Orig	-10251
▁Trad	-10252
▁bend	-10253
▁dirt	-10254
▁hood	-10255
▁mole	-10256
▁muff	-10257
▁navy	-10258
▁trem	-10259
icians	-10260
minded	-10261
▁Dubai	-10262
▁drain	-10263
▁ferry	-10264
▁frank	-10265
▁hopes	-10266
▁links	-10267
▁occas	-10268
▁pamph	-10269
▁scope	-10270
▁ships	-10271
▁slide	-10272
essions	-10273
ionship	-10274
ruption	-10275
▁Change	-10276
▁Except	-10277
▁Govern	-10278
▁Making	-10279
▁Select	-10280
▁awards	-10281
▁burned	-10282
▁darker	-10283
▁enable	-10284
▁greedy	-10285
▁insist	-10286
▁lively	-10287
▁locker	-10288
▁merely	-10289
▁refill	-10290
▁ripped	-10291
▁staffs	-10292
▁African	-10293
▁combine	-10294
▁console	-10295
▁devoted	-10296
▁disgust	-10297
▁donated	-10298
▁dresses	-10299
▁hygiene	-10300
▁involve	-10301
▁museums	-10302
▁spilled	-10303
▁sponsor	-10304
▁transit	-10305
▁backward	-10306
▁blocking	-10307
▁connects	-10308
▁crossing	-10309
▁develops	-10310
▁emphasis	-10311
▁executed	-10312
▁eyesight	-10313
▁floating	-10314
▁generate	-10315
▁hotelier	-10316
▁suggests	-10317
▁welcomed	-10318
▁Gwanghwam	-10319
▁creatures	-10320
▁diversity	-10321
▁incidents	-10322
▁sunscreen	-10323
▁Washington	-10324
▁currencies	-10325
▁structures	-10326
▁systematic	-10327
▁accompanied	-10328
▁circulation	-10329
▁continually	-10330
▁observatory	-10331
▁orientation	-10332
▁supplements	-10333
▁appointments	-10334
▁environments	-10335
▁Gyeongbokgung	-10336
EC	-10337
ON	-10338
li	-10339
gae	-10340
nex	-10341
omi	-10342
udi	-10343
▁Ko	-10344
▁Ta	-10345
ania	-10346
bles	-10347
lose	-10348
osun	-10349
ults	-10350
▁ASM	-10351
▁Alp	-10352
▁Ext	-10353
▁Gun	-10354
▁Ham	-10355
▁PDF	-10356
▁Ram	-10357
▁ram	-10358
seong	-10359
▁Gogh	-10360
▁Stay	-10361
▁bugs	-10362
▁folk	-10363
▁heal	-10364
▁junk	-10365
▁plus	-10366
▁sons	-10367
believ	-10368
weight	-10369
worker	-10370
▁Sadly	-10371
▁Table	-10372
▁Thats	-10373
▁clams	-10374
▁infin	-10375
▁masks	-10376
▁unple	-10377
workers	-10378
▁Nether	-10379
▁enjoys	-10380
▁grains	-10381
▁holder	-10382
▁margin	-10383
▁needle	-10384
▁radish	-10385
▁spices	-10386
▁timing	-10387
▁trendy	-10388
▁300,000	-10389
▁Kingdom	-10390
▁Parents	-10391
▁Vitamin	-10392
▁adapted	-10393
▁banking	-10394
▁bidding	-10395
▁declare	-10396
▁interfe	-10397
▁omitted	-10398
▁rolling	-10399
▁servant	-10400
▁tremend	-10401
▁venture	-10402
▁Building	-10403
▁Compared	-10404
▁Everland	-10405
▁Watching	-10406
▁abnormal	-10407
▁consecut	-10408
▁coughing	-10409
▁delivers	-10410
▁dumpling	-10411
▁eyebrows	-10412
▁finishes	-10413
▁infected	-10414
▁porridge	-10415
▁strictly	-10416
▁Generally	-10417
▁Southeast	-10418
▁canceling	-10419
▁directors	-10420
▁recipient	-10421
▁variables	-10422
▁executives	-10423
▁structural	-10424
▁contributed	-10425
▁handicapped	-10426
▁capabilities	-10427
▁strawberries	-10428
▁effectiveness	-10429
▁possibilities	-10430
buk	-10431
dry	-10432
gal	-10433
mit	-10434
osy	-10435
ras	-10436
uba	-10437
wha	-10438
▁FC	-10439
▁KT	-10440
▁cm	-10441
airy	-10442
eves	-10443
isle	-10444
lers	-10445
oret	-10446
ping	-10447
rael	-10448
rome	-10449
star	-10450
trip	-10451
▁196	-10452
▁ATM	-10453
▁Inv	-10454
▁Pan	-10455
▁Ric	-10456
▁Ten	-10457
▁Tim	-10458
▁Yep	-10459
▁bin	-10460
▁obe	-10461
ancou	-10462
cific	-10463
ecake	-10464
folio	-10465
orpor	-10466
owner	-10467
ratic	-10468
▁Camp	-10469
▁Head	-10470
▁aims	-10471
▁clay	-10472
▁cogn	-10473
▁palm	-10474
▁sout	-10475
▁synt	-10476
▁vice	-10477
forced	-10478
icking	-10479
ugging	-10480
▁Creat	-10481
▁lease	-10482
▁reads	-10483
▁repay	-10484
▁slice	-10485
▁swing	-10486
▁windy	-10487
▁Square	-10488
▁Vancou	-10489
▁affair	-10490
▁candle	-10491
▁chilly	-10492
▁dealer	-10493
▁freeze	-10494
▁french	-10495
▁intens	-10496
▁legend	-10497
▁softly	-10498
▁zipper	-10499
▁Bulgogi	-10500
▁Culture	-10501
▁Pacific	-10502
▁allergy	-10503
▁booklet	-10504
▁consume	-10505
▁earnest	-10506
▁exceeds	-10507
▁legally	-10508
▁obesity	-10509
▁persons	-10510
▁prosper	-10511
▁reduces	-10512
▁reissue	-10513
▁reverse	-10514
▁travels	-10515
ationally	-10516
▁Catholic	-10517
▁algorith	-10518
▁arrested	-10519
▁attorney	-10520
▁controls	-10521
▁courtesy	-10522
▁deducted	-10523
▁enclosed	-10524
▁forehead	-10525
▁indicate	-10526
▁involves	-10527
▁laughter	-10528
▁mackerel	-10529
▁minister	-10530
▁packaged	-10531
▁rational	-10532
▁reissued	-10533
▁sessions	-10534
▁ultimate	-10535
▁writings	-10536
▁Basically	-10537
▁Institute	-10538
▁Vancouver	-10539
▁fragrance	-10540
▁guideline	-10541
▁irritated	-10542
▁obviously	-10543
▁supplying	-10544
▁typically	-10545
▁vibration	-10546
▁Indonesian	-10547
▁absorption	-10548
▁continuing	-10549
▁insulation	-10550
▁occupation	-10551
▁scientists	-10552
▁incorrectly	-10553
▁observation	-10554
▁acknowledged	-10555
▁agricultural	-10556
▁constitution	-10557
▁contribution	-10558
▁experimental	-10559
▁measurements	-10560
▁negotiations	-10561
▁infrastructure	-10562
25	-10563
EN	-10564
OB	-10565
ui	-10566
200	-10567
tub	-10568
ucc	-10569
▁8,	-10570
▁AR	-10571
▁EU	-10572
▁VR	-10573
▁hi	-10574
bong	-10575
coal	-10576
etes	-10577
iser	-10578
utch	-10579
zech	-10580
▁800	-10581
▁Ahn	-10582
▁Cam	-10583
▁GMO	-10584
▁Gen	-10585
▁Hal	-10586
▁Jew	-10587
▁Maj	-10588
▁Mrs	-10589
▁Old	-10590
▁dot	-10591
abase	-10592
agger	-10593
erate	-10594
esame	-10595
estay	-10596
icons	-10597
ifier	-10598
ooled	-10599
orean	-10600
ppers	-10601
stall	-10602
▁Cind	-10603
▁Cost	-10604
▁Girl	-10605
▁Sher	-10606
▁Stat	-10607
▁cozy	-10608
▁lion	-10609
▁mesh	-10610
▁pant	-10611
▁solo	-10612
▁spic	-10613
▁vine	-10614
active	-10615
ighter	-10616
orship	-10617
▁Agree	-10618
▁Beaut	-10619
▁Champ	-10620
▁Count	-10621
▁Cross	-10622
▁Girls	-10623
▁Liber	-10624
▁Night	-10625
▁drone	-10626
▁inher	-10627
▁parad	-10628
▁resid	-10629
▁rocks	-10630
▁roots	-10631
▁shiny	-10632
▁tutor	-10633
▁40,000	-10634
▁Figure	-10635
▁Israel	-10636
▁Prince	-10637
▁Wonder	-10638
▁guides	-10639
▁hunger	-10640
▁intake	-10641
▁labels	-10642
▁liking	-10643
▁permit	-10644
▁polish	-10645
▁stance	-10646
▁thrown	-10647
▁treats	-10648
▁ventil	-10649
entially	-10650
lication	-10651
▁Correct	-10652
▁bargain	-10653
▁bowling	-10654
▁cabinet	-10655
▁desires	-10656
▁elephan	-10657
▁inappro	-10658
▁recipes	-10659
▁refunds	-10660
▁shelter	-10661
▁startup	-10662
▁sweater	-10663
▁Canadian	-10664
▁Gyeonggi	-10665
▁Products	-10666
▁antibiot	-10667
▁disorder	-10668
▁exported	-10669
▁faithful	-10670
▁farewell	-10671
▁hardware	-10672
▁nonsense	-10673
▁proceeds	-10674
▁rewarded	-10675
▁siblings	-10676
▁sickness	-10677
▁unreason	-10678
▁Happiness	-10679
▁addictive	-10680
▁butterfly	-10681
▁chemistry	-10682
▁exporting	-10683
▁investing	-10684
▁leftovers	-10685
▁marketers	-10686
▁pregnancy	-10687
▁responded	-10688
▁summarize	-10689
▁voluntary	-10690
▁capability	-10691
▁compulsory	-10692
▁consultant	-10693
▁contracted	-10694
▁controller	-10695
▁durability	-10696
▁promotions	-10697
▁unpleasant	-10698
▁withdrawal	-10699
▁achievements	-10700
▁semiconductor	-10701
▁qualifications	-10702
'?	-10703
IA	-10704
gas	-10705
gic	-10706
osc	-10707
pay	-10708
rem	-10709
▁DB	-10710
▁DC	-10711
:00.	-10712
burn	-10713
ione	-10714
nity	-10715
tage	-10716
▁Rub	-10717
▁Too	-10718
▁dup	-10719
acles	-10720
adong	-10721
bally	-10722
eries	-10723
hours	-10724
igned	-10725
izens	-10726
plate	-10727
▁Club	-10728
▁Fill	-10729
▁Requ	-10730
▁acne	-10731
▁anch	-10732
▁bund	-10733
▁deck	-10734
▁disk	-10735
▁frag	-10736
▁isol	-10737
▁lace	-10738
▁lent	-10739
▁masc	-10740
▁mock	-10741
ancing	-10742
lisher	-10743
▁Charl	-10744
▁Czech	-10745
▁Roman	-10746
▁bowls	-10747
▁cheek	-10748
▁cliff	-10749
▁conce	-10750
▁crush	-10751
▁erase	-10752
▁pouch	-10753
▁sends	-10754
▁snowy	-10755
onsider	-10756
▁Listen	-10757
▁Modern	-10758
▁Victor	-10759
▁americ	-10760
▁boxing	-10761
▁broker	-10762
▁contam	-10763
▁dragon	-10764
▁edited	-10765
▁expend	-10766
▁genres	-10767
▁hosted	-10768
▁hotter	-10769
▁immune	-10770
▁prayer	-10771
▁robots	-10772
▁scream	-10773
▁shaped	-10774
▁stones	-10775
▁tattoo	-10776
▁warmer	-10777
▁weaken	-10778
▁500,000	-10779
▁Getting	-10780
▁compact	-10781
▁comprom	-10782
▁confess	-10783
▁destiny	-10784
▁indoors	-10785
▁inflamm	-10786
▁sensors	-10787
▁tasting	-10788
▁Minister	-10789
▁cleanser	-10790
▁dissatis	-10791
▁horrible	-10792
▁invested	-10793
▁moderate	-10794
▁musician	-10795
▁activated	-10796
▁assembled	-10797
▁combining	-10798
▁dedicated	-10799
▁sentiment	-10800
▁Manchester	-10801
▁brightness	-10802
▁celebrated	-10803
▁cheesecake	-10804
▁downstairs	-10805
▁households	-10806
▁substitute	-10807
▁suspension	-10808
▁toothpaste	-10809
▁Association	-10810
▁fascinating	-10811
▁publication	-10812
▁sustainable	-10813
▁civilization	-10814
▁subscription	-10815
▁technological	-10816
In	-10817
OM	-10818
ht	-10819
oi	-10820
iac	-10821
oli	-10822
ota	-10823
ref	-10824
tar	-10825
zel	-10826
▁33	-10827
▁5%	-10828
▁6,	-10829
▁75	-10830
▁AC	-10831
▁PE	-10832
▁Ra	-10833
bell	-10834
bled	-10835
bone	-10836
igan	-10837
itty	-10838
mond	-10839
park	-10840
unge	-10841
▁Mot	-10842
▁asp	-10843
▁bou	-10844
▁jet	-10845
▁nin	-10846
▁tub	-10847
▁unp	-10848
enced	-10849
erals	-10850
lined	-10851
ockey	-10852
olved	-10853
ooked	-10854
shine	-10855
▁Cold	-10856
▁Lead	-10857
▁Live	-10858
▁bree	-10859
▁dism	-10860
▁dual	-10861
▁jazz	-10862
▁rays	-10863
▁reck	-10864
▁rust	-10865
▁stub	-10866
▁swap	-10867
▁swit	-10868
▁tear	-10869
arrhea	-10870
irable	-10871
▁2016,	-10872
▁Brown	-10873
▁Later	-10874
▁Micro	-10875
▁aisle	-10876
▁bears	-10877
▁breed	-10878
▁comic	-10879
▁didnt	-10880
▁domin	-10881
▁groom	-10882
▁infer	-10883
▁nerve	-10884
▁repro	-10885
▁steal	-10886
▁Golden	-10887
▁Invest	-10888
▁balcon	-10889
▁convin	-10890
▁doesnt	-10891
▁faults	-10892
▁garage	-10893
▁judged	-10894
▁preced	-10895
▁retain	-10896
▁routes	-10897
▁swatch	-10898
contract	-10899
▁Project	-10900
▁blowing	-10901
▁captain	-10902
▁cherish	-10903
▁density	-10904
▁engaged	-10905
▁excuses	-10906
▁leaking	-10907
▁phrases	-10908
▁removal	-10909
▁restart	-10910
▁watches	-10911
▁welding	-10912
▁Filipino	-10913
▁abstract	-10914
▁bullying	-10915
▁delicate	-10916
▁deserves	-10917
▁distract	-10918
▁eligible	-10919
▁hangover	-10920
▁magnific	-10921
▁merchand	-10922
▁offended	-10923
▁secretly	-10924
▁Saturdays	-10925
▁addresses	-10926
▁arranging	-10927
▁collapsed	-10928
▁etiquette	-10929
▁examining	-10930
▁fireworks	-10931
▁irregular	-10932
▁partially	-10933
▁snowboard	-10934
▁aggressive	-10935
▁engagement	-10936
▁Development	-10937
▁discussions	-10938
▁exclusively	-10939
▁preliminary	-10940
▁respectively	-10941
▁undergraduate	-10942
▁Administration	-10943
ea	-10944
rs	-10945
▁/	-10946
aly	-10947
iti	-10948
oda	-10949
ole	-10950
▁Hw	-10951
▁py	-10952
arsh	-10953
chae	-10954
mart	-10955
obic	-10956
ogue	-10957
onto	-10958
onym	-10959
▁Bab	-10960
▁Buy	-10961
▁PPT	-10962
▁Web	-10963
▁apt	-10964
▁fox	-10965
chest	-10966
erman	-10967
hyeon	-10968
inent	-10969
neung	-10970
rants	-10971
verty	-10972
▁Data	-10973
▁Dire	-10974
▁Emma	-10975
▁Fair	-10976
▁Kind	-10977
▁Seon	-10978
▁bent	-10979
▁dare	-10980
▁diox	-10981
▁pipe	-10982
▁refe	-10983
▁ruin	-10984
▁sche	-10985
worthy	-10986
▁Exact	-10987
▁Haven	-10988
▁clips	-10989
▁couch	-10990
▁inexp	-10991
▁owned	-10992
▁pound	-10993
▁scrat	-10994
▁silly	-10995
▁slope	-10996
▁squee	-10997
▁twent	-10998
atively	-10999
holders	-11000
ropical	-11001
▁Autumn	-11002
▁Empire	-11003
▁Indeed	-11004
▁Online	-11005
▁Photos	-11006
▁accent	-11007
▁carton	-11008
▁clause	-11009
▁discon	-11010
▁exting	-11011
▁loudly	-11012
▁majors	-11013
▁messed	-11014
▁pallet	-11015
▁pedest	-11016
▁sesame	-11017
ondition	-11018
▁Discuss	-11019
▁awarded	-11020
▁cousins	-11021
▁derived	-11022
▁dignity	-11023
▁farming	-11024
▁grounds	-11025
▁imports	-11026
▁matched	-11027
▁poverty	-11028
▁refrain	-11029
▁renewal	-11030
▁restore	-11031
▁retired	-11032
▁scanned	-11033
▁silence	-11034
▁specify	-11035
ilitation	-11036
▁Buddhist	-11037
▁Research	-11038
▁accuracy	-11039
▁bacteria	-11040
▁careless	-11041
▁concepts	-11042
▁concerts	-11043
▁diabetes	-11044
▁diarrhea	-11045
▁educated	-11046
▁failures	-11047
▁homestay	-11048
▁hundreds	-11049
▁operator	-11050
▁politely	-11051
▁reaching	-11052
▁scenario	-11053
▁unbeliev	-11054
▁demanding	-11055
▁desperate	-11056
▁engineers	-11057
▁hardships	-11058
▁informing	-11059
▁instantly	-11060
▁interfere	-11061
▁logistics	-11062
▁ownership	-11063
▁valuables	-11064
▁assembling	-11065
▁reconsider	-11066
▁screenshot	-11067
▁toothbrush	-11068
▁transition	-11069
▁ultimately	-11070
▁worthwhile	-11071
▁Gwanghwamun	-11072
▁demonstrate	-11073
▁integration	-11074
▁investments	-11075
▁protagonist	-11076
▁recruitment	-11077
▁extraordinary	-11078
▁multicultural	-11079
16	-11080
19	-11081
EA	-11082
OR	-11083
tr	-11084
yl	-11085
00.	-11086
awa	-11087
bie	-11088
ida	-11089
sun	-11090
tra	-11091
▁Gi	-11092
▁MS	-11093
▁QR	-11094
gent	-11095
loor	-11096
paid	-11097
rams	-11098
step	-11099
▁Gar	-11100
▁Lib	-11101
▁Log	-11102
▁Mel	-11103
▁OEM	-11104
▁Roy	-11105
▁Say	-11106
▁eel	-11107
▁pou	-11108
ammed	-11109
amous	-11110
anies	-11111
oodle	-11112
otted	-11113
secut	-11114
uster	-11115
wheat	-11116
▁Down	-11117
▁Lake	-11118
▁Step	-11119
▁Upon	-11120
▁Yoko	-11121
▁abol	-11122
▁adds	-11123
▁dong	-11124
▁fame	-11125
▁fles	-11126
▁pads	-11127
▁pier	-11128
▁pigs	-11129
▁rang	-11130
▁rect	-11131
▁shed	-11132
▁tens	-11133
▁vest	-11134
▁whit	-11135
issues	-11136
people	-11137
stream	-11138
▁Again	-11139
▁Borac	-11140
▁Break	-11141
▁Organ	-11142
▁Sleep	-11143
▁alert	-11144
▁chron	-11145
▁codes	-11146
▁dealt	-11147
▁depth	-11148
▁desks	-11149
▁fluid	-11150
▁guild	-11151
▁hypot	-11152
▁lunar	-11153
▁reimb	-11154
▁sorts	-11155
▁vague	-11156
▁yards	-11157
quently	-11158
raction	-11159
▁Around	-11160
▁Chosun	-11161
▁Purito	-11162
▁cables	-11163
▁carrot	-11164
▁glance	-11165
▁oppose	-11166
▁pillar	-11167
▁poorly	-11168
▁powers	-11169
▁shirts	-11170
▁spouse	-11171
▁upside	-11172
▁vulner	-11173
▁wished	-11174
ensional	-11175
kerchief	-11176
▁Prepare	-11177
▁Special	-11178
▁beating	-11179
▁figured	-11180
▁funding	-11181
▁infring	-11182
▁insight	-11183
▁jogging	-11184
▁pouring	-11185
▁recycle	-11186
▁sleeves	-11187
▁terrace	-11188
▁vanilla	-11189
▁Bupyeong	-11190
▁allowing	-11191
▁aquarium	-11192
▁bicycles	-11193
▁bulletin	-11194
▁charcoal	-11195
▁coloring	-11196
▁conclude	-11197
▁disposal	-11198
▁dropping	-11199
▁maximize	-11200
▁preserve	-11201
▁struggle	-11202
▁sunblock	-11203
▁Meanwhile	-11204
▁Traveling	-11205
▁cathedral	-11206
▁delighted	-11207
▁dependent	-11208
▁detective	-11209
▁disasters	-11210
▁graduates	-11211
▁portfolio	-11212
▁restraint	-11213
▁scratches	-11214
▁targeting	-11215
▁wandering	-11216
▁Technology	-11217
▁accumulate	-11218
▁criticized	-11219
▁horizontal	-11220
▁strengthen	-11221
▁acknowledge	-11222
▁businessman	-11223
▁consequences	-11224
▁entertaining	-11225
▁handkerchief	-11226
▁unreasonable	-11227
▁encouragement	-11228
▁inappropriate	-11229
▁communications	-11230
▁implementation	-11231
FL	-11232
OL	-11233
ST	-11234
hi	-11235
aus	-11236
ava	-11237
hyd	-11238
inc	-11239
nce	-11240
wol	-11241
yeo	-11242
▁Ev	-11243
▁IN	-11244
▁Lo	-11245
anas	-11246
stud	-11247
▁130	-11248
▁70%	-11249
▁Ret	-11250
▁Rev	-11251
▁Spr	-11252
▁Top	-11253
▁gal	-11254
▁lag	-11255
▁wip	-11256
emark	-11257
etang	-11258
omnia	-11259
riers	-11260
▁Hill	-11261
▁Imag	-11262
▁Iran	-11263
▁Jobs	-11264
▁Minh	-11265
▁Rece	-11266
▁Town	-11267
▁cuts	-11268
▁drag	-11269
▁emer	-11270
▁flut	-11271
▁forb	-11272
▁irre	-11273
▁rash	-11274
▁topp	-11275
▁vain	-11276
▁yach	-11277
ersion	-11278
months	-11279
ortion	-11280
ousine	-11281
sembly	-11282
▁Alice	-11283
▁Clean	-11284
▁Guess	-11285
▁alien	-11286
▁aroma	-11287
▁crash	-11288
▁fifty	-11289
▁hoped	-11290
▁imper	-11291
▁overc	-11292
▁simpl	-11293
▁theft	-11294
parents	-11295
ressing	-11296
uetooth	-11297
urities	-11298
warming	-11299
▁aiming	-11300
▁amazed	-11301
▁argued	-11302
▁cereal	-11303
▁elders	-11304
▁fierce	-11305
▁hanbok	-11306
▁joints	-11307
▁spoons	-11308
▁undert	-11309
iability	-11310
▁Boracay	-11311
▁Britain	-11312
▁Exactly	-11313
▁Frankly	-11314
▁Windows	-11315
▁avoided	-11316
▁balcony	-11317
▁bandage	-11318
▁bathtub	-11319
▁braised	-11320
▁candles	-11321
▁catches	-11322
▁circles	-11323
▁constip	-11324
▁exports	-11325
▁freezer	-11326
▁hottest	-11327
▁mailbox	-11328
▁modules	-11329
▁opposed	-11330
▁repairs	-11331
▁seeking	-11332
▁shrimps	-11333
▁staring	-11334
▁tissues	-11335
▁vinegar	-11336
▁voltage	-11337
▁whiskey	-11338
▁activate	-11339
▁bankrupt	-11340
▁networks	-11341
▁southern	-11342
▁splendid	-11343
▁stubborn	-11344
▁Companies	-11345
▁audiences	-11346
▁ballpoint	-11347
▁converted	-11348
▁formation	-11349
▁secondary	-11350
▁trademark	-11351
▁Disneyland	-11352
▁Government	-11353
▁Personally	-11354
▁attendants	-11355
▁authorized	-11356
▁dispatched	-11357
▁overcoming	-11358
▁reflecting	-11359
▁reflection	-11360
▁tremendous	-11361
▁volunteers	-11362
▁Corporation	-11363
▁malfunction	-11364
▁progressing	-11365
▁resignation	-11366
▁conditioning	-11367
▁conservative	-11368
▁considerable	-11369
▁similarities	-11370
▁manufacturers	-11371
▁authentication	-11372
bul	-11373
dog	-11374
eun	-11375
gun	-11376
ima	-11377
isp	-11378
run	-11379
urd	-11380
wed	-11381
▁2?	-11382
▁Ap	-11383
▁CN	-11384
▁PU	-11385
▁SS	-11386
▁Uk	-11387
alle	-11388
andy	-11389
arer	-11390
athy	-11391
fuci	-11392
gans	-11393
gger	-11394
iens	-11395
lord	-11396
loye	-11397
oked	-11398
oust	-11399
▁180	-11400
▁DVR	-11401
▁Hak	-11402
▁Loc	-11403
▁Mag	-11404
▁Ref	-11405
▁cav	-11406
▁cul	-11407
▁yar	-11408
ancer	-11409
chair	-11410
floor	-11411
nings	-11412
raine	-11413
unity	-11414
▁Dist	-11415
▁Mass	-11416
▁Mont	-11417
▁Mult	-11418
▁aged	-11419
▁amen	-11420
▁cord	-11421
▁derm	-11422
▁hass	-11423
▁laug	-11424
▁negl	-11425
▁slot	-11426
▁wool	-11427
echeon	-11428
erting	-11429
olitan	-11430
semble	-11431
uccino	-11432
▁Hence	-11433
▁Henry	-11434
▁Liter	-11435
▁Rober	-11436
▁Sever	-11437
▁beers	-11438
▁crown	-11439
▁dated	-11440
▁enlar	-11441
▁grasp	-11442
▁hyper	-11443
▁invis	-11444
▁logic	-11445
▁pains	-11446
▁purse	-11447
▁seeds	-11448
▁timid	-11449
▁vital	-11450
aterial	-11451
ivalent	-11452
ulatory	-11453
writing	-11454
▁crunch	-11455
▁genius	-11456
▁heated	-11457
▁humble	-11458
▁melody	-11459
▁proven	-11460
▁sleeve	-11461
▁sticks	-11462
▁strive	-11463
▁Challen	-11464
▁Confuci	-11465
▁Eastern	-11466
▁assumed	-11467
▁autonom	-11468
▁climbed	-11469
▁compass	-11470
▁congest	-11471
▁cracked	-11472
▁enforce	-11473
▁flowing	-11474
▁pancake	-11475
▁pricing	-11476
▁rainbow	-11477
▁secured	-11478
▁thirsty	-11479
▁weekday	-11480
lications	-11481
▁Language	-11482
▁alphabet	-11483
▁attacked	-11484
▁boundary	-11485
▁chickens	-11486
▁database	-11487
▁featured	-11488
▁heritage	-11489
▁incorpor	-11490
▁magnetic	-11491
▁pamphlet	-11492
▁promptly	-11493
▁reminded	-11494
▁sunshine	-11495
▁tutoring	-11496
▁cancelled	-11497
▁occasions	-11498
▁prettiest	-11499
▁resembles	-11500
▁Regardless	-11501
▁accountant	-11502
▁advertised	-11503
▁appliances	-11504
▁burdensome	-11505
▁obligation	-11506
▁relaxation	-11507
▁responding	-11508
▁separation	-11509
▁Accordingly	-11510
▁exhibitions	-11511
▁nationality	-11512
▁probability	-11513
▁conventional	-11514
▁grandparents	-11515
▁representing	-11516
▁acquaintances	-11517
▁compatibility	-11518
▁differentiated	-11519
Sm	-11520
jj	-11521
vi	-11522
xy	-11523
800	-11524
oly	-11525
rey	-11526
ris	-11527
▁9,	-11528
▁CR	-11529
▁ES	-11530
▁ET	-11531
▁Hu	-11532
▁PT	-11533
▁UI	-11534
amel	-11535
asia	-11536
atar	-11537
ilst	-11538
uter	-11539
▁000	-11540
▁Age	-11541
▁Boy	-11542
▁Cos	-11543
▁Est	-11544
▁GPS	-11545
▁Jak	-11546
▁Joe	-11547
▁Muk	-11548
▁Tri	-11549
▁agg	-11550
▁gam	-11551
▁lit	-11552
▁rew	-11553
eping	-11554
licop	-11555
onald	-11556
▁Save	-11557
▁Stew	-11558
▁Vien	-11559
▁Visa	-11560
▁cans	-11561
▁desp	-11562
▁dome	-11563
▁kios	-11564
▁Major	-11565
▁Myung	-11566
▁Spicy	-11567
▁alter	-11568
▁arise	-11569
▁ecosy	-11570
▁flesh	-11571
▁trunk	-11572
▁Daniel	-11573
▁Number	-11574
▁Portug	-11575
▁Sweden	-11576
▁Temple	-11577
▁boards	-11578
▁copied	-11579
▁ethics	-11580
▁fights	-11581
▁gladly	-11582
▁learns	-11583
▁multip	-11584
▁noises	-11585
▁prosec	-11586
▁rolled	-11587
▁shines	-11588
▁triple	-11589
▁turtle	-11590
▁twelve	-11591
▁uneasy	-11592
▁unpack	-11593
▁writes	-11594
▁Austria	-11595
▁barcode	-11596
▁dioxide	-11597
▁firstly	-11598
▁helicop	-11599
▁laughed	-11600
▁manages	-11601
▁merchan	-11602
▁minimal	-11603
▁oysters	-11604
▁replies	-11605
▁revenge	-11606
▁silicon	-11607
▁springs	-11608
▁synergy	-11609
▁tightly	-11610
condition	-11611
▁Assembly	-11612
▁Delivery	-11613
▁Insadong	-11614
▁adapting	-11615
▁brightly	-11616
▁collapse	-11617
▁infinite	-11618
▁instruct	-11619
▁rotation	-11620
▁sympathy	-11621
▁updating	-11622
▁Agreement	-11623
▁Bluetooth	-11624
▁Following	-11625
▁alcoholic	-11626
▁appearing	-11627
▁commuting	-11628
▁emphasize	-11629
▁exchanges	-11630
▁initially	-11631
▁limousine	-11632
▁mechanism	-11633
▁recession	-11634
▁whitening	-11635
▁Philippine	-11636
▁approached	-11637
▁intentions	-11638
▁limitation	-11639
▁negatively	-11640
▁profitable	-11641
▁psychology	-11642
▁references	-11643
▁struggling	-11644
▁compliments	-11645
▁controlling	-11646
▁cooperating	-11647
▁distinctive	-11648
▁financially	-11649
▁magnificent	-11650
▁troublesome	-11651
▁unification	-11652
▁transmission	-11653
▁professionally	-11654
▁hospitalization	-11655
67	-11656
ca	-11657
▁38	-11658
▁BM	-11659
▁DM	-11660
▁HD	-11661
▁Ki	-11662
conf	-11663
igae	-11664
ista	-11665
onde	-11666
otes	-11667
play	-11668
▁Env	-11669
▁Jam	-11670
▁Las	-11671
▁Mak	-11672
▁Sho	-11673
▁Toy	-11674
▁Ver	-11675
▁fog	-11676
▁unw	-11677
,000.	-11678
Smith	-11679
amina	-11680
cream	-11681
fting	-11682
party	-11683
pered	-11684
rylic	-11685
▁Card	-11686
▁Cast	-11687
▁Eric	-11688
▁Hana	-11689
▁Mine	-11690
▁Rain	-11691
▁Turk	-11692
▁chin	-11693
▁dull	-11694
▁evac	-11695
▁inju	-11696
aching	-11697
charge	-11698
ection	-11699
health	-11700
keeper	-11701
olving	-11702
ounder	-11703
pyeong	-11704
▁Click	-11705
▁aired	-11706
▁alike	-11707
▁bible	-11708
▁cured	-11709
▁fails	-11710
▁flaws	-11711
▁gloss	-11712
▁itchy	-11713
▁loses	-11714
▁noted	-11715
▁piled	-11716
▁vocal	-11717
inction	-11718
ustomed	-11719
▁80,000	-11720
▁Edward	-11721
▁Safety	-11722
▁breeze	-11723
▁correl	-11724
▁gaming	-11725
▁harbor	-11726
▁hassle	-11727
▁jumped	-11728
▁kicked	-11729
▁paints	-11730
▁refuge	-11731
▁slower	-11732
▁sophom	-11733
▁sponge	-11734
▁subord	-11735
▁typing	-11736
▁voices	-11737
▁warmth	-11738
esthetic	-11739
ffective	-11740
▁Article	-11741
▁History	-11742
▁Imagine	-11743
▁adolesc	-11744
▁assault	-11745
▁balloon	-11746
▁farmers	-11747
▁folding	-11748
▁gravity	-11749
▁hallway	-11750
▁hunting	-11751
▁overdue	-11752
▁pineapp	-11753
▁posters	-11754
▁precaut	-11755
▁stamina	-11756
▁storing	-11757
▁targets	-11758
▁texting	-11759
▁unavoid	-11760
▁utility	-11761
▁writers	-11762
istically	-11763
▁aptitude	-11764
▁backside	-11765
▁clicking	-11766
▁displays	-11767
▁dividing	-11768
▁humanity	-11769
▁ignoring	-11770
▁injuries	-11771
▁resulted	-11772
▁seasonal	-11773
▁sections	-11774
▁severely	-11775
▁speeding	-11776
▁starving	-11777
▁toppings	-11778
▁tropical	-11779
▁Marketing	-11780
▁inquiring	-11781
▁particles	-11782
▁pronounce	-11783
▁strangely	-11784
▁stressful	-11785
▁welcoming	-11786
▁Dongdaemun	-11787
▁Foundation	-11788
▁developers	-11789
▁equivalent	-11790
▁pretending	-11791
▁repetitive	-11792
▁tteokbokki	-11793
▁Engineering	-11794
▁Netherlands	-11795
▁controversy	-11796
▁inexpensive	-11797
▁negotiating	-11798
▁translators	-11799
▁configuration	-11800
▁modifications	-11801
▁presentations	-11802
).	-11803
15	-11804
▁,	-11805
dim	-11806
ees	-11807
igm	-11808
jam	-11809
osa	-11810
rum	-11811
tem	-11812
uki	-11813
uxe	-11814
▁$3	-11815
▁55	-11816
▁ED	-11817
▁RM	-11818
▁SD	-11819
Park	-11820
arts	-11821
exas	-11822
inch	-11823
opia	-11824
serv	-11825
▁Amy	-11826
▁Ang	-11827
▁Dra	-11828
▁Jis	-11829
▁SIM	-11830
▁bru	-11831
▁zom	-11832
ateur	-11833
eroom	-11834
lying	-11835
speed	-11836
uthan	-11837
utral	-11838
▁Belg	-11839
▁Conc	-11840
▁Gard	-11841
▁Hand	-11842
▁Kimb	-11843
▁Prom	-11844
▁Roll	-11845
▁Same	-11846
▁bake	-11847
▁dict	-11848
▁dots	-11849
▁elim	-11850
▁hors	-11851
▁lane	-11852
▁lawn	-11853
▁matt	-11854
▁puff	-11855
▁vast	-11856
▁4,000	-11857
▁Hanoi	-11858
▁Hwang	-11859
▁Leave	-11860
▁Texas	-11861
▁barbe	-11862
▁dairy	-11863
▁deter	-11864
▁forum	-11865
▁globe	-11866
▁grain	-11867
▁melts	-11868
▁mocha	-11869
▁penet	-11870
▁prime	-11871
▁roses	-11872
▁saves	-11873
▁spite	-11874
▁suite	-11875
▁twist	-11876
chestra	-11877
gyetang	-11878
iratory	-11879
itative	-11880
lasting	-11881
▁Advert	-11882
▁Almost	-11883
▁George	-11884
▁Prague	-11885
▁Remove	-11886
▁Vienna	-11887
▁assure	-11888
▁attain	-11889
▁casino	-11890
▁folded	-11891
▁fusion	-11892
▁harass	-11893
▁hockey	-11894
▁marvel	-11895
▁monkey	-11896
▁prints	-11897
▁reluct	-11898
▁robber	-11899
▁struck	-11900
distance	-11901
▁Islamic	-11902
▁Jackson	-11903
▁Meeting	-11904
▁ceramic	-11905
▁diagram	-11906
▁escaped	-11907
▁exagger	-11908
▁genetic	-11909
▁logging	-11910
▁peanuts	-11911
▁praying	-11912
▁pudding	-11913
▁reaches	-11914
▁stylish	-11915
▁Changwon	-11916
▁Mongolia	-11917
▁assorted	-11918
▁believes	-11919
▁compound	-11920
▁diameter	-11921
▁homeroom	-11922
▁importer	-11923
▁insomnia	-11924
▁interrup	-11925
▁landlord	-11926
▁licenses	-11927
▁outcomes	-11928
▁retrieve	-11929
▁subscrib	-11930
▁Chuncheon	-11931
▁amendment	-11932
▁amenities	-11933
▁automated	-11934
▁chemicals	-11935
▁eyelashes	-11936
▁invisible	-11937
▁marinated	-11938
▁promising	-11939
▁refreshed	-11940
▁transfers	-11941
▁waterfall	-11942
▁accustomed	-11943
▁apparently	-11944
▁disconnect	-11945
▁objectives	-11946
▁opposition	-11947
▁possession	-11948
▁questionna	-11949
▁researcher	-11950
▁Traditional	-11951
▁nutritional	-11952
▁contemporary	-11953
▁investigated	-11954
▁comprehensive	-11955
▁rehabilitation	-11956
"?	-11957
AV	-11958
PA	-11959
RP	-11960
oT	-11961
vy	-11962
”.	-11963
adm	-11964
imp	-11965
ols	-11966
osu	-11967
seo	-11968
sex	-11969
▁1/	-11970
▁PI	-11971
▁Sk	-11972
▁TA	-11973
▁km	-11974
asts	-11975
cium	-11976
deok	-11977
hard	-11978
iche	-11979
inse	-11980
odes	-11981
usal	-11982
yong	-11983
▁202	-11984
▁Bad	-11985
▁Def	-11986
▁Hyo	-11987
▁Imm	-11988
▁KTX	-11989
▁Ong	-11990
▁Pak	-11991
▁Rom	-11992
▁fib	-11993
▁rip	-11994
▁tum	-11995
chery	-11996
mails	-11997
scale	-11998
▁Bali	-11999
▁Hany	-12000
▁Lets	-12001
▁Mess	-12002
▁Mins	-12003
▁Ship	-12004
▁Skin	-12005
▁Soju	-12006
▁bark	-12007
▁bomb	-12008
▁bulb	-12009
▁cram	-12010
▁diff	-12011
▁glut	-12012
▁quar	-12013
▁stap	-12014
▁ties	-12015
acious	-12016
called	-12017
etchup	-12018
finite	-12019
luding	-12020
▁8,000	-12021
▁Broad	-12022
▁Dutch	-12023
▁Sarah	-12024
▁Stand	-12025
▁aches	-12026
▁aimed	-12027
▁billi	-12028
▁crops	-12029
▁draws	-12030
▁grave	-12031
▁mails	-12032
▁marsh	-12033
▁meter	-12034
▁notar	-12035
▁pitch	-12036
▁recre	-12037
▁scand	-12038
▁scuba	-12039
▁snake	-12040
▁sword	-12041
▁urine	-12042
▁witch	-12043
▁woods	-12044
ethoven	-12045
▁Berlin	-12046
▁Cheese	-12047
▁Mobile	-12048
▁Muslim	-12049
▁Spread	-12050
▁alumin	-12051
▁anonym	-12052
▁calmly	-12053
▁dermat	-12054
▁frames	-12055
▁grapes	-12056
▁hectic	-12057
▁insult	-12058
▁organs	-12059
▁racism	-12060
▁ration	-12061
▁rotten	-12062
▁solely	-12063
▁topped	-12064
▁wastes	-12065
▁Account	-12066
▁Medical	-12067
▁Mukbang	-12068
▁Toronto	-12069
▁accepts	-12070
▁auditor	-12071
▁bouquet	-12072
▁browser	-12073
▁candies	-12074
▁charity	-12075
▁decades	-12076
▁failing	-12077
▁females	-12078
▁forming	-12079
▁hosting	-12080
▁ketchup	-12081
▁listens	-12082
▁lowered	-12083
▁loyalty	-12084
▁mineral	-12085
▁miracle	-12086
▁mustard	-12087
▁pending	-12088
▁physics	-12089
▁praised	-12090
▁skilled	-12091
▁zombies	-12092
uthanasia	-12093
▁Avengers	-12094
▁Shipping	-12095
▁appropri	-12096
▁directed	-12097
▁enrolled	-12098
▁freshmen	-12099
▁modeling	-12100
▁overflow	-12101
▁quitting	-12102
▁recycled	-12103
▁substant	-12104
▁swelling	-12105
▁triangle	-12106
▁Gangneung	-12107
▁allergies	-12108
▁americano	-12109
▁apologies	-12110
▁buckwheat	-12111
▁coworkers	-12112
▁distorted	-12113
▁exemption	-12114
▁exercised	-12115
▁inspected	-12116
▁intermedi	-12117
▁parameter	-12118
▁publisher	-12119
▁specially	-12120
▁stretched	-12121
▁teammates	-12122
▁therapist	-12123
▁Originally	-12124
▁disappears	-12125
▁technician	-12126
▁Pyeongchang	-12127
▁commercials	-12128
▁subcontract	-12129
▁vaccination	-12130
▁corporations	-12131
▁strengthening	-12132
▁accomplishment	-12133
-3	-12134
14	-12135
fi	-12136
~2	-12137
def	-12138
del	-12139
dep	-12140
gil	-12141
iko	-12142
net	-12143
see	-12144
sty	-12145
▁II	-12146
ador	-12147
cost	-12148
ests	-12149
fire	-12150
mons	-12151
obia	-12152
pool	-12153
stan	-12154
sung	-12155
tuce	-12156
▁11.	-12157
▁15%	-12158
▁220	-12159
▁Eat	-12160
▁FOB	-12161
▁Lin	-12162
▁Nag	-12163
▁Opp	-12164
▁Rad	-12165
▁Sep	-12166
▁Van	-12167
▁nag	-12168
▁ric	-12169
▁sau	-12170
▁toe	-12171
chase	-12172
ggers	-12173
inery	-12174
quent	-12175
▁Arts	-12176
▁Chap	-12177
▁Eliz	-12178
▁Fact	-12179
▁Fire	-12180
▁Five	-12181
▁Road	-12182
▁Seop	-12183
▁Text	-12184
▁cope	-12185
▁glow	-12186
▁hats	-12187
▁keen	-12188
▁lact	-12189
▁loos	-12190
▁sate	-12191
▁wing	-12192
ashing	-12193
atical	-12194
▁2018.	-12195
▁Angel	-12196
▁Brian	-12197
▁Exerc	-12198
▁Pract	-12199
▁Ramen	-12200
▁Stone	-12201
▁Surpr	-12202
▁capsu	-12203
▁forty	-12204
▁idiot	-12205
▁lands	-12206
▁login	-12207
▁monop	-12208
▁olive	-12209
▁prost	-12210
▁setup	-12211
▁tempt	-12212
▁toxic	-12213
▁valve	-12214
▁veter	-12215
atching	-12216
imeters	-12217
isingly	-12218
isition	-12219
respons	-12220
▁Humans	-12221
▁Justin	-12222
▁Martin	-12223
▁Police	-12224
▁agents	-12225
▁astron	-12226
▁attent	-12227
▁ballet	-12228
▁denied	-12229
▁divers	-12230
▁driven	-12231
▁eldest	-12232
▁exempt	-12233
▁healed	-12234
▁kitten	-12235
▁outlet	-12236
▁racial	-12237
▁ruling	-12238
▁sewing	-12239
▁stains	-12240
▁uncond	-12241
▁wisely	-12242
commerce	-12243
ifferent	-12244
▁Element	-12245
▁Program	-12246
▁Running	-12247
▁Several	-12248
▁Smoking	-12249
▁Turkish	-12250
▁acceler	-12251
▁acrylic	-12252
▁bananas	-12253
▁fifteen	-12254
▁glitter	-12255
▁lifting	-12256
▁marking	-12257
▁overlap	-12258
▁oversle	-12259
▁spirits	-12260
▁tumbler	-12261
▁violate	-12262
ropolitan	-12263
▁Anything	-12264
▁Director	-12265
▁Physical	-12266
▁clinical	-12267
▁deterior	-12268
▁graphics	-12269
▁homeless	-12270
▁inferior	-12271
▁issuance	-12272
▁pancakes	-12273
▁spelling	-12274
▁stepping	-12275
▁Assistant	-12276
▁Beethoven	-12277
▁Challenge	-12278
▁arguments	-12279
▁competing	-12280
▁considers	-12281
▁criticize	-12282
▁ecosystem	-12283
▁extending	-12284
▁freshness	-12285
▁maternity	-12286
▁perceived	-12287
▁predicted	-12288
▁producers	-12289
▁regretted	-12290
▁repairing	-12291
▁replacing	-12292
▁Thankfully	-12293
▁affordable	-12294
▁autonomous	-12295
▁complained	-12296
▁deliveries	-12297
▁determines	-12298
▁emphasizes	-12299
▁networking	-12300
▁specialist	-12301
▁wheelchair	-12302
▁consecutive	-12303
▁encouraging	-12304
▁frustrating	-12305
▁inflammation	-12306
▁investigating	-12307
SA	-12308
▁%	-12309
AAD	-12310
abs	-12311
bar	-12312
bro	-12313
lly	-12314
pin	-12315
▁42	-12316
▁Ly	-12317
▁PS	-12318
▁SH	-12319
▁ga	-12320
ford	-12321
orak	-12322
owon	-12323
rawn	-12324
soft	-12325
▁110	-12326
▁119	-12327
▁BBQ	-12328
▁Cat	-12329
▁Dam	-12330
▁Ent	-12331
▁IoT	-12332
▁Sch	-12333
▁Way	-12334
▁bib	-12335
▁pap	-12336
▁pir	-12337
▁poo	-12338
▁unt	-12339
cover	-12340
derer	-12341
liers	-12342
nival	-12343
oline	-12344
ombie	-12345
onsei	-12346
peror	-12347
▁3000	-12348
▁Beat	-12349
▁Coca	-12350
▁Gong	-12351
▁Jean	-12352
▁Wish	-12353
▁bump	-12354
▁dock	-12355
▁dump	-12356
▁gamb	-12357
▁gang	-12358
▁knit	-12359
▁narr	-12360
▁rack	-12361
▁sail	-12362
▁sixt	-12363
▁spam	-12364
▁tidy	-12365
ainted	-12366
enders	-12367
ilater	-12368
ndrome	-12369
ometer	-12370
utical	-12371
▁Avoid	-12372
▁Cream	-12373
▁Ident	-12374
▁Model	-12375
▁Okina	-12376
▁Susan	-12377
▁THAAD	-12378
▁Vegas	-12379
▁arbit	-12380
▁bands	-12381
▁cared	-12382
▁loyal	-12383
▁patri	-12384
▁rearr	-12385
▁ultra	-12386
▁yacht	-12387
ovation	-12388
▁Academ	-12389
▁Chocol	-12390
▁Create	-12391
▁Doctor	-12392
▁Elizab	-12393
▁Flight	-12394
▁Living	-12395
▁Secret	-12396
▁analog	-12397
▁backup	-12398
▁coding	-12399
▁dances	-12400
▁digits	-12401
▁fasten	-12402
▁fishes	-12403
▁infant	-12404
▁latter	-12405
▁magnet	-12406
▁modest	-12407
▁nerves	-12408
▁planes	-12409
▁portra	-12410
▁reveal	-12411
▁seated	-12412
▁sorted	-12413
▁turkey	-12414
▁whilst	-12415
▁worthy	-12416
breaking	-12417
ironment	-12418
ppuccino	-12419
▁150,000	-12420
▁Overall	-12421
▁Someday	-12422
▁amended	-12423
▁attacks	-12424
▁auction	-12425
▁crystal	-12426
▁departs	-12427
▁durable	-12428
▁filters	-12429
▁lettuce	-12430
▁logical	-12431
▁natives	-12432
▁peaches	-12433
▁remodel	-12434
▁reorder	-12435
▁subways	-12436
▁winners	-12437
criptions	-12438
▁Cultural	-12439
▁betrayed	-12440
▁declined	-12441
▁demanded	-12442
▁equation	-12443
▁incoming	-12444
▁lowering	-12445
▁minerals	-12446
▁outdoors	-12447
▁recharge	-12448
▁twenties	-12449
▁warehous	-12450
▁algorithm	-12451
▁associate	-12452
▁followers	-12453
▁overslept	-12454
▁policeman	-12455
▁preserved	-12456
▁restocked	-12457
▁sophomore	-12458
▁Myeongdong	-12459
▁approaches	-12460
▁bothersome	-12461
▁correcting	-12462
▁disgusting	-12463
▁evaluating	-12464
▁inevitably	-12465
▁signatures	-12466
▁suggesting	-12467
▁undergoing	-12468
▁categorized	-12469
▁inventories	-12470
▁merchandise	-12471
▁reliability	-12472
▁volunteered	-12473
▁alternatives	-12474
▁temperatures	-12475
▁determination	-12476
▁globalization	-12477
.2	-12478
Se	-12479
Min	-12480
ggy	-12481
isl	-12482
lay	-12483
loc	-12484
pei	-12485
uma	-12486
▁99	-12487
▁CF	-12488
▁DD	-12489
▁DI	-12490
▁DJ	-12491
▁Du	-12492
▁MD	-12493
▁Wr	-12494
▁wi	-12495
agen	-12496
cend	-12497
cred	-12498
eved	-12499
hama	-12500
lant	-12501
onia	-12502
oral	-12503
qual	-12504
rang	-12505
urbs	-12506
vere	-12507
▁195	-12508
▁Bon	-12509
▁DVD	-12510
▁Eth	-12511
▁Joh	-12512
▁Kar	-12513
▁Lad	-12514
▁McD	-12515
▁Mem	-12516
▁NAS	-12517
▁Pet	-12518
▁Pil	-12519
▁Tak	-12520
▁mug	-12521
▁que	-12522
▁rug	-12523
▁sla	-12524
▁vit	-12525
▁zip	-12526
activ	-12527
break	-12528
kespe	-12529
loyed	-12530
paper	-12531
times	-12532
ushes	-12533
weeks	-12534
▁$100	-12535
▁ASMR	-12536
▁Bell	-12537
▁Dogs	-12538
▁Fail	-12539
▁Prem	-12540
▁Prot	-12541
▁Tech	-12542
▁Thom	-12543
▁Tong	-12544
▁Uber	-12545
▁beam	-12546
▁blew	-12547
▁bust	-12548
▁buzz	-12549
▁feas	-12550
▁fert	-12551
▁gown	-12552
▁obey	-12553
▁oral	-12554
▁pale	-12555
▁stem	-12556
erella	-12557
illers	-12558
oodles	-12559
season	-12560
▁1,500	-12561
▁Chris	-12562
▁Cloud	-12563
▁Share	-12564
▁Trust	-12565
▁Youth	-12566
▁advis	-12567
▁beige	-12568
▁bonds	-12569
▁chase	-12570
▁chore	-12571
▁cocon	-12572
▁doors	-12573
▁fatal	-12574
▁kiosk	-12575
▁polar	-12576
▁punct	-12577
▁risky	-12578
▁steep	-12579
▁wages	-12580
▁walks	-12581
healthy	-12582
▁Consum	-12583
▁Exchan	-12584
▁Search	-12585
▁absurd	-12586
▁buckle	-12587
▁ethnic	-12588
▁hazard	-12589
▁ladder	-12590
▁medals	-12591
▁poured	-12592
▁raises	-12593
▁rushed	-12594
▁satell	-12595
▁slices	-12596
▁traine	-12597
▁tunnel	-12598
▁vacant	-12599
▁Customs	-12600
▁Ganghwa	-12601
▁Library	-12602
▁Perform	-12603
▁Reading	-12604
▁Tonight	-12605
▁Tourism	-12606
▁abandon	-12607
▁beliefs	-12608
▁bracket	-12609
▁calcium	-12610
▁cheered	-12611
▁coexist	-12612
▁convert	-12613
▁dynasty	-12614
▁fiction	-12615
▁fragile	-12616
▁heroine	-12617
▁honesty	-12618
▁kingdom	-12619
▁martial	-12620
▁neutral	-12621
▁preview	-12622
▁railway	-12623
▁segment	-12624
▁styling	-12625
▁unclear	-12626
▁whipped	-12627
▁wounded	-12628
▁Independ	-12629
▁Material	-12630
▁Pakistan	-12631
▁Shakespe	-12632
▁commerce	-12633
▁cucumber	-12634
▁cylinder	-12635
▁defeated	-12636
▁earphone	-12637
▁gestures	-12638
▁historic	-12639
▁muscular	-12640
▁occupied	-12641
▁overcame	-12642
▁photosho	-12643
▁polluted	-12644
▁prosecut	-12645
▁theaters	-12646
▁Elizabeth	-12647
▁convinced	-12648
▁detection	-12649
▁digestive	-12650
▁donations	-12651
▁explosion	-12652
▁intervals	-12653
▁provision	-12654
▁religions	-12655
▁rewarding	-12656
▁sculpture	-12657
▁tiredness	-12658
dimensional	-12659
▁biological	-12660
▁corruption	-12661
▁exhausting	-12662
▁immigrants	-12663
▁missionary	-12664
▁optimistic	-12665
▁symbolizes	-12666
▁sympathize	-12667
▁traditions	-12668
▁correlation	-12669
▁deliciously	-12670
▁masterpiece	-12671
▁operational	-12672
▁trustworthy	-12673
▁Surprisingly	-12674
▁dramatically	-12675
▁establishing	-12676
▁passionately	-12677
▁administrator	-12678
▁concentrating	-12679
▁internationally	-12680
,'	-12681
34	-12682
la	-12683
POP	-12684
dol	-12685
duk	-12686
▁Er	-12687
▁Ku	-12688
▁NV	-12689
▁ud	-12690
ESCO	-12691
acco	-12692
hors	-12693
ille	-12694
okka	-12695
real	-12696
tech	-12697
week	-12698
yard	-12699
zhou	-12700
▁$10	-12701
▁20.	-12702
▁30.	-12703
▁AAA	-12704
▁DNA	-12705
▁Dig	-12706
▁Gym	-12707
▁Low	-12708
▁Mod	-12709
▁Nat	-12710
▁Tar	-12711
▁gig	-12712
▁owe	-12713
▁sul	-12714
▁wax	-12715
ching	-12716
ppong	-12717
sales	-12718
watch	-12719
▁2010	-12720
▁Ball	-12721
▁Chem	-12722
▁Chin	-12723
▁Coke	-12724
▁Duty	-12725
▁Fast	-12726
▁Iron	-12727
▁Note	-12728
▁Sand	-12729
▁arro	-12730
▁gast	-12731
▁guns	-12732
▁inac	-12733
▁maps	-12734
▁mint	-12735
▁perp	-12736
▁rehe	-12737
▁tact	-12738
▁vibe	-12739
Korean	-12740
iously	-12741
▁2017,	-12742
▁Cheol	-12743
▁Doing	-12744
▁Gimpo	-12745
▁Price	-12746
▁Small	-12747
▁Trade	-12748
▁artif	-12749
▁bacon	-12750
▁cooks	-12751
▁crabs	-12752
▁curse	-12753
▁embro	-12754
▁initi	-12755
▁inval	-12756
▁maker	-12757
▁penal	-12758
▁pengu	-12759
▁pleas	-12760
▁prank	-12761
▁pursu	-12762
▁query	-12763
▁races	-12764
▁sixth	-12765
▁sting	-12766
through	-12767
▁12,000	-12768
▁60,000	-12769
▁UNESCO	-12770
▁Yonsei	-12771
▁albums	-12772
▁bestse	-12773
▁boiler	-12774
▁breach	-12775
▁bumped	-12776
▁bumper	-12777
▁danced	-12778
▁delays	-12779
▁enters	-12780
▁entity	-12781
▁farmer	-12782
▁ghosts	-12783
▁hacked	-12784
▁hurric	-12785
▁legisl	-12786
▁proves	-12787
▁skinny	-12788
▁smoked	-12789
▁straps	-12790
▁tablet	-12791
▁voting	-12792
flavored	-12793
jections	-12794
ountered	-12795
▁200,000	-12796
▁Belgium	-12797
▁Between	-12798
▁Hanyang	-12799
▁Okinawa	-12800
▁Similar	-12801
▁amateur	-12802
▁amongst	-12803
▁broaden	-12804
▁burgers	-12805
▁carries	-12806
▁clarify	-12807
▁dismiss	-12808
▁distant	-12809
▁electro	-12810
▁handles	-12811
▁jackets	-12812
▁pottery	-12813
▁privile	-12814
▁quicker	-12815
▁removes	-12816
▁twisted	-12817
aceutical	-12818
▁Attached	-12819
▁Learning	-12820
▁Yokohama	-12821
▁aluminum	-12822
▁barbeque	-12823
▁blooming	-12824
▁cheating	-12825
▁circular	-12826
▁consumed	-12827
▁finalize	-12828
▁millions	-12829
▁socially	-12830
▁sweating	-12831
▁switched	-12832
▁teenager	-12833
▁utilized	-12834
▁breakdown	-12835
▁childcare	-12836
▁cognitive	-12837
▁elsewhere	-12838
▁gentleman	-12839
▁headaches	-12840
▁marvelous	-12841
▁presenter	-12842
▁primarily	-12843
▁regulated	-12844
▁spiritual	-12845
▁tolerance	-12846
▁Cinderella	-12847
▁Industrial	-12848
▁Literature	-12849
▁apartments	-12850
▁auditorium	-12851
▁irritation	-12852
▁noticeable	-12853
▁vulnerable	-12854
▁Environment	-12855
▁Shakespeare	-12856
▁destruction	-12857
▁encountered	-12858
▁interpreted	-12859
▁preferences	-12860
▁ventilation	-12861
communication	-12862
▁destinations	-12863
▁implementing	-12864
▁translations	-12865
▁architectural	-12866
17	-12867
22	-12868
ET	-12869
TC	-12870
ba	-12871
dd	-12872
~3	-12873
600	-12874
ann	-12875
apy	-12876
jac	-12877
oom	-12878
▁65	-12879
▁IM	-12880
▁TT	-12881
▁ye	-12882
apes	-12883
hwan	-12884
icks	-12885
inks	-12886
juku	-12887
rich	-12888
ruit	-12889
turn	-12890
▁2.5	-12891
▁80%	-12892
▁Box	-12893
▁Cir	-12894
▁Inn	-12895
▁Jay	-12896
▁Leg	-12897
▁MCS	-12898
▁Ora	-12899
▁Pic	-12900
▁Pop	-12901
▁hal	-12902
▁lav	-12903
▁pix	-12904
▁vom	-12905
allel	-12906
being	-12907
birth	-12908
chron	-12909
dated	-12910
icked	-12911
▁9:30	-12912
▁Andy	-12913
▁Bean	-12914
▁Best	-12915
▁Cafe	-12916
▁Carl	-12917
▁Copy	-12918
▁Form	-12919
▁Jess	-12920
▁dolp	-12921
▁drip	-12922
▁horm	-12923
▁hose	-12924
▁inch	-12925
▁knot	-12926
▁laid	-12927
▁scat	-12928
▁suck	-12929
▁waff	-12930
▁wolf	-12931
acular	-12932
affold	-12933
alysis	-12934
attles	-12935
celona	-12936
elling	-12937
ifting	-12938
insula	-12939
intage	-12940
mented	-12941
presso	-12942
▁2014,	-12943
▁Guard	-12944
▁Heung	-12945
▁Jones	-12946
▁Liver	-12947
▁Royal	-12948
▁Wolmi	-12949
▁ambig	-12950
▁burns	-12951
▁choir	-12952
▁depri	-12953
▁dryer	-12954
▁entit	-12955
▁fills	-12956
▁genes	-12957
▁herbs	-12958
▁kilog	-12959
▁liver	-12960
▁nause	-12961
▁shark	-12962
▁spice	-12963
▁squat	-12964
▁surge	-12965
▁wakes	-12966
itarian	-12967
ividual	-12968
product	-12969
▁Buddha	-12970
▁Garden	-12971
▁Seorak	-12972
▁System	-12973
▁aliens	-12974
▁corrid	-12975
▁dumped	-12976
▁eleven	-12977
▁guards	-12978
▁landed	-12979
▁mentor	-12980
▁newest	-12981
▁poetry	-12982
▁resist	-12983
▁revers	-12984
▁sacred	-12985
▁skirts	-12986
▁traged	-12987
▁treadm	-12988
▁upward	-12989
▁viewed	-12990
▁Connect	-12991
▁Denmark	-12992
▁Employe	-12993
▁Univers	-12994
▁Yongsan	-12995
▁adapter	-12996
▁blessed	-12997
▁cashier	-12998
▁casting	-12999
▁dishwas	-13000
▁educate	-13001
▁enlight	-13002
▁execute	-13003
▁feeding	-13004
▁judging	-13005
▁liquids	-13006
▁planets	-13007
▁signals	-13008
▁smelled	-13009
▁snowman	-13010
▁stepped	-13011
▁vacancy	-13012
developed	-13013
▁Interest	-13014
▁Security	-13015
▁artifact	-13016
▁beginner	-13017
▁cartoons	-13018
▁catering	-13019
▁deceived	-13020
▁devotion	-13021
▁geograph	-13022
▁globally	-13023
▁infringe	-13024
▁instinct	-13025
▁mattress	-13026
▁monitors	-13027
▁scaffold	-13028
▁sociable	-13029
▁troubled	-13030
▁workbook	-13031
girlfriend	-13032
▁1,000,000	-13033
▁ancestral	-13034
▁classmate	-13035
▁cucumbers	-13036
▁deviation	-13037
▁enteritis	-13038
▁forbidden	-13039
▁forwarded	-13040
▁fulfilled	-13041
▁incentive	-13042
▁inserting	-13043
▁mortality	-13044
▁optimized	-13045
▁stainless	-13046
▁suppliers	-13047
▁suspected	-13048
▁vacations	-13049
▁cellphones	-13050
▁competence	-13051
▁compromise	-13052
▁delightful	-13053
▁guarantees	-13054
▁healthcare	-13055
▁helicopter	-13056
▁stimulates	-13057
introduction	-13058
▁highlighted	-13059
▁precautions	-13060
▁respiratory	-13061
▁specializes	-13062
▁constipation	-13063
▁economically	-13064
▁increasingly	-13065
▁preparations	-13066
▁presidential	-13067
▁unbelievable	-13068
▁independently	-13069
▁questionnaire	-13070
),	-13071
LL	-13072
dam	-13073
gho	-13074
hun	-13075
ias	-13076
umi	-13077
yan	-13078
yen	-13079
▁1?	-13080
▁Ba	-13081
▁IV	-13082
▁PL	-13083
aire	-13084
coat	-13085
five	-13086
inyl	-13087
ogen	-13088
only	-13089
open	-13090
ront	-13091
tang	-13092
umps	-13093
▁190	-13094
▁Aud	-13095
▁Gra	-13096
▁Ira	-13097
▁Max	-13098
▁NVR	-13099
▁Rap	-13100
▁Ren	-13101
▁Rio	-13102
▁Tot	-13103
▁bee	-13104
▁ego	-13105
▁gay	-13106
▁jog	-13107
▁sam	-13108
after	-13109
amboo	-13110
gener	-13111
isers	-13112
isive	-13113
plete	-13114
ranet	-13115
rator	-13116
storm	-13117
ville	-13118
▁ASAP	-13119
▁Cher	-13120
▁Drop	-13121
▁Kate	-13122
▁Mald	-13123
▁Mars	-13124
▁Mini	-13125
▁Scot	-13126
▁Stir	-13127
▁Terr	-13128
▁Wave	-13129
▁bolt	-13130
▁boun	-13131
▁foss	-13132
▁grid	-13133
▁jail	-13134
▁kaka	-13135
▁meds	-13136
▁rhin	-13137
▁wors	-13138
▁yarn	-13139
ancies	-13140
inates	-13141
tering	-13142
uality	-13143
▁Apart	-13144
▁Fried	-13145
▁Hokka	-13146
▁Incre	-13147
▁Jason	-13148
▁Johns	-13149
▁Minho	-13150
▁Minji	-13151
▁Saudi	-13152
▁Short	-13153
▁Times	-13154
▁Tteok	-13155
▁Visit	-13156
▁Whose	-13157
▁batch	-13158
▁belts	-13159
▁comed	-13160
▁crypt	-13161
▁fence	-13162
▁malls	-13163
▁poems	-13164
▁punch	-13165
▁scrap	-13166
▁stove	-13167
▁tense	-13168
▁thigh	-13169
▁whale	-13170
markets	-13171
ometers	-13172
osition	-13173
▁Beauty	-13174
▁Castle	-13175
▁Contin	-13176
▁Kindly	-13177
▁Marvel	-13178
▁Scient	-13179
▁Transl	-13180
▁carpet	-13181
▁diagon	-13182
▁equity	-13183
▁horses	-13184
▁hostel	-13185
▁parade	-13186
▁priced	-13187
▁suited	-13188
▁tester	-13189
▁tragic	-13190
▁warmly	-13191
▁Install	-13192
▁Knowing	-13193
▁Mondays	-13194
▁William	-13195
▁aerobic	-13196
▁beaches	-13197
▁bearing	-13198
▁caramel	-13199
▁caution	-13200
▁chopped	-13201
▁chronic	-13202
▁counted	-13203
▁craving	-13204
▁dispose	-13205
▁imitate	-13206
▁imposed	-13207
▁listing	-13208
▁mascara	-13209
▁optimal	-13210
▁prolong	-13211
▁seating	-13212
▁skipped	-13213
▁undergo	-13214
boyfriend	-13215
▁Hokkaido	-13216
▁Southern	-13217
▁cellular	-13218
▁colleges	-13219
▁episodes	-13220
▁performs	-13221
▁pointing	-13222
▁skipping	-13223
▁spacious	-13224
▁sticking	-13225
▁violated	-13226
▁vitality	-13227
▁Barcelona	-13228
▁Chocolate	-13229
▁Taiwanese	-13230
▁bathrooms	-13231
▁collision	-13232
▁consisted	-13233
▁diligence	-13234
▁discarded	-13235
▁endurance	-13236
▁exhibited	-13237
▁geography	-13238
▁irrespons	-13239
▁reporters	-13240
▁retailers	-13241
▁terrorism	-13242
▁Christians	-13243
▁Elementary	-13244
▁Revolution	-13245
▁accessible	-13246
▁boundaries	-13247
▁contractor	-13248
▁decorating	-13249
▁disability	-13250
▁economical	-13251
▁fascinated	-13252
▁introduces	-13253
▁microphone	-13254
▁overlapped	-13255
▁parameters	-13256
▁subjective	-13257
▁antibiotics	-13258
▁corrections	-13259
▁decorations	-13260
▁expenditure	-13261
▁fortunately	-13262
▁necessities	-13263
▁painkillers	-13264
▁progressive	-13265
▁prosecution	-13266
▁transformed	-13267
▁unavoidable	-13268
▁voluntarily	-13269
▁arrangements	-13270
▁championship	-13271
▁competitions	-13272
▁overwhelming	-13273
▁entrepreneurs	-13274
99	-13275
??	-13276
Do	-13277
GB	-13278
▁?	-13279
900	-13280
bus	-13281
chu	-13282
gos	-13283
nas	-13284
non	-13285
ono	-13286
▁$4	-13287
▁39	-13288
▁72	-13289
▁AW	-13290
▁CG	-13291
▁CV	-13292
▁Cy	-13293
▁FW	-13294
▁HS	-13295
▁LE	-13296
▁Ni	-13297
▁QM	-13298
▁fu	-13299
arel	-13300
ashi	-13301
bour	-13302
comp	-13303
foot	-13304
helf	-13305
hers	-13306
hill	-13307
ldom	-13308
mare	-13309
pret	-13310
quer	-13311
quin	-13312
quis	-13313
toon	-13314
vard	-13315
west	-13316
▁194	-13317
▁40%	-13318
▁Fro	-13319
▁Map	-13320
▁Mok	-13321
▁Nut	-13322
▁Tea	-13323
▁Yun	-13324
▁iOS	-13325
▁slo	-13326
▁vel	-13327
▁wal	-13328
ensus	-13329
etary	-13330
imbab	-13331
ondae	-13332
oning	-13333
orous	-13334
uated	-13335
▁Care	-13336
▁Coun	-13337
▁Fish	-13338
▁Flor	-13339
▁Guys	-13340
▁Mand	-13341
▁Shop	-13342
▁Tony	-13343
▁agon	-13344
▁clam	-13345
▁clim	-13346
▁cong	-13347
▁deny	-13348
▁fuss	-13349
▁gour	-13350
▁hint	-13351
▁hunt	-13352
▁kidn	-13353
▁lump	-13354
▁plag	-13355
▁pole	-13356
▁samp	-13357
▁spat	-13358
▁tort	-13359
▁udon	-13360
▁Cheer	-13361
▁Coast	-13362
▁Early	-13363
▁Point	-13364
▁Treat	-13365
▁Weren	-13366
▁lined	-13367
▁physi	-13368
▁sized	-13369
▁stair	-13370
▁viral	-13371
angered	-13372
comings	-13373
dominal	-13374
ighters	-13375
istical	-13376
patient	-13377
ritious	-13378
▁25,000	-13379
▁backed	-13380
▁bundle	-13381
▁buried	-13382
▁detour	-13383
▁engage	-13384
▁exotic	-13385
▁geomet	-13386
▁gimbap	-13387
▁guided	-13388
▁lasted	-13389
▁locate	-13390
▁portal	-13391
▁provin	-13392
▁puzzle	-13393
▁sauces	-13394
▁scheme	-13395
▁seldom	-13396
▁shaved	-13397
▁shorts	-13398
▁spider	-13399
▁stitch	-13400
▁sweets	-13401
▁themes	-13402
▁virtue	-13403
▁worlds	-13404
▁wounds	-13405
▁zombie	-13406
building	-13407
▁Request	-13408
▁Richard	-13409
▁bedding	-13410
▁billing	-13411
▁carrots	-13412
▁coconut	-13413
▁dealers	-13414
▁fullest	-13415
▁inaccur	-13416
▁magical	-13417
▁outsour	-13418
▁priorit	-13419
▁ratings	-13420
▁shorten	-13421
▁shouted	-13422
▁shutter	-13423
▁stained	-13424
▁strings	-13425
▁sweeter	-13426
▁thinner	-13427
▁vintage	-13428
▁wasting	-13429
▁Infinite	-13430
▁McDonald	-13431
▁Northern	-13432
▁Somebody	-13433
▁adhesive	-13434
▁adoption	-13435
▁annually	-13436
▁bankbook	-13437
▁cardigan	-13438
▁childish	-13439
▁dramatic	-13440
▁elephant	-13441
▁emerging	-13442
▁enhances	-13443
▁findings	-13444
▁flavored	-13445
▁gambling	-13446
▁intimate	-13447
▁learners	-13448
▁lecturer	-13449
▁netizens	-13450
▁nutrient	-13451
▁postcard	-13452
▁provider	-13453
▁recruits	-13454
▁relieves	-13455
▁remotely	-13456
▁restored	-13457
▁revising	-13458
▁shortcut	-13459
▁sprinkle	-13460
▁theories	-13461
▁trillion	-13462
▁unlikely	-13463
▁Operation	-13464
▁appealing	-13465
▁bookshelf	-13466
▁countless	-13467
▁dimension	-13468
▁framework	-13469
▁imagining	-13470
▁musicians	-13471
▁purchaser	-13472
▁satellite	-13473
▁scattered	-13474
▁scratched	-13475
▁sentenced	-13476
▁spotlight	-13477
▁strongest	-13478
▁thrilling	-13479
▁withdrawn	-13480
▁Restaurant	-13481
▁blockchain	-13482
▁enthusiasm	-13483
▁freelancer	-13484
▁indication	-13485
▁mistakenly	-13486
▁remarkable	-13487
▁straighten	-13488
▁structured	-13489
▁terminated	-13490
▁appearances	-13491
▁authorities	-13492
▁backgrounds	-13493
▁broadcasted	-13494
▁calculating	-13495
▁centimeters	-13496
▁downloading	-13497
▁influential	-13498
▁shortcomings	-13499
▁intentionally	-13500
▁notifications	-13501
▁disappointment	-13502
28	-13503
NE	-13504
fo	-13505
hu	-13506
mL	-13507
bay	-13508
lls	-13509
occ	-13510
rug	-13511
▁BC	-13512
▁BI	-13513
▁KC	-13514
▁Yi	-13515
affe	-13516
beth	-13517
cano	-13518
dium	-13519
irit	-13520
keys	-13521
liam	-13522
nori	-13523
olli	-13524
osan	-13525
pock	-13526
rage	-13527
rons	-13528
rose	-13529
seok	-13530
wife	-13531
yers	-13532
▁Bat	-13533
▁CMS	-13534
▁Civ	-13535
▁Els	-13536
▁Few	-13537
▁Ire	-13538
▁Jer	-13539
▁Jon	-13540
▁Mix	-13541
▁Nar	-13542
▁UCC	-13543
▁Vin	-13544
▁bun	-13545
▁gut	-13546
▁jur	-13547
▁ket	-13548
▁nan	-13549
▁saf	-13550
archy	-13551
canic	-13552
cling	-13553
dryer	-13554
fying	-13555
iolet	-13556
olmes	-13557
price	-13558
study	-13559
unken	-13560
▁5000	-13561
▁Band	-13562
▁Coco	-13563
▁Half	-13564
▁Mach	-13565
▁Math	-13566
▁Myan	-13567
▁Pick	-13568
▁Rose	-13569
▁Self	-13570
▁Tanz	-13571
▁appe	-13572
▁ende	-13573
▁flip	-13574
▁fres	-13575
▁funn	-13576
▁gene	-13577
▁intr	-13578
▁puzz	-13579
▁shat	-13580
▁span	-13581
▁trap	-13582
change	-13583
dollar	-13584
holder	-13585
ptions	-13586
quency	-13587
redict	-13588
resent	-13589
▁2013.	-13590
▁6,000	-13591
▁Impro	-13592
▁Jinju	-13593
▁Joong	-13594
▁Latin	-13595
▁Maria	-13596
▁Marie	-13597
▁Saint	-13598
▁Swiss	-13599
▁Users	-13600
▁blade	-13601
▁blows	-13602
▁cheat	-13603
▁creep	-13604
▁cries	-13605
▁disas	-13606
▁downs	-13607
▁fares	-13608
▁flame	-13609
▁glory	-13610
▁loans	-13611
▁manne	-13612
▁pyram	-13613
▁rescu	-13614
▁rites	-13615
▁rugby	-13616
▁runny	-13617
▁tales	-13618
▁teddy	-13619
▁vinyl	-13620
▁wires	-13621
illance	-13622
written	-13623
▁Church	-13624
▁Marine	-13625
▁Robert	-13626
▁bitten	-13627
▁charms	-13628
▁cheeks	-13629
▁coated	-13630
▁devast	-13631
▁extrem	-13632
▁incomp	-13633
▁jammed	-13634
▁joking	-13635
▁leaked	-13636
▁lifted	-13637
▁overhe	-13638
▁pricey	-13639
▁priest	-13640
▁regain	-13641
▁rested	-13642
▁selfie	-13643
▁sights	-13644
▁softer	-13645
▁spends	-13646
▁static	-13647
▁subtle	-13648
▁surviv	-13649
▁viewer	-13650
▁weaker	-13651
centered	-13652
▁Florida	-13653
▁Ireland	-13654
▁Supreme	-13655
▁Welfare	-13656
▁archery	-13657
▁authors	-13658
▁battles	-13659
▁careers	-13660
▁chamber	-13661
▁cheaply	-13662
▁cheated	-13663
▁crashed	-13664
▁eastern	-13665
▁envious	-13666
▁farther	-13667
▁planted	-13668
▁reunion	-13669
▁secrets	-13670
▁spoiled	-13671
▁sprouts	-13672
▁steward	-13673
▁theatre	-13674
▁touring	-13675
▁unsatis	-13676
▁vendors	-13677
▁wishing	-13678
▁Identify	-13679
▁Likewise	-13680
▁Wherever	-13681
▁aviation	-13682
▁champion	-13683
▁comeback	-13684
▁confront	-13685
▁curtains	-13686
▁drawback	-13687
▁emailing	-13688
▁magician	-13689
▁manually	-13690
▁marketer	-13691
▁monsters	-13692
▁parallel	-13693
▁remitted	-13694
▁respects	-13695
▁scanning	-13696
▁sprained	-13697
▁stealing	-13698
▁targeted	-13699
▁Liverpool	-13700
▁blackhead	-13701
▁deduction	-13702
▁extracted	-13703
▁impatient	-13704
▁innocence	-13705
▁integrity	-13706
▁machinery	-13707
▁modifying	-13708
▁objection	-13709
▁pineapple	-13710
▁placement	-13711
▁preschool	-13712
▁pretended	-13713
▁reluctant	-13714
▁repairman	-13715
▁repeating	-13716
▁signboard	-13717
▁subscribe	-13718
▁ticketing	-13719
▁violating	-13720
▁witnessed	-13721
▁Additional	-13722
▁Individual	-13723
▁Scientists	-13724
▁challenged	-13725
▁commitment	-13726
▁democratic	-13727
▁endangered	-13728
▁greenhouse	-13729
▁incomplete	-13730
▁memorizing	-13731
▁negotiated	-13732
▁nutritious	-13733
▁painkiller	-13734
▁recommends	-13735
▁regretting	-13736
▁acquisition	-13737
▁backpacking	-13738
▁collaborate	-13739
▁earthquakes	-13740
▁exceptional	-13741
▁hospitality	-13742
▁instructors	-13743
▁interviewed	-13744
▁marketplace	-13745
▁advantageous	-13746
▁interactions	-13747
▁snowboarding	-13748
▁supermarkets	-13749
▁unexpectedly	-13750
▁irresponsible	-13751
FC	-13752
▁<	-13753
bur	-13754
but	-13755
cus	-13756
ika	-13757
isd	-13758
lon	-13759
sea	-13760
vas	-13761
vet	-13762
you	-13763
▁AB	-13764
▁EC	-13765
▁SC	-13766
3001	-13767
amba	-13768
belt	-13769
berg	-13770
neum	-13771
stop	-13772
unic	-13773
vice	-13774
▁010	-13775
▁101	-13776
▁12,	-13777
▁15-	-13778
▁15.	-13779
▁20-	-13780
▁Ant	-13781
▁Buk	-13782
▁Egg	-13783
▁Lar	-13784
▁Mur	-13785
▁Nak	-13786
▁Naz	-13787
▁OSD	-13788
▁Sem	-13789
▁Sen	-13790
▁Ted	-13791
▁Win	-13792
▁hem	-13793
▁lap	-13794
▁lin	-13795
▁vow	-13796
aning	-13797
atown	-13798
dings	-13799
ersed	-13800
onomy	-13801
ordan	-13802
rophy	-13803
third	-13804
▁Cert	-13805
▁Cola	-13806
▁Exit	-13807
▁Fine	-13808
▁Fred	-13809
▁Geum	-13810
▁Hank	-13811
▁Mill	-13812
▁None	-13813
▁Pack	-13814
▁Pain	-13815
▁Patt	-13816
▁Prin	-13817
▁Rich	-13818
▁Sign	-13819
▁Wood	-13820
▁acup	-13821
▁alle	-13822
▁caps	-13823
▁chur	-13824
▁curl	-13825
▁herb	-13826
▁mere	-13827
▁owns	-13828
▁pend	-13829
▁stun	-13830
▁taek	-13831
▁toll	-13832
▁wars	-13833
▁worm	-13834
ansori	-13835
estion	-13836
formed	-13837
rehend	-13838
▁Anton	-13839
▁Award	-13840
▁Democ	-13841
▁Offic	-13842
▁Refer	-13843
▁Story	-13844
▁Touch	-13845
▁Yeosu	-13846
▁abbre	-13847
▁annex	-13848
▁coffe	-13849
▁deleg	-13850
▁disgu	-13851
▁drill	-13852
▁gotta	-13853
▁gover	-13854
▁noble	-13855
▁perse	-13856
▁plent	-13857
▁prest	-13858
▁ranks	-13859
▁relay	-13860
▁risen	-13861
▁scall	-13862
▁shook	-13863
▁squad	-13864
▁tapes	-13865
▁tribe	-13866
▁winds	-13867
amppong	-13868
keeping	-13869
leading	-13870
liament	-13871
million	-13872
vestock	-13873
▁70,000	-13874
▁Asians	-13875
▁Forget	-13876
▁Holmes	-13877
▁Inside	-13878
▁Jordan	-13879
▁Juliet	-13880
▁Koreas	-13881
▁Reserv	-13882
▁Review	-13883
▁Taipei	-13884
▁Valley	-13885
▁almond	-13886
▁attire	-13887
▁bamboo	-13888
▁circus	-13889
▁profic	-13890
▁salted	-13891
▁sender	-13892
▁shifts	-13893
▁slides	-13894
▁soaked	-13895
▁sprink	-13896
▁staple	-13897
▁stroke	-13898
▁unpaid	-13899
itations	-13900
▁Academy	-13901
▁Airline	-13902
▁Charlie	-13903
▁Natural	-13904
▁Noodles	-13905
▁Seopori	-13906
▁Ukraine	-13907
▁arguing	-13908
▁bending	-13909
▁binding	-13910
▁corners	-13911
▁crunchy	-13912
▁despair	-13913
▁founder	-13914
▁hugging	-13915
▁lasting	-13916
▁optical	-13917
▁plagiar	-13918
▁prepaid	-13919
▁referee	-13920
▁reorgan	-13921
▁rewrite	-13922
▁substit	-13923
▁theoret	-13924
▁thunder	-13925
▁villain	-13926
▁volcano	-13927
▁weights	-13928
▁Buddhism	-13929
▁Services	-13930
▁Transfer	-13931
▁Victoria	-13932
▁airports	-13933
▁employer	-13934
▁espresso	-13935
▁formally	-13936
▁homemade	-13937
▁hydrogen	-13938
▁immunity	-13939
▁murderer	-13940
▁northern	-13941
▁pursuing	-13942
▁refugees	-13943
▁releases	-13944
▁salaries	-13945
▁sanitary	-13946
▁silently	-13947
▁survived	-13948
▁synchron	-13949
▁timeline	-13950
▁trending	-13951
▁Breakfast	-13952
▁Confucian	-13953
▁abdominal	-13954
▁academies	-13955
▁ambiguous	-13956
▁emoticons	-13957
▁extinguis	-13958
▁hairdryer	-13959
▁hurricane	-13960
▁inflation	-13961
▁interlock	-13962
▁intestine	-13963
▁livestock	-13964
▁maintains	-13965
▁nightmare	-13966
▁plentiful	-13967
▁prescribe	-13968
▁prominent	-13969
▁realizing	-13970
▁renewable	-13971
▁resulting	-13972
▁scientist	-13973
▁sensation	-13974
▁severance	-13975
▁spiciness	-13976
▁struggled	-13977
▁taekwondo	-13978
▁treadmill	-13979
▁unhealthy	-13980
▁universal	-13981
▁Apparently	-13982
▁collective	-13983
▁complexity	-13984
▁enrollment	-13985
▁euthanasia	-13986
▁kilometers	-13987
▁pleasantly	-13988
▁prediction	-13989
▁programmer	-13990
▁protective	-13991
▁separating	-13992
▁coincidence	-13993
▁comparative	-13994
▁confidently	-13995
▁handwriting	-13996
▁hardworking	-13997
▁neighboring	-13998
▁remembering	-13999
▁residential	-14000
▁salesperson	-14001
▁threatening	-14002
▁Registration	-14003
▁dissatisfied	-14004
▁recommending	-14005
▁surprisingly	-14006
▁illustrations	-14007
▁supplementary	-14008
▁inconveniences	-14009
-4	-14010
13	-14011
75	-14012
GO	-14013
US	-14014
eb	-14015
ko	-14016
wi	-14017
ERS	-14018
Hye	-14019
agu	-14020
aik	-14021
ban	-14022
deg	-14023
hoe	-14024
rix	-14025
upt	-14026
wra	-14027
▁5?	-14028
▁NC	-14029
▁Py	-14030
asan	-14031
bike	-14032
date	-14033
fare	-14034
iden	-14035
nuts	-14036
olve	-14037
omer	-14038
plug	-14039
rine	-14040
shot	-14041
show	-14042
uman	-14043
ummy	-14044
viet	-14045
▁0.5	-14046
▁160	-14047
▁24-	-14048
▁900	-14049
▁CAD	-14050
▁Dom	-14051
▁ETA	-14052
▁Exp	-14053
▁Fuk	-14054
▁GOC	-14055
▁Got	-14056
▁Lab	-14057
▁OTA	-14058
▁PCN	-14059
▁bob	-14060
▁dub	-14061
▁fet	-14062
▁ker	-14063
▁mas	-14064
▁tan	-14065
▁vig	-14066
amped	-14067
anted	-14068
atsby	-14069
bacco	-14070
bling	-14071
cards	-14072
hable	-14073
idges	-14074
igate	-14075
inous	-14076
katsu	-14077
rison	-14078
▁2013	-14079
▁Bong	-14080
▁Dark	-14081
▁Film	-14082
▁Iraq	-14083
▁Kwon	-14084
▁Milk	-14085
▁Moro	-14086
▁Pers	-14087
▁USIM	-14088
▁abal	-14089
▁ants	-14090
▁bunk	-14091
▁burg	-14092
▁cens	-14093
▁clue	-14094
▁cust	-14095
▁fist	-14096
▁glac	-14097
▁glam	-14098
▁hier	-14099
▁hike	-14100
▁plum	-14101
▁tide	-14102
▁verb	-14103
aneous	-14104
broken	-14105
encing	-14106
iander	-14107
iating	-14108
ieties	-14109
ilians	-14110
izzard	-14111
orious	-14112
refund	-14113
ulsion	-14114
ziness	-14115
▁2012.	-14116
▁7,000	-14117
▁Billy	-14118
▁Block	-14119
▁Dance	-14120
▁Jerry	-14121
▁Jimin	-14122
▁Plaza	-14123
▁Prime	-14124
▁Romeo	-14125
▁align	-14126
▁bikes	-14127
▁cents	-14128
▁coats	-14129
▁cubic	-14130
▁delic	-14131
▁devil	-14132
▁exfol	-14133
▁facil	-14134
▁fract	-14135
▁holog	-14136
▁indig	-14137
▁legit	-14138
▁lotus	-14139
▁mercy	-14140
▁naked	-14141
▁pearl	-14142
▁scars	-14143
▁sebum	-14144
▁sixty	-14145
▁spine	-14146
▁stake	-14147
▁sweep	-14148
▁token	-14149
▁typed	-14150
▁uncon	-14151
achable	-14152
agnetic	-14153
faction	-14154
▁Argent	-14155
▁Asiana	-14156
▁Awards	-14157
▁Gatsby	-14158
▁Junior	-14159
▁Milano	-14160
▁Norway	-14161
▁Oracle	-14162
▁Subway	-14163
▁Yellow	-14164
▁cheers	-14165
▁contra	-14166
▁disput	-14167
▁fisher	-14168
▁judges	-14169
▁motive	-14170
▁oyster	-14171
▁postal	-14172
▁purity	-14173
▁racket	-14174
▁slaves	-14175
▁societ	-14176
▁strain	-14177
▁traces	-14178
▁traits	-14179
arantine	-14180
specific	-14181
▁Antonio	-14182
▁Captain	-14183
▁Macbeth	-14184
▁Picture	-14185
▁Somehow	-14186
▁Strateg	-14187
▁Walking	-14188
▁Wolmido	-14189
▁airmail	-14190
▁apparel	-14191
▁betting	-14192
▁chasing	-14193
▁couldnt	-14194
▁drunken	-14195
▁eagerly	-14196
▁emailed	-14197
▁invalid	-14198
▁lobster	-14199
▁melting	-14200
▁outlook	-14201
▁pockets	-14202
▁prototy	-14203
▁ringing	-14204
▁scandal	-14205
▁servers	-14206
▁spreads	-14207
▁takeout	-14208
▁thicker	-14209
▁tragedy	-14210
▁trapped	-14211
▁wrinkle	-14212
▁Creative	-14213
▁Electric	-14214
▁Exchange	-14215
▁Movement	-14216
▁Planning	-14217
▁Princess	-14218
▁Sherlock	-14219
▁Tanzania	-14220
▁attracts	-14221
▁bedrooms	-14222
▁burdened	-14223
▁corridor	-14224
▁creature	-14225
▁deposits	-14226
▁entitled	-14227
▁exporter	-14228
▁goodness	-14229
▁humorous	-14230
▁illusion	-14231
▁immature	-14232
▁isolated	-14233
▁polished	-14234
▁portrait	-14235
▁postings	-14236
▁powdered	-14237
▁seawater	-14238
▁striking	-14239
▁syndrome	-14240
▁underway	-14241
▁Chinatown	-14242
▁Listening	-14243
▁Malaysian	-14244
▁Microsoft	-14245
▁Photoshop	-14246
▁Thursdays	-14247
▁addressed	-14248
▁birthdays	-14249
▁dinosaurs	-14250
▁directory	-14251
▁distances	-14252
▁endlessly	-14253
▁indicator	-14254
▁influenza	-14255
▁intensive	-14256
▁memorized	-14257
▁migration	-14258
▁obtaining	-14259
▁prevented	-14260
▁publicity	-14261
▁reimburse	-14262
▁reinforce	-14263
▁relieving	-14264
▁shellfish	-14265
▁stimulate	-14266
▁viewpoint	-14267
▁capitalism	-14268
▁casualties	-14269
▁comforting	-14270
▁displaying	-14271
▁indicators	-14272
▁indirectly	-14273
▁landscapes	-14274
▁mosquitoes	-14275
▁negligence	-14276
▁prosperity	-14277
▁reinforced	-14278
▁remodeling	-14279
▁summarized	-14280
▁supporters	-14281
▁threatened	-14282
▁agriculture	-14283
▁impressions	-14284
▁politicians	-14285
▁spectacular	-14286
▁Independence	-14287
▁installments	-14288
▁complimentary	-14289
▁classification	-14290
▁transformation	-14291
31	-14292
FP	-14293
PC	-14294
▁+	-14295
:50	-14296
Lee	-14297
abi	-14298
add	-14299
don	-14300
mun	-14301
sho	-14302
str	-14303
yuk	-14304
▁52	-14305
▁7-	-14306
▁FA	-14307
▁Fu	-14308
▁Ru	-14309
abol	-14310
apor	-14311
arta	-14312
aton	-14313
cake	-14314
chem	-14315
dess	-14316
ears	-14317
ethe	-14318
gets	-14319
ifer	-14320
imal	-14321
orke	-14322
shin	-14323
tone	-14324
▁140	-14325
▁25%	-14326
▁2~3	-14327
▁90%	-14328
▁CIF	-14329
▁Dol	-14330
▁ETD	-14331
▁Emb	-14332
▁Foc	-14333
▁Gap	-14334
▁Jok	-14335
▁Mis	-14336
▁Rod	-14337
▁Sok	-14338
▁Tap	-14339
▁Vir	-14340
▁jaw	-14341
▁pel	-14342
▁sue	-14343
▁unl	-14344
▁vic	-14345
achel	-14346
cking	-14347
depth	-14348
front	-14349
guard	-14350
guksu	-14351
ilant	-14352
licit	-14353
maker	-14354
oming	-14355
ouder	-14356
ritis	-14357
state	-14358
story	-14359
toons	-14360
uming	-14361
utors	-14362
zzare	-14363
▁7:30	-14364
▁Base	-14365
▁Holy	-14366
▁Juan	-14367
▁Pour	-14368
▁Soft	-14369
▁Tang	-14370
▁Wars	-14371
▁Wash	-14372
▁Wear	-14373
▁Yeou	-14374
▁ache	-14375
▁bees	-14376
▁bias	-14377
▁clog	-14378
▁coal	-14379
▁deer	-14380
▁demo	-14381
▁dumb	-14382
▁fade	-14383
▁germ	-14384
▁hips	-14385
▁holy	-14386
▁kilo	-14387
▁nurt	-14388
▁oils	-14389
▁pist	-14390
▁rebu	-14391
▁tart	-14392
▁tray	-14393
▁urge	-14394
▁wont	-14395
accept	-14396
antern	-14397
arling	-14398
aseong	-14399
geolli	-14400
gments	-14401
igious	-14402
isters	-14403
nowned	-14404
ources	-14405
retion	-14406
ulnori	-14407
vessel	-14408
▁Allow	-14409
▁Fresh	-14410
▁Looks	-14411
▁Obama	-14412
▁Prote	-14413
▁aston	-14414
▁cyber	-14415
▁delin	-14416
▁dense	-14417
▁grind	-14418
▁gross	-14419
▁livel	-14420
▁march	-14421
▁pipes	-14422
▁resin	-14423
▁shaft	-14424
▁shred	-14425
▁slave	-14426
▁snail	-14427
▁timer	-14428
▁tombs	-14429
achelor	-14430
achment	-14431
changed	-14432
measure	-14433
solving	-14434
▁Agency	-14435
▁Burger	-14436
▁Course	-14437
▁Deputy	-14438
▁Gimbap	-14439
▁Madrid	-14440
▁Morocc	-14441
▁Philip	-14442
▁Thomas	-14443
▁ambass	-14444
▁analyt	-14445
▁assass	-14446
▁banner	-14447
▁comics	-14448
▁copper	-14449
▁curved	-14450
▁drones	-14451
▁elabor	-14452
▁expose	-14453
▁grocer	-14454
▁helmet	-14455
▁humili	-14456
▁jurisd	-14457
▁kidney	-14458
▁lacked	-14459
▁lastly	-14460
▁locals	-14461
▁notion	-14462
▁overly	-14463
▁pizzas	-14464
▁scents	-14465
▁screws	-14466
▁shrink	-14467
▁termin	-14468
▁tracks	-14469
▁trials	-14470
▁tricks	-14471
▁verbal	-14472
▁warned	-14473
ologists	-14474
zzarella	-14475
▁Animals	-14476
▁Bucheon	-14477
▁Cheonan	-14478
▁Confirm	-14479
▁Digital	-14480
▁Failure	-14481
▁Holiday	-14482
▁Leaders	-14483
▁Myanmar	-14484
▁Payment	-14485
▁Success	-14486
▁barista	-14487
▁biology	-14488
▁cartons	-14489
▁ceremon	-14490
▁confuse	-14491
▁constit	-14492
▁contrad	-14493
▁copying	-14494
▁daycare	-14495
▁federal	-14496
▁freshly	-14497
▁garment	-14498
▁halfway	-14499
▁kicking	-14500
▁kidding	-14501
▁macaron	-14502
▁needles	-14503
▁notices	-14504
▁peoples	-14505
▁portray	-14506
▁sirloin	-14507
▁suffers	-14508
▁tallest	-14509
▁Centella	-14510
▁Maldives	-14511
▁Marriage	-14512
▁Particip	-14513
▁Shinjuku	-14514
▁advances	-14515
▁comforts	-14516
▁deceased	-14517
▁dialogue	-14518
▁emoticon	-14519
▁marrying	-14520
▁obstacle	-14521
▁opposing	-14522
▁perfumes	-14523
▁periodic	-14524
▁pickpock	-14525
▁railroad	-14526
▁trusting	-14527
▁validity	-14528
▁volcanic	-14529
▁Employees	-14530
▁assurance	-14531
▁brochures	-14532
▁conductor	-14533
▁consuming	-14534
▁coriander	-14535
▁desirable	-14536
▁enlighten	-14537
▁introvert	-14538
▁kilograms	-14539
▁obstacles	-14540
▁passports	-14541
▁platforms	-14542
▁retention	-14543
▁surcharge	-14544
▁terminate	-14545
▁wallpaper	-14546
▁workforce	-14547
development	-14548
▁Production	-14549
▁apologized	-14550
▁automation	-14551
▁carelessly	-14552
▁committing	-14553
▁conscience	-14554
▁diplomatic	-14555
▁disturbing	-14556
▁eliminated	-14557
▁headphones	-14558
▁humanities	-14559
▁persistent	-14560
▁productive	-14561
▁reasonably	-14562
▁stewardess	-14563
▁subsidiary	-14564
▁triangular	-14565
▁underwater	-14566
▁advertisers	-14567
▁butterflies	-14568
▁communities	-14569
▁compression	-14570
▁contributes	-14571
▁functioning	-14572
▁girlfriends	-14573
▁introverted	-14574
▁obligations	-14575
▁recognizing	-14576
▁sentimental	-14577
▁stereotypes	-14578
▁subscribers	-14579
▁disconnected	-14580
▁fermentation	-14581
▁horizontally	-14582
▁refrigerated	-14583
▁strengthened	-14584
▁sufficiently	-14585
▁surveillance	-14586
▁pharmaceutical	-14587
▁systematically	-14588
▁unconditionally	-14589
24	-14590
47	-14591
65	-14592
BM	-14593
EE	-14594
EP	-14595
IV	-14596
Th	-14597
zu	-14598
aba	-14599
aga	-14600
bes	-14601
dge	-14602
fry	-14603
had	-14604
irs	-14605
joo	-14606
pcs	-14607
pur	-14608
▁77	-14609
▁88	-14610
▁AD	-14611
▁Di	-14612
▁Ey	-14613
▁HP	-14614
▁Ir	-14615
▁MF	-14616
cade	-14617
chun	-14618
cons	-14619
hara	-14620
have	-14621
iral	-14622
izza	-14623
[...]
