<pad>	0
<unk>	0
<s>	0
</s>	0
니다	-0
▁있	-1
▁그	-2
▁이	-3
습니다	-4
▁나	-5
▁수	-6
▁가	-7
▁사	-8
▁것	-9
어요	-10
▁하	-11
▁저	-12
▁아	-13
▁당	-14
▁제	-15
에서	-16
▁당신	-17
▁보	-18
으로	-19
▁다	-20
▁내	-21
▁주	-22
▁우	-23
▁어	-24
▁지	-25
입니다	-26
합니다	-27
▁나는	-28
▁우리	-29
▁한	-30
▁시	-31
▁오	-32
▁대	-33
▁해	-34
▁일	-35
▁거	-36
▁기	-37
▁않	-38
▁좋	-39
▁같	-40
▁여	-41
▁전	-42
▁정	-43
세요	-44
▁없	-45
▁저는	-46
하는	-47
▁너	-48
▁때	-49
▁생	-50
▁있습니다	-51
하고	-52
▁자	-53
나요	-54
에게	-55
▁바	-56
▁있는	-57
▁많	-58
▁모	-59
▁안	-60
▁부	-61
▁되	-62
▁알	-63
▁만	-64
▁마	-65
▁말	-66
▁중	-67
▁1	-68
는데	-69
▁위	-70
▁싶	-71
에요	-72
▁인	-73
▁사람	-74
지만	-75
▁할	-76
▁더	-77
▁고	-78
▁영	-79
니까	-80
▁잘	-81
▁생각	-82
▁공	-83
▁상	-84
해서	-85
▁제가	-86
▁도	-87
▁예	-88
▁내가	-89
▁네	-90
이에요	-91
▁비	-92
▁연	-93
해요	-94
▁방	-95
▁건	-96
▁무	-97
▁들	-98
다고	-99
겠습니다	-100
▁조	-101
▁문	-102
▁오늘	-103
▁2	-104
▁소	-105
▁우리는	-106
▁계	-107
들이	-108
▁받	-109
▁미	-110
▁당신은	-111
▁관	-112
에는	-113
들은	-114
▁친	-115
▁확	-116
▁지금	-117
▁회	-118
▁요	-119
▁한국	-120
아요	-121
▁당신이	-122
▁경	-123
▁있어요	-124
▁배	-125
가요	-126
▁선	-127
까지	-128
▁시간	-129
▁먹	-130
▁스	-131
었습니다	-132
하게	-133
했어요	-134
▁구	-135
▁매	-136
▁동	-137
▁발	-138
▁못	-139
하지	-140
▁서	-141
▁유	-142
▁있어	-143
까요	-144
▁합니다	-145
▁신	-146
▁필	-147
▁진	-148
▁게	-149
▁결	-150
▁제품	-151
▁때문	-152
▁드	-153
▁너무	-154
▁보내	-155
했습니다	-156
▁물	-157
▁원	-158
으면	-159
▁번	-160
▁친구	-161
이라	-162
다면	-163
▁사용	-164
▁세	-165
▁남	-166
▁집	-167
▁확인	-168
▁학	-169
▁다른	-170
▁개	-171
▁많이	-172
▁감	-173
▁좋아	-174
주세요	-175
▁3	-176
▁적	-177
▁작	-178
▁가능	-179
▁당신의	-180
네요	-181
부터	-182
▁추	-183
▁의	-184
▁필요	-185
▁후	-186
하기	-187
하면	-188
▁입	-189
다는	-190
▁음	-191
적인	-192
▁아니	-193
▁하는	-194
시면	-195
▁그것	-196
▁그녀	-197
▁불	-198
됩니다	-199
▁정말	-200
▁있나요	-201
리고	-202
▁있을	-203
▁걸	-204
▁여기	-205
▁두	-206
▁통	-207
▁재	-208
▁최	-209
▁장	-210
▁이번	-211
▁분	-212
▁차	-213
▁좀	-214
▁것입니다	-215
▁언	-216
▁실	-217
예요	-218
▁다음	-219
▁해요	-220
▁성	-221
▁어떻	-222
▁따	-223
▁가지	-224
하여	-225
▁다시	-226
▁많은	-227
▁것이	-228
▁노	-229
▁저희	-230
들을	-231
▁어떻게	-232
▁좋은	-233
▁교	-234
▁현	-235
▁알려	-236
▁반	-237
▁난	-238
▁회사	-239
▁것을	-240
▁그렇	-241
▁위해	-242
▁파	-243
▁직	-244
해야	-245
▁그래	-246
▁문제	-247
▁맞	-248
기를	-249
▁이것	-250
▁메	-251
▁가장	-252
도록	-253
▁얼	-254
▁행	-255
▁함	-256
▁출	-257
▁날	-258
▁또	-259
▁그러	-260
게요	-261
▁그는	-262
▁때문에	-263
▁주문	-264
▁될	-265
▁들어	-266
▁살	-267
라고	-268
▁새	-269
▁운	-270
▁달	-271
▁어떤	-272
▁포	-273
▁피	-274
었어요	-275
적으로	-276
▁같은	-277
▁대한	-278
▁사진	-279
▁함께	-280
▁프	-281
▁화	-282
▁올	-283
▁찾	-284
▁왜	-285
▁설	-286
요일	-287
립니다	-288
▁하고	-289
▁줄	-290
▁타	-291
▁카	-292
▁열	-293
습니까	-294
▁아이	-295
▁단	-296
▁준	-297
어서	-298
려고	-299
▁네가	-300
▁버	-301
▁했	-302
▁처	-303
00	-304
▁만들	-305
▁참	-306
▁혹	-307
▁같아	-308
▁거예요	-309
▁항	-310
▁같이	-311
▁환	-312
▁갈	-313
▁편	-314
▁점	-315
▁5	-316
▁우리가	-317
▁음식	-318
▁변	-319
보다	-320
▁그리고	-321
겠어요	-322
▁진행	-323
▁여행	-324
▁몇	-325
▁과	-326
▁데	-327
랍니다	-328
▁연락	-329
▁식	-330
▁하나	-331
▁모든	-332
▁거야	-333
▁내일	-334
▁그럼	-335
▁언제	-336
▁누	-337
▁대해	-338
▁바랍니다	-339
▁같아요	-340
▁것은	-341
▁곳	-342
▁금	-343
▁등	-344
▁책	-345
▁혹시	-346
▁정도	-347
▁외	-348
▁됩니다	-349
▁영화	-350
▁어디	-351
▁않았	-352
▁강	-353
▁주세요	-354
▁얼마	-355
▁약	-356
▁특	-357
들의	-358
▁영어	-359
▁호	-360
▁감사	-361
▁부탁	-362
▁힘	-363
▁그런	-364
▁목	-365
해주	-366
▁하지만	-367
▁느	-368
▁앞	-369
▁보고	-370
▁준비	-371
▁조금	-372
▁시작	-373
▁간	-374
▁전화	-375
▁무엇	-376
는지	-377
▁4	-378
▁취	-379
▁돌	-380
▁고객	-381
▁맛	-382
▁예약	-383
하세요	-384
▁명	-385
▁종	-386
▁손	-387
▁없습니다	-388
▁마음	-389
되어	-390
▁업	-391
▁표	-392
▁사랑	-393
▁바로	-394
었어	-395
▁잠	-396
▁아직	-397
▁판	-398
▁싶습니다	-399
드립니다	-400
▁있으	-401
▁끝	-402
▁이용	-403
지를	-404
▁모두	-405
▁큰	-406
기가	-407
한테	-408
스를	-409
지는	-410
이나	-411
리를	-412
▁구매	-413
▁근	-414
▁괜	-415
▁가격	-416
▁10	-417
▁완	-418
▁그녀는	-419
▁학교	-420
▁치	-421
▁온	-422
▁테	-423
▁프로	-424
▁나의	-425
▁전에	-426
하시	-427
▁새로	-428
리는	-429
▁쓰	-430
▁왔	-431
▁싶은	-432
▁죄	-433
▁사이	-434
▁시간이	-435
▁괜찮	-436
▁크	-437
▁사람이	-438
▁방법	-439
▁여러	-440
▁어제	-441
▁국	-442
▁기다	-443
▁그래서	-444
▁본	-445
▁너는	-446
▁모르	-447
들과	-448
▁초	-449
▁매우	-450
▁알고	-451
▁이유	-452
▁검	-453
▁여자	-454
▁체	-455
▁이것은	-456
▁디	-457
▁해야	-458
아서	-459
▁죄송	-460
▁된	-461
▁공부	-462
▁현재	-463
▁이제	-464
▁요청	-465
스트	-466
▁가지고	-467
▁돈	-468
▁도착	-469
▁와	-470
인가요	-471
▁남자	-472
▁볼	-473
▁즐	-474
드리	-475
▁빨	-476
인데	-477
▁중요	-478
▁예정	-479
▁자신	-480
에서는	-481
이야	-482
▁따라	-483
▁커	-484
하겠습니다	-485
▁추가	-486
▁길	-487
▁싶어요	-488
▁항상	-489
▁귀	-490
▁배송	-491
▁상품	-492
대로	-493
▁돼	-494
▁역	-495
▁것이에요	-496
▁만나	-497
▁당신에게	-498
에도	-499
리가	-500
▁평	-501
▁이야	-502
이라고	-503
▁않습니다	-504
▁이미	-505
▁같습니다	-506
▁처음	-507
처럼	-508
▁있어서	-509
▁그것은	-510
▁먼	-511
▁A	-512
▁빠	-513
▁엄	-514
았습니다	-515
▁경우	-516
▁말씀	-517
▁이상	-518
▁휴	-519
▁행복	-520
▁동안	-521
▁가족	-522
▁또한	-523
▁일을	-524
▁수업	-525
▁부분	-526
▁아무	-527
들에게	-528
▁일이	-529
▁건가요	-530
▁리	-531
▁갔	-532
▁양	-533
▁담	-534
▁심	-535
▁보여	-536
▁가는	-537
라는	-538
▁나에게	-539
이고	-540
▁있을까요	-541
▁그들은	-542
셔서	-543
▁했어요	-544
▁눈	-545
▁판매	-546
▁20	-547
▁내용	-548
해주세요	-549
▁이해	-550
▁집에	-551
▁가능한	-552
일을	-553
▁있었	-554
하지만	-555
▁꼭	-556
▁만약	-557
이트	-558
▁놀	-559
▁있는데	-560
장을	-561
기는	-562
▁그렇게	-563
▁늦	-564
▁학생	-565
▁속	-566
드릴	-567
▁관련	-568
정을	-569
▁봐	-570
▁먼저	-571
면서	-572
사를	-573
▁당신을	-574
▁없어요	-575
▁머	-576
▁활	-577
▁에	-578
▁나도	-579
▁충	-580
▁계속	-581
▁노력	-582
▁아래	-583
기에	-584
▁돌아	-585
▁청	-586
▁있다	-587
▁정보	-588
렇게	-589
였습니다	-590
▁6	-591
▁새로운	-592
▁호텔	-593
▁하는데	-594
▁통해	-595
▁이름	-596
▁운동	-597
학교	-598
▁저녁	-599
▁되어	-600
▁없는	-601
▁물건	-602
▁답	-603
▁코	-604
▁찍	-605
▁오늘은	-606
▁이렇게	-607
▁얼마나	-608
되는	-609
▁토	-610
▁너의	-611
▁지난	-612
▁하지	-613
하신	-614
▁빨리	-615
▁뒤	-616
인지	-617
▁위한	-618
▁옷	-619
▁각	-620
▁혼	-621
시간	-622
▁아침	-623
▁높	-624
▁산	-625
▁미국	-626
▁않는	-627
▁뭐	-628
▁및	-629
▁색	-630
▁축	-631
▁요즘	-632
주시	-633
▁상황	-634
▁도움	-635
▁태	-636
이는	-637
군요	-638
▁싶어	-639
▁번째	-640
▁절	-641
▁겁	-642
▁제품을	-643
▁일본	-644
▁다양	-645
▁있습니까	-646
▁방문	-647
▁계획	-648
▁제공	-649
▁복	-650
▁도와	-651
해보	-652
▁힘들	-653
▁않아	-654
▁않을	-655
▁해서	-656
거나	-657
▁좋아하는	-658
▁이런	-659
▁위해서	-660
▁문제가	-661
▁만들어	-662
▁가져	-663
▁아주	-664
▁첫	-665
▁되는	-666
▁없어	-667
▁넣	-668
▁주시	-669
▁변경	-670
▁디자	-671
기로	-672
▁걱	-673
요일에	-674
▁팀	-675
▁결제	-676
▁잡	-677
▁증	-678
이지	-679
있는	-680
자가	-681
▁채	-682
▁중국	-683
▁7	-684
▁하루	-685
▁알아	-686
인이	-687
▁부탁드립니다	-688
▁않아요	-689
▁필요한	-690
▁면	-691
▁몰	-692
▁했습니다	-693
▁걱정	-694
▁하겠습니다	-695
000	-696
▁합	-697
겠어	-698
▁비용	-699
▁병	-700
▁라	-701
▁찾아	-702
▁가서	-703
▁하나요	-704
▁결과	-705
▁우리의	-706
▁그의	-707
▁선택	-708
▁대해서	-709
▁월	-710
▁나를	-711
▁무슨	-712
▁그냥	-713
▁있으면	-714
▁접	-715
▁후에	-716
▁꿈	-717
일에	-718
▁설명	-719
다가	-720
▁로	-721
▁질	-722
시는	-723
▁별	-724
▁발생	-725
▁서비	-726
시에	-727
▁되나요	-728
드리겠습니다	-729
심히	-730
▁나오	-731
▁직접	-732
트를	-733
▁첨	-734
장이	-735
서를	-736
▁한번	-737
▁저에게	-738
▁읽	-739
▁그가	-740
▁이곳	-741
▁형	-742
▁같은데	-743
▁8	-744
▁경험	-745
▁갑	-746
▁수도	-747
▁어려	-748
▁순	-749
▁그것을	-750
분이	-751
▁시험	-752
▁얘	-753
그램	-754
▁작업	-755
▁카드	-756
으니	-757
▁아니라	-758
▁될까요	-759
▁세계	-760
▁버스	-761
▁싶은데	-762
▁잘못	-763
가는	-764
▁계약	-765
▁궁	-766
▁아닌	-767
▁열심히	-768
▁미안	-769
▁사실	-770
▁않고	-771
▁않은	-772
▁박	-773
셔야	-774
▁이야기	-775
었는데	-776
▁있는지	-777
▁건강	-778
▁다양한	-779
인을	-780
▁존	-781
되었습니다	-782
시오	-783
▁봤	-784
▁기억	-785
▁하면	-786
▁아마	-787
▁밤	-788
▁시간을	-789
▁사람들이	-790
▁사진을	-791
님이	-792
▁그러면	-793
▁용	-794
▁회의	-795
▁몸	-796
▁어느	-797
▁첨부	-798
▁직원	-799
▁애	-800
려면	-801
▁받아	-802
▁독	-803
▁선물	-804
,000	-805
▁생각합니다	-806
▁향	-807
▁감사합니다	-808
▁레	-809
▁페	-810
▁유명	-811
▁광	-812
▁겁니다	-813
▁마지	-814
전에	-815
▁창	-816
▁인터	-817
했는데	-818
▁마지막	-819
▁벌	-820
▁드릴	-821
▁샘	-822
▁오래	-823
▁제일	-824
식을	-825
▁한국에	-826
▁투	-827
▁여기서	-828
상을	-829
어나	-830
줍니다	-831
▁있고	-832
십시오	-833
▁것으로	-834
▁응	-835
▁정확	-836
▁지원	-837
▁효	-838
▁소개	-839
▁좋을	-840
▁나라	-841
▁추천	-842
이가	-843
자를	-844
▁30	-845
▁받을	-846
▁비행	-847
▁있었습니다	-848
케이	-849
▁야	-850
▁이러	-851
정이	-852
▁드리	-853
▁샘플	-854
▁엄마	-855
▁포함	-856
▁게임	-857
▁승	-858
입니까	-859
▁브	-860
▁키	-861
▁C	-862
하려고	-863
▁배우	-864
▁해결	-865
▁궁금	-866
▁김	-867
▁관심	-868
▁나와	-869
▁떠	-870
지가	-871
화를	-872
▁중에	-873
▁그곳	-874
▁서류	-875
▁앞으로	-876
▁9	-877
▁믿	-878
▁한국에서	-879
▁서울	-880
라도	-881
았어요	-882
▁갖	-883
▁자주	-884
▁듣	-885
▁먹고	-886
▁바라	-887
▁혼자	-888
기도	-889
▁되었습니다	-890
했던	-891
▁이건	-892
▁알려주	-893
▁쉬	-894
▁상태	-895
▁저희는	-896
어야	-897
▁패	-898
사가	-899
▁취소	-900
▁결혼	-901
▁서로	-902
▁프로그램	-903
▁사람은	-904
▁부모	-905
▁베	-906
마다	-907
장에	-908
▁있다고	-909
▁말을	-910
▁가능합니다	-911
▁누구	-912
▁S	-913
▁가야	-914
보고	-915
▁외국	-916
▁때문입니다	-917
▁선생	-918
어를	-919
▁아름	-920
▁당신과	-921
▁수가	-922
▁저희가	-923
▁없이	-924
▁저의	-925
▁쉽	-926
▁이메	-927
▁넘	-928
▁환불	-929
▁글	-930
▁B	-931
▁중요한	-932
▁이러한	-933
▁그래도	-934
▁택	-935
▁돈을	-936
▁싫	-937
시고	-938
장에서	-939
▁협	-940
▁숙	-941
▁법	-942
▁타고	-943
이를	-944
▁지하	-945
리에	-946
이라는	-947
밖에	-948
▁재미	-949
▁총	-950
되었	-951
▁그러나	-952
▁업무	-953
▁옆	-954
▁물어	-955
▁있도록	-956
▁대학	-957
일로	-958
▁가고	-959
▁얻	-960
▁은	-961
▁컴	-962
가지	-963
▁떨	-964
▁최대	-965
성을	-966
▁생각해요	-967
▁생산	-968
▁개인	-969
▁주말	-970
▁말고	-971
▁오후	-972
하도록	-973
료를	-974
▁노래	-975
▁죄송합니다	-976
하며	-977
▁모습	-978
▁안에	-979
되지	-980
▁따로	-981
▁알려주세요	-982
▁친구가	-983
▁화장	-984
▁그런데	-985
▁둘	-986
이터	-987
해도	-988
시다	-989
▁홍	-990
▁놓	-991
▁금액	-992
▁죽	-993
하였습니다	-994
▁송	-995
하시면	-996
▁삶	-997
▁팔	-998
▁예정입니다	-999
▁전달	-1000
▁커피	-1001
▁사람들은	-1002
▁음식을	-1003
▁깨	-1004
▁보내주	-1005
▁행동	-1006
▁이번에	-1007
▁사항	-1008
▁서비스	-1009
▁디자인	-1010
▁적이	-1011
머니	-1012
▁가게	-1013
일이	-1014
▁허	-1015
▁클	-1016
소를	-1017
▁그림	-1018
▁의미	-1019
력을	-1020
▁먹을	-1021
이스	-1022
▁피부	-1023
품을	-1024
드는	-1025
▁매일	-1026
▁공항	-1027
▁되고	-1028
중에	-1029
▁기회	-1030
▁얘기	-1031
▁수정	-1032
▁왜냐	-1033
▁특별	-1034
▁막	-1035
▁여행을	-1036
▁멋	-1037
▁술	-1038
자는	-1039
▁사업	-1040
▁되었	-1041
▁신청	-1042
▁규	-1043
▁거에요	-1044
▁컴퓨	-1045
▁천	-1046
▁번호	-1047
▁해당	-1048
드릴게요	-1049
▁지역	-1050
▁사회	-1051
▁활동	-1052
▁음악	-1053
▁컴퓨터	-1054
▁것도	-1055
▁그건	-1056
▁연구	-1057
겠다	-1058
▁해주	-1059
▁이유는	-1060
성이	-1061
▁P	-1062
▁교육	-1063
적이	-1064
▁문의	-1065
▁12	-1066
가를	-1067
원이	-1068
▁개발	-1069
▁돼요	-1070
겠습니까	-1071
워요	-1072
▁집에서	-1073
▁늘	-1074
력이	-1075
수를	-1076
▁우선	-1077
▁자동	-1078
▁인터넷	-1079
▁제품은	-1080
스러	-1081
▁이후	-1082
▁됐	-1083
▁트	-1084
▁완료	-1085
▁최근	-1086
▁부족	-1087
▁있다면	-1088
▁너희	-1089
▁티	-1090
▁없을	-1091
사의	-1092
▁메뉴	-1093
▁체크	-1094
▁근처	-1095
▁빌	-1096
님께	-1097
원에	-1098
▁기술	-1099
▁작은	-1100
▁기대	-1101
▁사이즈	-1102
▁핸	-1103
▁약속	-1104
▁작성	-1105
▁지하철	-1106
치를	-1107
▁보냈	-1108
▁영향	-1109
▁일찍	-1110
하다고	-1111
부분	-1112
▁곧	-1113
지고	-1114
▁맛있	-1115
▁품	-1116
▁원하는	-1117
▁들어가	-1118
▁쪽	-1119
▁종류	-1120
▁필요합니다	-1121
▁떨어	-1122
▁가면	-1123
▁사고	-1124
▁급	-1125
하실	-1126
▁이루	-1127
▁저도	-1128
▁무엇을	-1129
▁한국의	-1130
물을	-1131
▁최고	-1132
▁기다려	-1133
했어	-1134
▁생활	-1135
▁있게	-1136
▁지나	-1137
거든	-1138
지도	-1139
▁계산	-1140
되고	-1141
▁어렵	-1142
금을	-1143
▁견	-1144
▁도움이	-1145
▁그녀의	-1146
▁발표	-1147
▁가까	-1148
▁결정	-1149
▁여름	-1150
랜드	-1151
▁기능	-1152
▁적용	-1153
▁기간	-1154
▁발송	-1155
▁충분	-1156
▁가방	-1157
▁처리	-1158
▁죄송하지만	-1159
▁책을	-1160
▁너에게	-1161
신가요	-1162
▁미리	-1163
▁때는	-1164
▁식당	-1165
▁할인	-1166
▁여러분	-1167
▁아름다	-1168
사는	-1169
▁끝나	-1170
닙니다	-1171
▁불가	-1172
▁케이	-1173
▁점심	-1174
▁자기	-1175
▁왜냐하면	-1176
▁우리에게	-1177
▁골	-1178
▁캐	-1179
전히	-1180
▁착	-1181
▁제작	-1182
스템	-1183
▁침	-1184
▁확인해	-1185
동안	-1186
▁핸드	-1187
잖아	-1188
▁T	-1189
제를	-1190
▁잔	-1191
▁않았습니다	-1192
▁테니	-1193
▁201	-1194
▁잊	-1195
▁답변	-1196
▁영어를	-1197
▁담당	-1198
하면서	-1199
▁때문이에요	-1200
▁졸	-1201
들도	-1202
레이	-1203
어가	-1204
▁안내	-1205
▁표현	-1206
▁있지	-1207
▁지내	-1208
▁삼	-1209
▁대신	-1210
▁자세	-1211
▁성공	-1212
▁일정	-1213
▁포장	-1214
▁효과	-1215
▁맡	-1216
▁그때	-1217
▁M	-1218
▁겨	-1219
던데	-1220
래요	-1221
번호	-1222
하셨	-1223
▁참여	-1224
▁밥	-1225
▁메시	-1226
▁해외	-1227
▁너를	-1228
▁그녀가	-1229
▁했는데	-1230
려요	-1231
▁불편	-1232
▁날씨	-1233
▁와서	-1234
▁문화	-1235
▁좋아요	-1236
▁보이	-1237
▁낮	-1238
도를	-1239
라서	-1240
선을	-1241
▁써	-1242
친구	-1243
▁스타	-1244
어도	-1245
▁운전	-1246
▁즐거	-1247
▁쇼	-1248
▁거래	-1249
▁보면	-1250
▁그들이	-1251
▁프로젝	-1252
▁거의	-1253
▁먹는	-1254
▁임	-1255
치는	-1256
▁사람을	-1257
겠네요	-1258
▁'	-1259
▁것에	-1260
▁나가	-1261
하시는	-1262
▁퇴	-1263
▁광고	-1264
▁잠시	-1265
▁좋겠어요	-1266
▁시스템	-1267
▁없어서	-1268
▁얼굴	-1269
▁유명한	-1270
▁장소	-1271
▁받고	-1272
▁정보를	-1273
▁지금은	-1274
었던	-1275
▁사용할	-1276
▁항공	-1277
▁있다는	-1278
장은	-1279
▁안전	-1280
▁아닙니다	-1281
▁딸	-1282
▁되면	-1283
릅니다	-1284
상이	-1285
▁거기	-1286
▁핸드폰	-1287
자의	-1288
▁마세요	-1289
▁다녀	-1290
▁생각해	-1291
리스	-1292
▁교환	-1293
르게	-1294
으며	-1295
▁어린	-1296
▁좋습니다	-1297
▁더욱	-1298
▁관계	-1299
▁모델	-1300
졌습니다	-1301
▁목표	-1302
▁어때	-1303
▁제품이	-1304
▁다니	-1305
▁인해	-1306
드를	-1307
▁관리	-1308
▁대부분	-1309
렸습니다	-1310
▁측	-1311
▁질문	-1312
▁나중에	-1313
▁선적	-1314
▁저번	-1315
▁슬	-1316
▁보는	-1317
▁주에	-1318
▁진짜	-1319
▁보통	-1320
▁줘	-1321
▁되지	-1322
집니다	-1323
점을	-1324
▁수량	-1325
▁주변	-1326
▁이것을	-1327
▁그들의	-1328
▁D	-1329
자기	-1330
▁제출	-1331
▁플	-1332
▁연결	-1333
▁드리겠습니다	-1334
▁받았	-1335
▁앉	-1336
사에	-1337
▁일단	-1338
▁은행	-1339
▁최대한	-1340
▁일주	-1341
▁영화를	-1342
▁그렇다면	-1343
므로	-1344
▁15	-1345
▁권	-1346
▁전문	-1347
▁날짜	-1348
▁11	-1349
▁요리	-1350
▁자신의	-1351
▁백	-1352
▁긴	-1353
수가	-1354
▁있으니	-1355
이랑	-1356
▁주는	-1357
▁싸	-1358
▁하기	-1359
▁사는	-1360
에서도	-1361
▁스트	-1362
원을	-1363
▁고마	-1364
▁뉴	-1365
▁의견	-1366
▁테스트	-1367
▁선생님	-1368
▁능	-1369
스럽	-1370
▁지불	-1371
년에	-1372
▁아파	-1373
▁직업	-1374
▁내려	-1375
▁설치	-1376
한다면	-1377
이기	-1378
▁인생	-1379
할게요	-1380
▁도시	-1381
주는	-1382
▁아니면	-1383
▁등록	-1384
▁붙	-1385
▁친구들과	-1386
▁씨	-1387
▁콘	-1388
▁풀	-1389
었다	-1390
▁또는	-1391
▁일반	-1392
▁컨	-1393
트에	-1394
▁잃	-1395
▁헤	-1396
보세요	-1397
가가	-1398
스는	-1399
▁참고	-1400
▁전체	-1401
달러	-1402
증을	-1403
하나요	-1404
스로	-1405
▁저를	-1406
▁자연	-1407
▁책임	-1408
▁탈	-1409
▁깊	-1410
▁어디에	-1411
▁짐	-1412
▁느끼	-1413
▁오랜	-1414
▁위험	-1415
▁관광	-1416
▁웃	-1417
서는	-1418
▁살아	-1419
스가	-1420
▁공연	-1421
▁확실	-1422
감을	-1423
다니	-1424
▁물건을	-1425
▁텐	-1426
▁엄청	-1427
▁인간	-1428
▁기분이	-1429
▁희	-1430
▁졸업	-1431
등학교	-1432
▁사무	-1433
▁환경	-1434
▁일어나	-1435
▁업체	-1436
▁물론	-1437
▁굉	-1438
점이	-1439
▁겨울	-1440
라인	-1441
▁굉장	-1442
▁드라	-1443
▁검토	-1444
▁대로	-1445
▁번역	-1446
▁I	-1447
▁블	-1448
▁그게	-1449
▁그것이	-1450
▁안녕	-1451
▁주소	-1452
워서	-1453
▁존재	-1454
▁100	-1455
리지	-1456
시아	-1457
했을	-1458
▁올라	-1459
▁학교에	-1460
▁느낌	-1461
▁요구	-1462
▁별로	-1463
▁어떠	-1464
구나	-1465
▁살고	-1466
하는데	-1467
▁있었어요	-1468
▁있기	-1469
▁택시	-1470
는데요	-1471
▁옷을	-1472
▁인천	-1473
▁청소	-1474
▁나한테	-1475
▁운영	-1476
▁보니	-1477
▁쉽게	-1478
▁원래	-1479
▁출발	-1480
▁풍	-1481
▁수업을	-1482
▁똑	-1483
▁기업	-1484
▁만든	-1485
▁드립니다	-1486
▁나서	-1487
▁관한	-1488
▁갑자기	-1489
▁나타	-1490
▁유지	-1491
▁생각이	-1492
하였	-1493
▁가르	-1494
▁오는	-1495
▁제안	-1496
▁논	-1497
이어	-1498
▁받은	-1499
▁건물	-1500
▁흥	-1501
▁기본	-1502
▁곳이	-1503
▁해도	-1504
▁가능한가요	-1505
▁무료	-1506
▁자료	-1507
식이	-1508
▁보낼	-1509
▁텐데	-1510
▁부모님	-1511
▁민	-1512
▁자유	-1513
▁재미있	-1514
▁중입니다	-1515
로부터	-1516
시나요	-1517
▁군	-1518
주의	-1519
▁뿐	-1520
▁비슷	-1521
▁카페	-1522
리핀	-1523
▁공간	-1524
▁늦게	-1525
▁아버	-1526
▁올해	-1527
▁피곤	-1528
▁멀	-1529
로는	-1530
▁위에	-1531
▁미래	-1532
▁카메	-1533
▁말해	-1534
한다고	-1535
인은	-1536
▁여기에	-1537
실에	-1538
▁전혀	-1539
▁마음에	-1540
▁높은	-1541
▁정리	-1542
▁지급	-1543
▁파티	-1544
▁불가능	-1545
▁받았습니다	-1546
▁예상	-1547
▁왔습니다	-1548
▁휴대	-1549
▁뭔	-1550
▁나왔	-1551
▁이거	-1552
이라서	-1553
▁필리핀	-1554
▁식사	-1555
하니	-1556
▁가격이	-1557
▁누군	-1558
▁실제	-1559
▁시간에	-1560
차를	-1561
▁누가	-1562
▁굉장히	-1563
▁공부를	-1564
▁만날	-1565
▁받으	-1566
도가	-1567
▁일은	-1568
겠지만	-1569
았어	-1570
▁영향을	-1571
분에	-1572
스크	-1573
이며	-1574
▁기존	-1575
▁제품의	-1576
리아	-1577
▁마음을	-1578
▁교수	-1579
▁쇼핑	-1580
▁맛있는	-1581
▁위치	-1582
려서	-1583
음을	-1584
거든요	-1585
해주시	-1586
▁문제를	-1587
▁마케	-1588
▁스케	-1589
▁전부	-1590
함을	-1591
▁19	-1592
▁여성	-1593
▁특히	-1594
▁좌	-1595
▁있지만	-1596
지에	-1597
일은	-1598
▁E	-1599
▁남아	-1600
▁방법을	-1601
▁범	-1602
▁마음이	-1603
▁앞에	-1604
▁싫어	-1605
▁뜻	-1606
▁어울	-1607
쪽으로	-1608
▁밀	-1609
개월	-1610
▁아침에	-1611
▁없나요	-1612
▁생각을	-1613
▁어디서	-1614
▁납	-1615
개의	-1616
이크	-1617
▁대표	-1618
▁이동	-1619
▁대화	-1620
▁한다고	-1621
▁회사에	-1622
▁다음에	-1623
▁도움을	-1624
▁말이	-1625
▁그를	-1626
▁영업	-1627
▁집중	-1628
▁우리나	-1629
▁"	-1630
▁샀	-1631
들에	-1632
▁옆에	-1633
▁스트레	-1634
▁따뜻	-1635
▁재고	-1636
▁회사에서	-1637
▁꽃	-1638
▁신경	-1639
▁드릴게요	-1640
▁맥	-1641
▁빼	-1642
든지	-1643
▁고민	-1644
▁기계	-1645
▁기준	-1646
▁이야기를	-1647
장님	-1648
비를	-1649
▁좋지	-1650
했고	-1651
▁발전	-1652
▁상관	-1653
▁동물	-1654
▁만족	-1655
▁주실	-1656
트가	-1657
▁간단	-1658
▁공유	-1659
▁다행	-1660
▁바꿔	-1661
▁많아서	-1662
▁찾고	-1663
▁좋겠어	-1664
▁농	-1665
▁변화	-1666
▁꾸	-1667
▁보낸	-1668
▁성격	-1669
▁차를	-1670
어버	-1671
지지	-1672
▁맞는	-1673
르는	-1674
▁전통	-1675
셔도	-1676
▁거로	-1677
▁따라서	-1678
▁덕	-1679
▁왕	-1680
▁그만	-1681
▁일어	-1682
▁지금까지	-1683
▁F	-1684
▁뛰	-1685
점은	-1686
▁출장	-1687
▁회사의	-1688
▁필요해요	-1689
하러	-1690
으세요	-1691
▁마케팅	-1692
져서	-1693
▁메일을	-1694
▁제대로	-1695
▁빠른	-1696
▁카메라	-1697
▁L	-1698
▁꿈을	-1699
▁생겼	-1700
▁주고	-1701
라면	-1702
▁가끔	-1703
▁아프	-1704
▁내용을	-1705
▁좋아합니다	-1706
▁제게	-1707
▁않아서	-1708
으니까	-1709
▁이루어	-1710
▁좋아해요	-1711
▁국가	-1712
▁데이터	-1713
▁움	-1714
▁밝	-1715
▁머리	-1716
▁소비	-1717
▁영수	-1718
▁벌써	-1719
▁작품	-1720
▁만드는	-1721
▁연락을	-1722
▁홈	-1723
보다는	-1724
월에	-1725
▁친구와	-1726
스에	-1727
냅니다	-1728
▁왔어요	-1729
▁입고	-1730
▁대학교	-1731
▁이것이	-1732
▁안녕하세요	-1733
▁미팅	-1734
▁앱	-1735
도로	-1736
없이	-1737
▁참석	-1738
▁크게	-1739
▁특별한	-1740
▁솔	-1741
금이	-1742
▁나온	-1743
▁사용하는	-1744
▁북	-1745
▁구성	-1746
▁수영	-1747
구를	-1748
▁조건	-1749
▁익	-1750
트는	-1751
더라고	-1752
▁봉	-1753
▁쓸	-1754
▁등을	-1755
▁손님	-1756
▁많아	-1757
▁않으면	-1758
시키	-1759
한데	-1760
▁만큼	-1761
▁않았어요	-1762
▁분명	-1763
▁주로	-1764
▁견적	-1765
▁발견	-1766
▁해주세요	-1767
▁극	-1768
▁느껴	-1769
▁바꾸	-1770
렸어요	-1771
▁넌	-1772
▁폭	-1773
▁아니야	-1774
▁경기	-1775
▁전시	-1776
▁주문한	-1777
▁철	-1778
▁터	-1779
촬영	-1780
▁메일	-1781
▁고려	-1782
▁브랜드	-1783
▁남편	-1784
였어요	-1785
▁방법이	-1786
났습니다	-1787
▁가진	-1788
▁좋겠습니다	-1789
▁울	-1790
▁역시	-1791
보는	-1792
▁아름다운	-1793
▁마치	-1794
▁움직	-1795
▁즉	-1796
되면	-1797
▁절대	-1798
▁친절	-1799
▁먹어	-1800
▁너와	-1801
▁세상	-1802
▁자리	-1803
▁것처럼	-1804
▁끼	-1805
▁어머니	-1806
▁경찰	-1807
▁근처에	-1808
▁주시면	-1809
물이	-1810
▁경제	-1811
▁아니요	-1812
▁갖고	-1813
▁방금	-1814
▁촬영	-1815
잖아요	-1816
▁외국인	-1817
하자	-1818
▁아까	-1819
정적인	-1820
▁고객님	-1821
▁50	-1822
▁연습	-1823
▁관심이	-1824
▁뒤에	-1825
▁오전	-1826
▁이게	-1827
▁당연	-1828
▁분야	-1829
▁순간	-1830
이라도	-1831
▁비행기	-1832
▁과정	-1833
▁일부	-1834
▁기다리	-1835
▁드라마	-1836
치가	-1837
▁신발	-1838
▁흥미	-1839
▁쿠	-1840
▁멋진	-1841
졌어요	-1842
▁이걸	-1843
하길	-1844
▁보러	-1845
▁우리나라	-1846
▁보내주세요	-1847
스터	-1848
▁부산	-1849
▁강아	-1850
▁오른	-1851
마트	-1852
▁저렴	-1853
▁챙	-1854
주에	-1855
▁거죠	-1856
▁받지	-1857
합니까	-1858
▁정확한	-1859
실이	-1860
인의	-1861
▁나오는	-1862
서에	-1863
▁관해	-1864
▁저기	-1865
까지는	-1866
▁친구를	-1867
▁짧	-1868
▁조금만	-1869
의를	-1870
▁공급	-1871
▁금요일	-1872
▁분석	-1873
▁수는	-1874
이니	-1875
▁결국	-1876
▁똑같	-1877
▁보호	-1878
주시기	-1879
지요	-1880
▁근무	-1881
데이트	-1882
▁그에게	-1883
▁추가로	-1884
▁건데	-1885
▁길을	-1886
▁많습니다	-1887
▁업데이트	-1888
쪽에	-1889
▁고맙	-1890
관에	-1891
▁그걸	-1892
▁몰랐	-1893
▁축하	-1894
스러운	-1895
▁보기	-1896
▁일정을	-1897
십니까	-1898
▁최고의	-1899
▁꽤	-1900
어로	-1901
▁보세요	-1902
▁아직도	-1903
▁하세요	-1904
▁넣어	-1905
▁받는	-1906
▁가져다	-1907
▁바람	-1908
▁긍	-1909
센터	-1910
▁시에	-1911
대에	-1912
▁교통	-1913
▁전화를	-1914
드시	-1915
▁생일	-1916
▁그리	-1917
▁아빠	-1918
▁개의	-1919
원에서	-1920
▁갑니다	-1921
▁운동을	-1922
▁즐겁	-1923
▁경쟁	-1924
▁버스를	-1925
▁주말에	-1926
▁줍니다	-1927
▁부담	-1928
셨나요	-1929
▁표시	-1930
할까요	-1931
▁출근	-1932
▁음식은	-1933
▁객	-1934
▁영국	-1935
▁회신	-1936
▁떠나	-1937
▁역할	-1938
▁악	-1939
▁동일	-1940
▁형태	-1941
▁시간은	-1942
르고	-1943
오는	-1944
전을	-1945
▁의사	-1946
▁어디로	-1947
▁마지막으로	-1948
대를	-1949
이면	-1950
▁사람의	-1951
▁기다리고	-1952
▁온라인	-1953
정한	-1954
▁전공	-1955
▁아이디	-1956
▁회사는	-1957
왔습니다	-1958
▁웹	-1959
▁비교	-1960
▁상품을	-1961
▁있어야	-1962
▁하는지	-1963
있습니다	-1964
만에	-1965
▁정신	-1966
▁탄	-1967
▁이름을	-1968
▁크리스	-1969
▁가까운	-1970
▁입니다	-1971
권을	-1972
▁이름은	-1973
▁딱	-1974
롭게	-1975
▁고양	-1976
▁반드시	-1977
이드	-1978
줘서	-1979
감이	-1980
▁스케줄	-1981
▁방향	-1982
▁배달	-1983
▁힘든	-1984
▁알게	-1985
▁널	-1986
▁오면	-1987
▁티켓	-1988
듭니다	-1989
▁때까지	-1990
▁언제나	-1991
▁월요일	-1992
이에	-1993
▁없고	-1994
더라도	-1995
심으로	-1996
도에	-1997
▁의해	-1998
▁희망	-1999
▁있니	-2000
▁차가	-2001
▁나머	-2002
▁영어로	-2003
▁워	-2004
량을	-2005
션을	-2006
움을	-2007
제품	-2008
▁눈이	-2009
▁팬	-2010
▁각각	-2011
▁보관	-2012
▁달라	-2013
▁재밌	-2014
▁최종	-2015
▁며	-2016
▁훨	-2017
▁입력	-2018
점에서	-2019
▁보이는	-2020
▁주문을	-2021
사항	-2022
▁주시기	-2023
▁G	-2024
▁훨씬	-2025
▁녹	-2026
명이	-2027
▁듣고	-2028
▁이유가	-2029
▁최선을	-2030
▁자동차	-2031
▁충분히	-2032
▁생각하는	-2033
▁틀	-2034
▁완벽	-2035
▁퇴근	-2036
▁걸리	-2037
▁아는	-2038
▁어떨	-2039
▁부분이	-2040
▁국제	-2041
▁몰라	-2042
▁사과	-2043
▁음료	-2044
스타	-2045
으로는	-2046
▁생각에	-2047
십니다	-2048
▁분위	-2049
▁스마트	-2050
▁이벤	-2051
▁제외	-2052
▁고등학교	-2053
더라	-2054
▁불러	-2055
▁신용	-2056
▁관련된	-2057
▁내게	-2058
▁잠을	-2059
하다면	-2060
▁목적	-2061
▁평소	-2062
셨어요	-2063
디오	-2064
▁청구	-2065
▁냉	-2066
봐야	-2067
수는	-2068
▁며칠	-2069
▁못한	-2070
▁같아서	-2071
▁아니에요	-2072
▁증가	-2073
▁뜨	-2074
▁도서	-2075
▁신고	-2076
사에서	-2077
동생	-2078
▁비가	-2079
만큼	-2080
▁계좌	-2081
▁추억	-2082
▁말하는	-2083
도는	-2084
▁인형	-2085
▁찾을	-2086
▁홍보	-2087
▁친구들이	-2088
▁내부	-2089
▁반대	-2090
▁소중	-2091
▁자신이	-2092
▁흔	-2093
사와	-2094
아야	-2095
▁방식	-2096
었고	-2097
▁맞춰	-2098
▁여전히	-2099
웠습니다	-2100
▁학교에서	-2101
이었어요	-2102
▁모습을	-2103
▁영화는	-2104
으로부터	-2105
▁지속	-2106
▁상대	-2107
▁있었어	-2108
▁위해서는	-2109
▁없는데	-2110
▁보입니다	-2111
수록	-2112
▁곳에	-2113
▁모르겠어요	-2114
▁밖	-2115
▁기록	-2116
▁주차	-2117
개를	-2118
▁날씨가	-2119
▁즐거운	-2120
해줄	-2121
▁프랑	-2122
▁서비스를	-2123
▁망	-2124
▁없다고	-2125
▁확인하고	-2126
▁빈	-2127
만의	-2128
원은	-2129
▁했어	-2130
▁사람들	-2131
▁여기는	-2132
▁축제	-2133
▁알겠습니다	-2134
▁옮	-2135
▁작동	-2136
▁집으로	-2137
것도	-2138
으러	-2139
▁사건	-2140
▁주제	-2141
▁같네요	-2142
▁최소	-2143
에서의	-2144
▁그대로	-2145
▁할게요	-2146
▁원합니다	-2147
▁개선	-2148
▁바다	-2149
▁돌아가	-2150
▁바라요	-2151
▁그거	-2152
▁일에	-2153
▁잠깐	-2154
▁났	-2155
▁짜	-2156
▁기분	-2157
▁들었습니다	-2158
▁U	-2159
▁모양	-2160
▁입금	-2161
으로써	-2162
▁최근에	-2163
▁행복한	-2164
▁염	-2165
▁들고	-2166
▁주시겠어요	-2167
실을	-2168
▁달에	-2169
▁통화	-2170
▁일주일	-2171
▁필요가	-2172
증이	-2173
▁주인	-2174
▁무엇인가요	-2175
▁H	-2176
포츠	-2177
▁싶지	-2178
▁정부	-2179
위를	-2180
▁기차	-2181
▁예약을	-2182
▁성장	-2183
▁치료	-2184
기의	-2185
▁음식이	-2186
▁토요일	-2187
로운	-2188
▁남자친구	-2189
er	-2190
▁끊	-2191
▁듯	-2192
▁수입	-2193
이라면	-2194
자에게	-2195
▁주셔서	-2196
▁액	-2197
스토	-2198
▁예술	-2199
▁인보	-2200
▁돈이	-2201
▁무엇이	-2202
▁방법은	-2203
▁지난번	-2204
▁하려고	-2205
▁숨	-2206
▁이전	-2207
▁중에서	-2208
더니	-2209
▁것과	-2210
▁나누	-2211
▁너한테	-2212
▁컬	-2213
▁국내	-2214
▁두고	-2215
▁활용	-2216
▁덕분에	-2217
▁욕	-2218
▁점이	-2219
상으로	-2220
▁어려운	-2221
▁사람들에게	-2222
나게	-2223
생활	-2224
▁시장	-2225
▁조심	-2226
▁주의	-2227
▁게임을	-2228
이너	-2229
▁된다면	-2230
▁저녁에	-2231
▁중이에요	-2232
▁제주	-2233
▁K	-2234
▁자체	-2235
▁피해	-2236
▁많아요	-2237
▁가격을	-2238
▁아무것도	-2239
학을	-2240
▁단지	-2241
▁경험을	-2242
계를	-2243
▁그럴	-2244
▁약간	-2245
▁중간	-2246
▁스스로	-2247
주시겠어요	-2248
▁싱	-2249
자로	-2250
▁다르	-2251
▁집을	-2252
▁아이템	-2253
▁통해서	-2254
량이	-2255
하려	-2256
▁제품에	-2257
▁오랜만에	-2258
▁바뀌	-2259
▁점점	-2260
▁사람들을	-2261
▁하게	-2262
▁때마다	-2263
▁포기	-2264
▁못했습니다	-2265
▁수행	-2266
▁실수	-2267
▁서류를	-2268
▁정확히	-2269
학생	-2270
▁기념	-2271
▁맛이	-2272
하기를	-2273
▁저한테	-2274
▁들었어요	-2275
▁문제는	-2276
▁이메일	-2277
▁술을	-2278
겠다고	-2279
적이고	-2280
▁메시지를	-2281
▁감사하겠습니다	-2282
▁않으	-2283
▁괜찮을	-2284
▁어떠한	-2285
▁있으며	-2286
▁넓	-2287
▁육	-2288
면을	-2289
▁대체	-2290
▁송금	-2291
하시고	-2292
한다는	-2293
on	-2294
▁뭘	-2295
주고	-2296
▁발급	-2297
▁차이가	-2298
▁구조	-2299
하거나	-2300
▁꺼	-2301
▁면세	-2302
▁이는	-2303
▁정상	-2304
▁지켜	-2305
점에	-2306
▁품질	-2307
▁대하여	-2308
▁완전히	-2309
▁없었습니다	-2310
▁동의	-2311
았는데	-2312
자와	-2313
▁쓰는	-2314
▁확인해보	-2315
▁왼	-2316
문을	-2317
지의	-2318
표를	-2319
▁걸릴	-2320
▁샘플을	-2321
▁탑	-2322
어진	-2323
▁나무	-2324
▁찍어	-2325
▁편안	-2326
님께서	-2327
▁자신을	-2328
즈니	-2329
▁만났	-2330
▁인기	-2331
▁평가	-2332
▁빛	-2333
었을	-2334
▁못할	-2335
▁스포츠	-2336
르면	-2337
▁부서	-2338
▁인사	-2339
나는	-2340
▁남은	-2341
▁더는	-2342
▁빠르게	-2343
▁캠	-2344
층에	-2345
▁그룹	-2346
하고자	-2347
▁냄	-2348
어는	-2349
▁선물을	-2350
▁여자친구	-2351
스럽게	-2352
▁일요일	-2353
▁대부분의	-2354
▁봐요	-2355
▁완성	-2356
▁운송	-2357
옵니다	-2358
페이지	-2359
▁메일로	-2360
더라고요	-2361
▁습	-2362
▁방송	-2363
▁제시	-2364
하다는	-2365
▁주십시오	-2366
▁N	-2367
▁일하고	-2368
인가	-2369
▁대단	-2370
▁영상	-2371
▁올려	-2372
▁그동안	-2373
▁거짓	-2374
▁비싸	-2375
▁인도	-2376
▁아래와	-2377
▁선수	-2378
▁취미	-2379
▁택배	-2380
년이	-2381
명을	-2382
▁기회가	-2383
in	-2384
했지만	-2385
▁그곳에	-2386
▁않아도	-2387
▁크리스마	-2388
▁엔	-2389
▁언제쯤	-2390
여행	-2391
회에	-2392
▁했던	-2393
시까지	-2394
▁R	-2395
▁봅	-2396
▁어때요	-2397
▁감사드립니다	-2398
기고	-2399
▁나랑	-2400
▁삶을	-2401
▁설정	-2402
▁제거	-2403
일까지	-2404
▁그렇지	-2405
▁과거	-2406
▁정해	-2407
▁사람에게	-2408
▁훌	-2409
▁테이	-2410
▁괜찮은	-2411
▁우린	-2412
▁아마도	-2413
▁정도로	-2414
▁벗	-2415
▁그날	-2416
▁출시	-2417
하네요	-2418
▁남자는	-2419
▁그렇군요	-2420
▁압	-2421
카오	-2422
▁합니까	-2423
비가	-2424
▁에어	-2425
▁종류의	-2426
스의	-2427
▁부드	-2428
▁할지	-2429
되어야	-2430
▁가격은	-2431
▁친구는	-2432
▁프로젝트	-2433
▁잊지	-2434
▁사랑하는	-2435
▁퍼	-2436
관이	-2437
기와	-2438
렸을	-2439
▁40	-2440
▁밖에	-2441
▁성적	-2442
▁재료	-2443
▁때부터	-2444
▁작업을	-2445
▁샤	-2446
관을	-2447
자에	-2448
▁반응	-2449
▁어쩔	-2450
▁빵	-2451
크를	-2452
자들은	-2453
주시면	-2454
▁갔어요	-2455
▁사진은	-2456
▁추천해	-2457
▁셔	-2458
▁근데	-2459
▁날이	-2460
▁페이스	-2461
▁거라고	-2462
▁리스트	-2463
▁비용을	-2464
▁않았어	-2465
전거	-2466
▁깨끗	-2467
▁맞아	-2468
▁하니	-2469
품이	-2470
▁있던	-2471
▁비용이	-2472
주실	-2473
▁밤에	-2474
▁챙겨	-2475
하셔야	-2476
▁먹으면	-2477
▁사라	-2478
▁좌석	-2479
▁파일	-2480
▁현금	-2481
▁혹은	-2482
▁월요일에	-2483
▁어렵습니다	-2484
▁장난	-2485
▁갔습니다	-2486
▁상처	-2487
▁예를	-2488
▁유럽	-2489
▁적당	-2490
드려요	-2491
▁가르쳐	-2492
▁O	-2493
서가	-2494
▁건지	-2495
▁맥주	-2496
▁기회를	-2497
▁있을까	-2498
▁면접	-2499
하려면	-2500
대가	-2501
지와	-2502
▁비밀	-2503
▁교수님	-2504
▁맞나요	-2505
▁폐	-2506
드가	-2507
▁가득	-2508
실에서	-2509
▁것보다	-2510
▁싶어서	-2511
▁휴대폰	-2512
▁뿌	-2513
임을	-2514
하기로	-2515
▁인기가	-2516
▁못했어요	-2517
▁솔직	-2518
지로	-2519
▁가입	-2520
▁교체	-2521
▁이사	-2522
▁제한	-2523
▁귀사의	-2524
▁병원에	-2525
▁자료를	-2526
▁잠시만	-2527
▁언니	-2528
▁입학	-2529
▁도착할	-2530
느라	-2531
만을	-2532
▁보내고	-2533
▁상황을	-2534
▁일하는	-2535
▁검색	-2536
▁치즈	-2537
▁확실히	-2538
상의	-2539
▁이곳은	-2540
▁가요	-2541
▁자격	-2542
▁엘	-2543
▁너도	-2544
▁휴가	-2545
었지만	-2546
▁나머지	-2547
▁생각하고	-2548
가락	-2549
▁18	-2550
▁원해요	-2551
▁하면서	-2552
▁흡	-2553
▁동아	-2554
▁조용	-2555
▁자전거	-2556
▁있으신가요	-2557
래도	-2558
▁관심을	-2559
▁한국은	-2560
▁동생	-2561
▁쓰고	-2562
▁일정이	-2563
▁예전	-2564
했다고	-2565
▁할머니	-2566
▁가기	-2567
▁축구	-2568
▁노래를	-2569
경을	-2570
였어	-2571
▁비슷한	-2572
▁마무	-2573
▁물을	-2574
▁알려줄	-2575
▁겪	-2576
▁단계	-2577
▁이를	-2578
▁하나의	-2579
해주시면	-2580
▁같은데요	-2581
▁그녀에게	-2582
▁궁금합니다	-2583
트로	-2584
▁25	-2585
▁이어	-2586
▁포인	-2587
▁훌륭	-2588
스토랑	-2589
▁번째로	-2590
▁파일을	-2591
라이	-2592
하다	-2593
▁색깔	-2594
▁헤어	-2595
▁시험을	-2596
▁않나요	-2597
▁섬	-2598
▁그랬	-2599
▁뭐가	-2600
▁부분을	-2601
▁이용할	-2602
여서	-2603
▁실례	-2604
▁인상	-2605
▁조사	-2606
▁않도록	-2607
▁어린이	-2608
▁즐겁게	-2609
▁레스토랑	-2610
우는	-2611
▁검사	-2612
▁느낄	-2613
▁못해서	-2614
▁페이스북	-2615
▁예정이에요	-2616
▁뛰어	-2617
▁수술	-2618
▁쓰레	-2619
▁계획을	-2620
▁미안하지만	-2621
▁뽑	-2622
거리	-2623
▁뉴욕	-2624
장으로	-2625
▁수리	-2626
▁마시고	-2627
▁저번에	-2628
▁멈	-2629
▁지연	-2630
▁치킨	-2631
▁만나서	-2632
▁확인할	-2633
▁느꼈	-2634
▁다들	-2635
▁만들고	-2636
▁잃어버	-2637
▁주인공	-2638
▁나올	-2639
▁놀러	-2640
▁마시	-2641
▁하죠	-2642
▁한데	-2643
▁모르겠어	-2644
▁대중	-2645
▁참가	-2646
▁홍콩	-2647
▁결과를	-2648
▁고마워	-2649
▁대해서는	-2650
▁알려주시면	-2651
받을	-2652
▁생기	-2653
▁않게	-2654
▁하시	-2655
▁후회	-2656
▁한국인	-2657
산을	-2658
운데	-2659
▁짐을	-2660
▁경험이	-2661
▁연락이	-2662
▁달러	-2663
▁제조	-2664
▁컬러	-2665
▁번호를	-2666
▁한다는	-2667
▁년	-2668
▁24	-2669
▁나아	-2670
▁좋았	-2671
▁사진이	-2672
▁냄새	-2673
▁버튼	-2674
▁오랫	-2675
▁초콜	-2676
▁투자	-2677
▁배우고	-2678
드릴까요	-2679
▁보냅니다	-2680
▁덜	-2681
▁푸	-2682
심을	-2683
▁담배	-2684
▁당장	-2685
▁말할	-2686
▁보험	-2687
▁이탈	-2688
▁환전	-2689
▁그녀를	-2690
▁달라고	-2691
▁따뜻한	-2692
▁아무래도	-2693
▁쌓	-2694
▁칼	-2695
▁콜	-2696
▁바쁘	-2697
▁방학	-2698
▁지구	-2699
▁러	-2700
정에	-2701
▁곳은	-2702
▁금방	-2703
▁오지	-2704
▁있었던	-2705
소가	-2706
▁실험	-2707
▁심각	-2708
▁되는지	-2709
▁요청한	-2710
▁오랫동안	-2711
▁말한	-2712
▁음악을	-2713
▁전화번호	-2714
▁만난	-2715
▁사람들의	-2716
학년	-2717
▁너랑	-2718
▁마을	-2719
▁200	-2720
▁주소를	-2721
디어	-2722
상은	-2723
▁단순	-2724
▁병원	-2725
▁자꾸	-2726
▁주신	-2727
▁할까요	-2728
▁스마트폰	-2729
▁아내	-2730
었으면	-2731
an	-2732
▁걷	-2733
천히	-2734
▁스테	-2735
▁인정	-2736
▁찍은	-2737
▁가려고	-2738
▁이곳에	-2739
▁천천히	-2740
▁수수	-2741
▁주요	-2742
▁중인	-2743
▁너무나	-2744
▁왔는데	-2745
만이	-2746
▁하늘	-2747
▁누군가	-2748
▁들었어	-2749
▁아니고	-2750
▁무엇입니까	-2751
▁렌	-2752
▁흐	-2753
부를	-2754
실로	-2755
통을	-2756
▁분이	-2757
▁앞에서	-2758
▁걱정하지	-2759
▁묻	-2760
▁들을	-2761
▁빨간	-2762
▁시켜	-2763
▁여유	-2764
▁답변을	-2765
▁의견을	-2766
▁지내고	-2767
▁명이	-2768
▁미술	-2769
▁시도	-2770
▁하루에	-2771
▁종종	-2772
▁말이야	-2773
▁오후에	-2774
▁초콜릿	-2775
▁카드를	-2776
업을	-2777
▁끝내	-2778
▁정류	-2779
▁해보	-2780
▁것이라고	-2781
▁줬	-2782
로서	-2783
▁생겨	-2784
▁수준	-2785
▁예쁘	-2786
▁해줄	-2787
▁화가	-2788
▁춤	-2789
▁도전	-2790
▁착용	-2791
갑니다	-2792
▁거짓말	-2793
▁물건이	-2794
▁카카오	-2795
▁J	-2796
드려	-2797
듯이	-2798
▁마무리	-2799
▁여자가	-2800
▁진심으로	-2801
ar	-2802
고를	-2803
▁나쁜	-2804
이지만	-2805
자들이	-2806
▁고객이	-2807
▁배송이	-2808
▁이메일로	-2809
책을	-2810
▁실패	-2811
▁요금	-2812
했으면	-2813
▁정말로	-2814
▁상담	-2815
▁판단	-2816
▁하셨	-2817
▁사랑을	-2818
비는	-2819
▁회사가	-2820
달라고	-2821
▁상품이	-2822
▁프로그램을	-2823
리로	-2824
▁과제	-2825
▁몸이	-2826
▁오더	-2827
▁캐나	-2828
▁특징	-2829
▁파트	-2830
▁거기에	-2831
▁한국으로	-2832
▁그와	-2833
▁세탁	-2834
▁다이어	-2835
▁TV	-2836
▁앉아	-2837
▁부분은	-2838
▁가시면	-2839
▁끝나고	-2840
▁0	-2841
▁접수	-2842
▁이메일을	-2843
▁증명	-2844
하는지	-2845
▁찬	-2846
▁말은	-2847
▁매출	-2848
▁무서	-2849
▁복잡	-2850
▁싶다	-2851
▁현대	-2852
▁내용이	-2853
▁아무리	-2854
▁어떨까요	-2855
리의	-2856
▁검은	-2857
웠어요	-2858
▁것들이	-2859
▁곳에서	-2860
▁사이트	-2861
▁자세한	-2862
번째	-2863
▁에너	-2864
명의	-2865
▁조직	-2866
▁편리	-2867
▁가방을	-2868
▁당연히	-2869
▁모르는	-2870
▁상황이	-2871
▁준비를	-2872
카드	-2873
프를	-2874
▁다가	-2875
▁생긴	-2876
관에서	-2877
▁아래의	-2878
▁어렸을	-2879
▁사용하고	-2880
봐도	-2881
▁가자	-2882
▁밥을	-2883
▁아쉽	-2884
▁적은	-2885
주셔서	-2886
▁생각보다	-2887
▁젊	-2888
▁갔다	-2889
▁대기	-2890
▁돌려	-2891
하시나요	-2892
아웃	-2893
할게	-2894
▁오직	-2895
▁우유	-2896
▁짓	-2897
▁과학	-2898
해주시기	-2899
▁땅	-2900
으나	-2901
▁나이	-2902
▁내리	-2903
▁행사	-2904
▁맞아요	-2905
▁때가	-2906
▁바이	-2907
▁없다	-2908
▁즐길	-2909
▁그림을	-2910
지면	-2911
▁언젠	-2912
▁전자	-2913
됩니까	-2914
▁되었어요	-2915
면에	-2916
심이	-2917
하던	-2918
▁것들을	-2919
▁오늘도	-2920
▁캐나다	-2921
▁낫	-2922
별로	-2923
품은	-2924
▁명의	-2925
▁시각	-2926
▁초대	-2927
▁괜찮아	-2928
▁아이가	-2929
▁산업	-2930
▁언어	-2931
▁전략	-2932
▁비즈니	-2933
료가	-2934
물은	-2935
▁대답	-2936
▁암	-2937
▁옛	-2938
▁경영	-2939
▁데려	-2940
▁체험	-2941
▁아름답	-2942
▁영수증	-2943
▁잘못된	-2944
▁확인을	-2945
상에	-2946
실은	-2947
▁그저	-2948
▁만한	-2949
▁아르	-2950
▁없으면	-2951
▁보내주신	-2952
▁깜	-2953
식은	-2954
▁곳을	-2955
▁된다	-2956
납니다	-2957
▁끌	-2958
터를	-2959
▁꾸준	-2960
▁맞추	-2961
▁적응	-2962
사이트	-2963
▁만나는	-2964
▁선생님이	-2965
▁좋아하지	-2966
▁값	-2967
▁걸어	-2968
▁배가	-2969
▁수출	-2970
▁스페	-2971
▁가능해요	-2972
▁없었어요	-2973
란색	-2974
장의	-2975
▁분실	-2976
▁수학	-2977
▁자고	-2978
▁활동을	-2979
▁V	-2980
▁‘	-2981
▁닭	-2982
만한	-2983
이션	-2984
▁때도	-2985
▁바빠	-2986
▁지키	-2987
드리고	-2988
▁들어오	-2989
▁비용은	-2990
▁사이에	-2991
▁벽	-2992
시피	-2993
음이	-2994
▁진행할	-2995
단을	-2996
으시	-2997
▁예전에	-2998
▁인터뷰	-2999
▁준비해	-3000
▁프랑스	-3001
▁홈페이지	-3002
하죠	-3003
▁귀하	-3004
▁인보이스	-3005
▁흘	-3006
시켜	-3007
▁선호	-3008
▁조절	-3009
▁내용은	-3010
▁봤어요	-3011
▁이름이	-3012
▁이번에는	-3013
가고	-3014
▁들은	-3015
▁하며	-3016
▁보내는	-3017
▁보내준	-3018
▁사항이	-3019
▁곡	-3020
▁독일	-3021
▁맞지	-3022
▁승인	-3023
▁식사를	-3024
▁요리를	-3025
▁이전에	-3026
▁편지를	-3027
▁부탁합니다	-3028
▁매운	-3029
▁신뢰	-3030
▁여권	-3031
이네요	-3032
▁다음과	-3033
▁실제로	-3034
▁역할을	-3035
▁언제까지	-3036
성에	-3037
▁뭔가	-3038
▁박물	-3039
▁하러	-3040
▁이탈리아	-3041
동을	-3042
▁거지	-3043
▁상당	-3044
▁저와	-3045
▁전쟁	-3046
▁찾는	-3047
▁탑승	-3048
▁페이	-3049
▁남자가	-3050
▁무료로	-3051
▁테이블	-3052
▁받았어요	-3053
▁싶은데요	-3054
▁기재	-3055
▁돼서	-3056
▁되기	-3057
▁직원이	-3058
▁닫	-3059
구가	-3060
이죠	-3061
▁거라	-3062
▁글을	-3063
▁번에	-3064
▁시설	-3065
▁금요일에	-3066
▁사용하지	-3067
겠죠	-3068
내에	-3069
회를	-3070
▁가을	-3071
▁대리	-3072
▁마사	-3073
▁버전	-3074
▁숙소	-3075
▁있죠	-3076
▁말씀해	-3077
▁뒷	-3078
▁예쁜	-3079
▁작년	-3080
▁전해	-3081
▁접근	-3082
▁하여	-3083
▁받아야	-3084
▁없지만	-3085
or	-3086
▁요청합니다	-3087
▁봄	-3088
▁넘어	-3089
▁바닥	-3090
▁엄마가	-3091
▁구체	-3092
해주실	-3093
▁언제든지	-3094
▁밑	-3095
성은	-3096
▁번도	-3097
▁효율	-3098
▁힘이	-3099
▁머리를	-3100
▁자세히	-3101
▁가능할까요	-3102
▁나눠	-3103
▁응원	-3104
▁편의	-3105
으려고	-3106
▁드릴까요	-3107
▁미안해요	-3108
줘요	-3109
▁가치	-3110
▁내년	-3111
▁상상	-3112
▁손을	-3113
왔어요	-3114
▁문제에	-3115
▁이상의	-3116
▁능력	-3117
▁오류	-3118
▁외부	-3119
▁충전	-3120
▁긍정적인	-3121
▁떡	-3122
▁13	-3123
▁그다	-3124
▁내에	-3125
▁늦어	-3126
▁안에서	-3127
▁호텔에	-3128
▁들었는데	-3129
리카	-3130
안을	-3131
▁새벽	-3132
▁측정	-3133
▁사람과	-3134
끄러	-3135
았다	-3136
▁규칙	-3137
▁길이	-3138
▁반영	-3139
▁어쩌	-3140
▁제발	-3141
▁하나도	-3142
▁학생들이	-3143
▁가정	-3144
겠지	-3145
▁멀리	-3146
▁방이	-3147
▁봐야	-3148
▁빠져	-3149
▁시절	-3150
▁에이	-3151
▁프린	-3152
▁보내줄	-3153
치고	-3154
▁건축	-3155
▁적절	-3156
▁콘서	-3157
부터는	-3158
▁미안해	-3159
▁상품은	-3160
▁수요일	-3161
▁쓴	-3162
목을	-3163
지게	-3164
▁매력	-3165
▁이슈	-3166
▁자재	-3167
대학교	-3168
▁동시에	-3169
▁상관없	-3170
▁이유로	-3171
▁페이지	-3172
▁편하게	-3173
원입니다	-3174
▁생각하지	-3175
트남	-3176
셨으면	-3177
▁한국에서는	-3178
▁맨	-3179
▁삭	-3180
께서	-3181
뿐만	-3182
식에	-3183
▁소요	-3184
▁학습	-3185
▁베트남	-3186
▁룸	-3187
▁다운	-3188
▁목소	-3189
▁종일	-3190
▁것인지	-3191
▁체크인	-3192
al	-3193
▁구경	-3194
▁발행	-3195
▁스티	-3196
▁차량	-3197
▁필수	-3198
▁우리를	-3199
▁관련하여	-3200
▁다릅니다	-3201
▁어디에서	-3202
▁이곳에서	-3203
▁토요일에	-3204
▁W	-3205
▁깔	-3206
▁반품	-3207
▁쿠폰	-3208
바이트	-3209
▁업무를	-3210
▁저녁을	-3211
▁준비가	-3212
▁커피를	-3213
해보세요	-3214
도의	-3215
▁방을	-3216
▁보이지	-3217
▁고마워요	-3218
▁모릅니다	-3219
▁동네	-3220
▁백화	-3221
▁파악	-3222
▁그것에	-3223
▁그러므로	-3224
▁까	-3225
▁불량	-3226
▁실망	-3227
▁아기	-3228
▁영원	-3229
▁기능을	-3230
▁된다고	-3231
▁한다면	-3232
▁햄	-3233
함이	-3234
▁귀여	-3235
▁주지	-3236
시부터	-3237
▁간단한	-3238
▁이유를	-3239
▁이후에	-3240
▁좋아서	-3241
▁회사를	-3242
▁그곳에서	-3243
▁카카오톡	-3244
시를	-3245
▁배울	-3246
▁회원	-3247
쁩니다	-3248
▁그들에게	-3249
▁촉	-3250
멤버	-3251
▁관람	-3252
▁반복	-3253
▁타는	-3254
식으로	-3255
▁약속을	-3256
▁여동생	-3257
▁웹사이트	-3258
▁홀	-3259
▁거니	-3260
▁목록	-3261
▁물이	-3262
▁약을	-3263
볼게요	-3264
▁만약에	-3265
▁이제는	-3266
▁아이들이	-3267
▁16	-3268
▁소녀	-3269
▁어른	-3270
▁얻을	-3271
▁영양	-3272
▁되어서	-3273
▁있으세요	-3274
▁사람이에요	-3275
▁보내드리겠습니다	-3276
거야	-3277
▁리더	-3278
업체	-3279
▁기뻐	-3280
▁노트	-3281
▁바꿀	-3282
▁어젯	-3283
▁겁니까	-3284
▁얘기를	-3285
해주셔서	-3286
▁사람들과	-3287
▁런	-3288
▁센	-3289
고에	-3290
받고	-3291
위에	-3292
▁입장	-3293
▁지갑	-3294
▁없네요	-3295
▁괜찮아요	-3296
▁연주	-3297
▁적어	-3298
▁차이	-3299
▁못하는	-3300
▁어젯밤	-3301
▁일주일에	-3302
▁흰	-3303
▁기반	-3304
▁대략	-3305
▁발주	-3306
▁가족은	-3307
▁곳으로	-3308
▁남겨	-3309
▁넣고	-3310
▁단체	-3311
▁조정	-3312
▁텔	-3313
보자	-3314
제가	-3315
▁눈을	-3316
▁이에	-3317
▁책은	-3318
▁패션	-3319
▁향상	-3320
▁가려면	-3321
▁효과가	-3322
▁말했어요	-3323
▁아닌가요	-3324
▁낙	-3325
로드	-3326
▁14	-3327
▁범죄	-3328
▁브라	-3329
▁대화를	-3330
▁솔직히	-3331
▁중요합니다	-3332
▁펜	-3333
▁픽	-3334
▁실행	-3335
▁어떡	-3336
▁와이	-3337
▁태국	-3338
▁태어	-3339
▁하자	-3340
▁소중한	-3341
▁힘들어	-3342
▁처음으로	-3343
▁루	-3344
▁동영	-3345
▁적극	-3346
▁예약이	-3347
▁오세요	-3348
▁있었다	-3349
▁$	-3350
▁핵	-3351
대의	-3352
아버	-3353
우고	-3354
▁멤버	-3355
▁비싼	-3356
▁소통	-3357
▁자랑	-3358
▁출고	-3359
▁어려울	-3360
▁첨부된	-3361
▁아르바이트	-3362
▁괴	-3363
▁묵	-3364
▁썼	-3365
텐츠	-3366
▁그중	-3367
▁금액을	-3368
▁스타일	-3369
과의	-3370
대체	-3371
▁기도	-3372
▁잡아	-3373
▁참조	-3374
▁됩니까	-3375
▁알아요	-3376
▁파트너	-3377
▁입어	-3378
화가	-3379
▁갈아	-3380
▁마련	-3381
▁매장	-3382
▁읽어	-3383
▁정치	-3384
▁주면	-3385
해주는	-3386
▁거기서	-3387
▁구매할	-3388
▁상황에	-3389
▁가능하다면	-3390
▁스트레스를	-3391
학과	-3392
▁인쇄	-3393
▁텔레	-3394
▁경우가	-3395
▁도대체	-3396
▁그렇지만	-3397
▁보냈습니다	-3398
▁요소	-3399
▁읽고	-3400
▁아무도	-3401
▁가능한지	-3402
▁여기에서	-3403
▁링	-3404
▁훈	-3405
이다	-3406
▁마감	-3407
▁역사	-3408
▁옛날	-3409
▁지도	-3410
▁모두가	-3411
▁부분에	-3412
셨습니다	-3413
▁사람입니다	-3414
쳐서	-3415
▁매니	-3416
▁방에	-3417
▁익숙	-3418
▁돌아오	-3419
▁서울에	-3420
▁경우에는	-3421
▁핸드폰을	-3422
▁호텔에서	-3423
▁기사	-3424
▁봉사	-3425
▁소리	-3426
▁숙박	-3427
▁적합	-3428
▁당신도	-3429
▁봅니다	-3430
▁이용해	-3431
▁몇몇	-3432
▁통과	-3433
▁현지	-3434
▁금액이	-3435
▁먹으러	-3436
▁버스가	-3437
▁앞으로도	-3438
▁일요일에	-3439
▁행복하게	-3440
이었습니다	-3441
▁생각했어요	-3442
▁굴	-3443
졌어	-3444
▁말아	-3445
▁오빠	-3446
하기에	-3447
▁못하고	-3448
▁소개해	-3449
▁황	-3450
대한	-3451
림을	-3452
▁문을	-3453
▁연기	-3454
▁장비	-3455
▁가족과	-3456
▁데이트	-3457
▁분명히	-3458
▁이해할	-3459
▁자리를	-3460
▁엄청나게	-3461
분을	-3462
이란	-3463
▁놀라	-3464
▁빌려	-3465
▁세부	-3466
▁저장	-3467
▁짧은	-3468
▁평균	-3469
역에서	-3470
정으로	-3471
▁카드로	-3472
▁맞습니다	-3473
▁제공합니다	-3474
▁크리스마스	-3475
▁고장	-3476
▁유행	-3477
▁입원	-3478
▁없다는	-3479
▁헬	-3480
마자	-3481
지어	-3482
▁바탕	-3483
▁속에	-3484
▁시청	-3485
▁위로	-3486
▁장면	-3487
프트	-3488
▁강한	-3489
▁애플	-3490
하니까	-3491
하셔서	-3492
▁재고가	-3493
mm	-3494
겠네	-3495
드린	-3496
성과	-3497
▁샤워	-3498
▁시원	-3499
▁왔어	-3500
되나요	-3501
▁됐어요	-3502
▁몰라요	-3503
▁소식을	-3504
▁공항에서	-3505
방을	-3506
질을	-3507
질이	-3508
▁고정	-3509
▁대통	-3510
▁등의	-3511
▁보다	-3512
▁스파	-3513
▁아픈	-3514
▁즉시	-3515
▁파는	-3516
▁확신	-3517
▁모습이	-3518
▁이상한	-3519
▁있었는데	-3520
수의	-3521
▁깊은	-3522
▁우편	-3523
▁프레	-3524
하시기	-3525
▁궁금한	-3526
▁목요일	-3527
▁없다면	-3528
차가	-3529
트워	-3530
▁간호	-3531
▁거리	-3532
▁문서	-3533
▁이익	-3534
▁클럽	-3535
원으로	-3536
▁다르게	-3537
▁만나고	-3538
▁정보가	-3539
▁택시를	-3540
▁포함되어	-3541
개가	-3542
▁사실을	-3543
▁c	-3544
▁튀	-3545
해를	-3546
▁눈에	-3547
▁인한	-3548
▁대통령	-3549
▁위하여	-3550
와서	-3551
▁두려	-3552
▁살펴	-3553
▁조언	-3554
▁지루	-3555
▁느낌이	-3556
▁주변에	-3557
▁행동을	-3558
▁만듭니다	-3559
무를	-3560
복을	-3561
지기	-3562
▁17	-3563
▁듣는	-3564
▁침대	-3565
▁거래처	-3566
▁지난주에	-3567
▁돕	-3568
들로	-3569
▁설계	-3570
▁보시면	-3571
▁에어컨	-3572
▁자리에	-3573
▁친구들	-3574
▁텔레비	-3575
▁재미있는	-3576
▁학생들은	-3577
져요	-3578
▁라이	-3579
▁무언	-3580
▁아쉬	-3581
▁주기	-3582
▁집은	-3583
▁캐릭	-3584
▁동일한	-3585
▁똑같은	-3586
▁못해요	-3587
▁부족한	-3588
▁좋겠다	-3589
▁방법으로	-3590
정은	-3591
▁동료	-3592
▁따른	-3593
▁마찬	-3594
▁결과가	-3595
▁수업이	-3596
▁올라가	-3597
▁화요일	-3598
▁가족들과	-3599
▁무엇인지	-3600
조건	-3601
▁달리	-3602
▁일할	-3603
▁존경	-3604
▁종이	-3605
구하고	-3606
▁그들을	-3607
▁자리가	-3608
▁하나는	-3609
▁있으니까	-3610
▁친구들은	-3611
at	-3612
▁웨	-3613
인과	-3614
▁등이	-3615
▁타이	-3616
▁꾸준히	-3617
▁마찬가지	-3618
▁먹지	-3619
▁엘리	-3620
▁즐기	-3621
▁공항에	-3622
▁관해서	-3623
▁디자인을	-3624
▁켜	-3625
로그	-3626
움이	-3627
▁금지	-3628
▁나갈	-3629
▁연예	-3630
▁즐겨	-3631
▁도와줄	-3632
▁않지만	-3633
▁화장품	-3634
▁계속해서	-3635
▁케	-3636
▁소재	-3637
▁설명해	-3638
▁필리핀에	-3639
되기	-3640
▁삭제	-3641
▁언급	-3642
▁이틀	-3643
▁타입	-3644
▁수업에	-3645
▁않는다	-3646
▁탐	-3647
원의	-3648
▁못해	-3649
▁스크	-3650
▁아닐	-3651
▁지각	-3652
▁좋아해	-3653
▁고객에게	-3654
거운	-3655
히려	-3656
▁무시	-3657
▁발라	-3658
▁불안	-3659
▁서버	-3660
▁장애	-3661
갔습니다	-3662
▁저희에게	-3663
▁정확하게	-3664
▁지금부터	-3665
▁보았습니다	-3666
스와	-3667
▁피아	-3668
▁회계	-3669
▁사업을	-3670
▁제품으로	-3671
내는	-3672
장과	-3673
▁방해	-3674
▁어릴	-3675
▁계약을	-3676
▁내일은	-3677
드리도록	-3678
드렸	-3679
로를	-3680
민국	-3681
▁로그	-3682
▁안타	-3683
▁힘을	-3684
일부터	-3685
▁검은색	-3686
▁미국에	-3687
▁보여요	-3688
▁연락처	-3689
▁콘텐츠	-3690
▁체크아웃	-3691
▁괜찮습니다	-3692
▁눌	-3693
▁잤	-3694
▁의료	-3695
▁더욱더	-3696
en	-3697
▁논의	-3698
▁올리	-3699
▁요새	-3700
만으로	-3701
하기가	-3702
▁게스트	-3703
▁되는데	-3704
▁물어보	-3705
▁오히려	-3706
▁둘러	-3707
▁세트	-3708
▁신입	-3709
▁우울	-3710
하기도	-3711
▁말하고	-3712
▁특별히	-3713
▁벨	-3714
고기	-3715
버거	-3716
줘야	-3717
▁보자	-3718
▁전기	-3719
▁가져가	-3720
▁머리가	-3721
▁손님이	-3722
▁훌륭한	-3723
▁숫	-3724
받은	-3725
▁강의	-3726
▁공식	-3727
▁문자	-3728
▁불구하고	-3729
▁시작했어요	-3730
▁섞	-3731
▁성과	-3732
▁예매	-3733
▁좋게	-3734
▁협의	-3735
겠는데	-3736
▁기억에	-3737
▁아파서	-3738
▁오전에	-3739
▁케이크	-3740
▁못합니다	-3741
려는	-3742
용을	-3743
▁물품	-3744
▁일상	-3745
▁체육	-3746
회에서	-3747
▁날짜를	-3748
▁들어간	-3749
들입니다	-3750
▁컵	-3751
가에	-3752
▁꿈은	-3753
▁가족이	-3754
▁그래요	-3755
▁아버지	-3756
▁아이스크	-3757
▁있으시면	-3758
▁혜	-3759
▁나쁘	-3760
▁배경	-3761
▁북한	-3762
▁뭐라고	-3763
▁배우는	-3764
▁요청을	-3765
▁이벤트	-3766
▁것입니까	-3767
▁혈	-3768
▁끝난	-3769
▁나은	-3770
▁당시	-3771
▁상세	-3772
▁여쭤	-3773
▁오픈	-3774
▁첫째	-3775
▁생활을	-3776
▁여자는	-3777
▁잘하는	-3778
▁직업을	-3779
▁쪽으로	-3780
▁한국어	-3781
▁친구에게	-3782
▁낼	-3783
▁뮤	-3784
▁섭	-3785
스틱	-3786
하우	-3787
▁강화	-3788
▁오고	-3789
▁유통	-3790
▁정책	-3791
▁지방	-3792
답니다	-3793
▁심지어	-3794
▁격	-3795
▁석	-3796
▁엑	-3797
름이	-3798
본을	-3799
▁구입	-3800
▁글로	-3801
▁보일	-3802
▁유일	-3803
▁점은	-3804
▁노트북	-3805
▁비디오	-3806
▁사장님	-3807
▁여름에	-3808
▁있네요	-3809
▁주시겠습니까	-3810
된다	-3811
란다	-3812
▁계신	-3813
▁쓰지	-3814
▁없었	-3815
▁환승	-3816
하지는	-3817
▁그녀와	-3818
▁소리가	-3819
▁속에서	-3820
▁가능성이	-3821
▁s	-3822
▁곤	-3823
▁기타	-3824
▁머물	-3825
▁쓰여	-3826
▁예방	-3827
용으로	-3828
으면서	-3829
▁500	-3830
▁행복해	-3831
적입니다	-3832
▁대한민국	-3833
▁친구들을	-3834
했기	-3835
▁21	-3836
▁건너	-3837
▁디저	-3838
▁센터	-3839
▁얼른	-3840
기에는	-3841
▁버튼을	-3842
▁혼자서	-3843
▁주문했는데	-3844
▁칠	-3845
님의	-3846
돼요	-3847
▁낮은	-3848
▁표를	-3849
▁하실	-3850
▁네트워	-3851
▁러시아	-3852
▁보면서	-3853
▁한국을	-3854
▁사용하여	-3855
▁좋을까요	-3856
kg	-3857
▁밴	-3858
세를	-3859
▁염색	-3860
▁행운	-3861
하라고	-3862
▁고양이	-3863
▁관계를	-3864
▁떨어져	-3865
▁봤는데	-3866
▁미국에서	-3867
▁죄송합니다만	-3868
NS	-3869
▁볶	-3870
▁국민	-3871
▁허락	-3872
스에서	-3873
▁필요할	-3874
하십시오	-3875
▁든	-3876
받는	-3877
율이	-3878
▁공격	-3879
▁긍정	-3880
▁대비	-3881
▁친한	-3882
▁고객의	-3883
▁누구나	-3884
▁능력을	-3885
▁수량을	-3886
▁주문이	-3887
드에	-3888
▁근육	-3889
▁단어	-3890
▁사장	-3891
▁신분	-3892
▁안정	-3893
▁맛있게	-3894
▁중학교	-3895
▁하네요	-3896
▁감사해요	-3897
▁하는데요	-3898
▁고맙습니다	-3899
▁슈	-3900
시킬	-3901
약을	-3902
▁감동	-3903
▁냉장	-3904
▁무척	-3905
▁보안	-3906
▁우체	-3907
▁한잔	-3908
칩니다	-3909
▁되어있	-3910
▁곁	-3911
관은	-3912
회의	-3913
▁셔틀	-3914
▁쉬는	-3915
인데요	-3916
으신가요	-3917
▁그러니까	-3918
▁이용하여	-3919
es	-3920
끼리	-3921
치지	-3922
회가	-3923
▁귀찮	-3924
▁조각	-3925
▁교육을	-3926
▁요즘은	-3927
▁작년에	-3928
▁사이즈가	-3929
명은	-3930
▁고생	-3931
▁매년	-3932
▁물리	-3933
▁보증	-3934
▁봤어	-3935
▁줘서	-3936
▁키가	-3937
▁들어요	-3938
▁테니까	-3939
▁할아버	-3940
▁그렇습니다	-3941
▁보내드립니다	-3942
▁샌	-3943
▁달려	-3944
▁젊은	-3945
▁중앙	-3946
▁품목	-3947
으시면	-3948
▁동아리	-3949
▁메시지	-3950
▁점심을	-3951
▁피아노	-3952
▁했지만	-3953
▁않는다면	-3954
많은	-3955
▁계절	-3956
▁매주	-3957
▁인증	-3958
▁확정	-3959
▁가이드	-3960
▁나라의	-3961
▁엄마는	-3962
▁이미지	-3963
▁충분한	-3964
▁바탕으로	-3965
▁없을까요	-3966
▁기초	-3967
▁계획이	-3968
▁그런지	-3969
▁문제로	-3970
▁사용해	-3971
▁휴가를	-3972
시겠어요	-3973
▁지하철을	-3974
▁삽	-3975
▁샐	-3976
력은	-3977
▁게시	-3978
▁기획	-3979
▁마침	-3980
▁유치	-3981
해보고	-3982
▁각각의	-3983
▁오른쪽	-3984
▁저렴한	-3985
▁회의를	-3986
▁영수증을	-3987
▁가능할	-3988
▁노력을	-3989
▁친구의	-3990
▁지난번에	-3991
▁부탁드려요	-3992
▁하였습니다	-3993
ol	-3994
▁폴	-3995
림픽	-3996
에만	-3997
으신	-3998
터가	-3999
향이	-4000
▁급한	-4001
▁중심	-4002
▁신제품	-4003
▁오래된	-4004
▁기다려주세요	-4005
▁땐	-4006
▁픽업	-4007
▁드디어	-4008
▁매니저	-4009
▁보여주	-4010
▁수밖에	-4011
▁옵	-4012
▁무게	-4013
▁부품	-4014
▁수많은	-4015
▁않을까	-4016
▁알아보	-4017
되었어요	-4018
부에	-4019
트의	-4020
▁23	-4021
▁60	-4022
▁맞게	-4023
▁배려	-4024
▁출구	-4025
그레이	-4026
▁들어갈	-4027
▁영화의	-4028
▁이미지를	-4029
▁말했습니다	-4030
▁객실	-4031
▁건조	-4032
▁소유	-4033
▁화면	-4034
▁환영	-4035
이었어	-4036
주시길	-4037
▁의사소	-4038
▁공부하고	-4039
▁있었으면	-4040
▁불가능합니다	-4041
▁층	-4042
타민	-4043
▁분리	-4044
▁했을	-4045
▁환자	-4046
▁없었어	-4047
▁관련해서	-4048
▁중요해요	-4049
드로	-4050
렸어	-4051
분은	-4052
▁특정	-4053
▁검사를	-4054
▁먹어야	-4055
▁티켓을	-4056
▁도착하면	-4057
▁니	-4058
리와	-4059
▁도쿄	-4060
▁사야	-4061
▁시내	-4062
▁완전	-4063
었다고	-4064
▁평소에	-4065
▁스테이크	-4066
▁아이들은	-4067
▁셀	-4068
게도	-4069
고가	-4070
년간	-4071
▁마실	-4072
▁몸에	-4073
▁훈련	-4074
▁과정을	-4075
▁도와주	-4076
▁요금이	-4077
▁이상이	-4078
▁기준으로	-4079
▁끈	-4080
즈를	-4081
▁독립	-4082
▁먹은	-4083
▁승무	-4084
▁신기	-4085
▁집이	-4086
▁공부할	-4087
▁시작할	-4088
▁아무런	-4089
▁시작했습니다	-4090
없는	-4091
인에	-4092
▁열쇠	-4093
▁들어서	-4094
▁목표를	-4095
▁비타민	-4096
▁우리도	-4097
▁좋다고	-4098
▁피부를	-4099
▁알려주실	-4100
▁얼마인가요	-4101
고는	-4102
기만	-4103
대는	-4104
수욕	-4105
▁간의	-4106
▁개를	-4107
▁김치	-4108
▁오신	-4109
▁직장	-4110
▁현실	-4111
▁방으로	-4112
▁부드럽	-4113
▁사항을	-4114
▁상태가	-4115
▁비행기를	-4116
▁억	-4117
▁윤	-4118
함과	-4119
▁가도	-4120
▁강력	-4121
▁그려	-4122
▁놓고	-4123
▁점을	-4124
▁취업	-4125
▁피드	-4126
▁합격	-4127
했다는	-4128
▁그곳은	-4129
▁다니는	-4130
▁따르면	-4131
▁문화를	-4132
▁아이를	-4133
▁하시면	-4134
▁먹었어요	-4135
▁컴퓨터를	-4136
▁주었습니다	-4137
▁옥	-4138
시죠	-4139
▁내야	-4140
▁밝은	-4141
▁삶의	-4142
▁서명	-4143
▁수익	-4144
▁인식	-4145
▁입구	-4146
▁점검	-4147
▁팀원	-4148
봤는데	-4149
▁다니고	-4150
▁프로젝트를	-4151
사로	-4152
운드	-4153
▁가슴	-4154
▁감소	-4155
▁고용	-4156
▁박스	-4157
▁의무	-4158
했는지	-4159
▁소리를	-4160
▁언젠가	-4161
▁우체국	-4162
▁인간의	-4163
▁주소로	-4164
▁힘들어요	-4165
과는	-4166
▁법을	-4167
▁보지	-4168
▁쉽지	-4169
▁옷이	-4170
▁타면	-4171
일까요	-4172
했나요	-4173
▁중이야	-4174
▁공부하는	-4175
el	-4176
▁꼬	-4177
돼서	-4178
법을	-4179
위가	-4180
임이	-4181
정보	-4182
제는	-4183
▁동작	-4184
▁샐러	-4185
▁생길	-4186
▁쉬운	-4187
▁시키	-4188
▁SNS	-4189
하십니까	-4190
▁모르겠습니다	-4191
▁생각했습니다	-4192
해드리겠습니다	-4193
▁팝	-4194
같이	-4195
이자	-4196
▁나면	-4197
▁베이	-4198
▁접속	-4199
▁패키	-4200
▁풍부	-4201
▁프리	-4202
었나요	-4203
▁그다음	-4204
▁받아서	-4205
▁원하지	-4206
▁괜찮을까요	-4207
▁씻	-4208
러운	-4209
▁나을	-4210
▁일로	-4211
케이션	-4212
▁기억이	-4213
▁만들기	-4214
▁버스는	-4215
▁여행은	-4216
▁예약하고	-4217
▁보내주시면	-4218
20	-4219
▁닮	-4220
르지	-4221
역에	-4222
종일	-4223
▁고통	-4224
▁끝났	-4225
▁드려	-4226
▁색상	-4227
까지만	-4228
▁가세요	-4229
▁나와서	-4230
▁아시아	-4231
▁피드백	-4232
▁부모님은	-4233
▁서울에서	-4234
▁팩	-4235
져야	-4236
▁1,	-4237
▁많고	-4238
▁배터	-4239
▁스키	-4240
▁작가	-4241
▁장기	-4242
베이터	-4243
합시다	-4244
▁강아지	-4245
▁구매한	-4246
▁기쁩니다	-4247
▁테스트를	-4248
▁엉	-4249
시가	-4250
▁기쁘	-4251
▁레이	-4252
▁보유	-4253
시키는	-4254
▁기간이	-4255
▁기다릴	-4256
▁되었어	-4257
▁상당히	-4258
쳤습니다	-4259
▁걸립니다	-4260
▁기다려야	-4261
▁나옵니다	-4262
▁디자이너	-4263
▁비즈니스	-4264
▁않을까요	-4265
▁끓	-4266
금은	-4267
▁달콤	-4268
▁사귀	-4269
▁사서	-4270
▁소설	-4271
▁협력	-4272
▁겉	-4273
▁굳	-4274
단에	-4275
선이	-4276
시길	-4277
웠어	-4278
▁과목	-4279
▁않기	-4280
주시고	-4281
▁기능이	-4282
▁미국의	-4283
▁보니까	-4284
▁영상을	-4285
▁전까지	-4286
▁햄버거	-4287
▁아이들을	-4288
▁쌀	-4289
역을	-4290
형을	-4291
▁될까	-4292
▁모바	-4293
▁알았	-4294
▁적혀	-4295
▁좋고	-4296
▁충격	-4297
▁바란다	-4298
▁이해가	-4299
▁부모님이	-4300
10	-4301
두고	-4302
조차	-4303
화된	-4304
▁시계	-4305
▁지났	-4306
▁지정	-4307
▁한글	-4308
▁건강을	-4309
▁상대방	-4310
▁작업이	-4311
▁업그레이	-4312
▁현금으로	-4313
번에	-4314
▁갔어	-4315
▁거절	-4316
▁기내	-4317
▁둘째	-4318
▁이외	-4319
▁입을	-4320
깁니다	-4321
▁가까이	-4322
▁사회적	-4323
▁정도는	-4324
▁정도의	-4325
▁지금도	-4326
▁신용카드	-4327
▁맘	-4328
▁칭	-4329
리면	-4330
▁공장	-4331
▁과일	-4332
▁그들	-4333
▁신규	-4334
▁신호	-4335
▁인턴	-4336
▁자극	-4337
▁통한	-4338
번호를	-4339
▁걱정이	-4340
▁주문할	-4341
함으로써	-4342
▁언제부터	-4343
▁제외하고	-4344
▁1,000	-4345
cm	-4346
▁혁	-4347
신을	-4348
이의	-4349
▁고향	-4350
▁남는	-4351
▁반송	-4352
▁마치고	-4353
▁셔틀버	-4354
▁스티커	-4355
▁약속이	-4356
자입니다	-4357
▁원하시는	-4358
▁미안합니다	-4359
▁만들었습니다	-4360
▁롤	-4361
▁탔	-4362
▁골프	-4363
▁싱가	-4364
▁유용	-4365
▁정의	-4366
▁중이	-4367
▁차지	-4368
으로서	-4369
▁사용을	-4370
▁있을지	-4371
▁화장실	-4372
▁여러분은	-4373
워야	-4374
▁몸을	-4375
▁일으	-4376
▁창의	-4377
▁타야	-4378
있어요	-4379
▁여기가	-4380
▁피부에	-4381
▁좋아하고	-4382
▁먹었습니다	-4383
▁p	-4384
문이	-4385
사한	-4386
▁길에	-4387
▁바쁜	-4388
▁신선	-4389
▁어두	-4390
▁연극	-4391
▁추석	-4392
▁평생	-4393
▁물건은	-4394
▁생각할	-4395
▁방향으로	-4396
▁이용해서	-4397
▁좋아해서	-4398
▁초등학교	-4399
▁엘리베이터	-4400
센트	-4401
에겐	-4402
▁다섯	-4403
▁만에	-4404
▁발달	-4405
▁토론	-4406
▁흰색	-4407
인들은	-4408
▁나가서	-4409
▁적절한	-4410
▁무엇보다	-4411
▁a	-4412
▁척	-4413
▁히	-4414
와의	-4415
▁높아	-4416
▁말했	-4417
▁모니	-4418
▁삼성	-4419
▁야근	-4420
▁종교	-4421
▁빨간색	-4422
▁알아야	-4423
▁이후로	-4424
▁일본의	-4425
▁과정에서	-4426
▁사용합니다	-4427
ic	-4428
▁균	-4429
▁계란	-4430
▁고급	-4431
▁규모	-4432
▁말도	-4433
▁물에	-4434
▁스위	-4435
▁잡고	-4436
▁커플	-4437
▁허용	-4438
▁가는데	-4439
▁느낌을	-4440
▁샀는데	-4441
▁올림픽	-4442
▁것인가요	-4443
▁일반적으로	-4444
교육	-4445
데요	-4446
문에	-4447
소에	-4448
▁늦은	-4449
▁다루	-4450
▁사례	-4451
▁시행	-4452
▁야구	-4453
▁연장	-4454
▁전망	-4455
▁차별	-4456
▁감정을	-4457
▁글로벌	-4458
▁금액은	-4459
▁말하지	-4460
▁소비자	-4461
▁심각한	-4462
▁영어가	-4463
▁일어났	-4464
▁조금씩	-4465
▁진정한	-4466
▁해수욕	-4467
▁내일까지	-4468
▁낭	-4469
▁비해	-4470
▁위의	-4471
▁바빠서	-4472
▁하시는	-4473
▁확인이	-4474
▁진행하고	-4475
▁처음에는	-4476
.5	-4477
등을	-4478
적을	-4479
체를	-4480
▁말에	-4481
▁배운	-4482
▁외에	-4483
시간에	-4484
▁남동생	-4485
▁실력이	-4486
▁아마존	-4487
▁오늘이	-4488
▁전부터	-4489
▁요청하신	-4490
▁열어	-4491
▁예측	-4492
▁조립	-4493
▁해변	-4494
▁걸어가	-4495
▁미래에	-4496
▁영화가	-4497
▁친구랑	-4498
▁하나를	-4499
▁하니까	-4500
▁학교를	-4501
하셨나요	-4502
▁주문하신	-4503
▁뇌	-4504
▁셋	-4505
료는	-4506
▁양념	-4507
▁연휴	-4508
▁오해	-4509
▁잠이	-4510
▁주장	-4511
▁채널	-4512
▁항목	-4513
▁호주	-4514
▁그러니	-4515
▁냄새가	-4516
▁발표를	-4517
▁사용한	-4518
▁쓰레기	-4519
▁안내해	-4520
▁있기를	-4521
▁청소년	-4522
냈습니다	-4523
▁방식으로	-4524
▁보냈어요	-4525
▁일입니다	-4526
▁자유롭게	-4527
▁꼼	-4528
▁쳐	-4529
문화	-4530
시로	-4531
전이	-4532
▁기숙	-4533
▁놀랐	-4534
▁런던	-4535
▁쉬고	-4536
▁알지	-4537
▁아들이	-4538
▁안으로	-4539
▁생각에는	-4540
▁깎	-4541
리어	-4542
▁내내	-4543
▁봐도	-4544
▁부러	-4545
▁오렌	-4546
▁혜택	-4547
렸는데	-4548
트에서	-4549
▁먹어요	-4550
▁발생한	-4551
▁방문할	-4552
▁없으니	-4553
▁종류가	-4554
▁먹습니다	-4555
▁b	-4556
▁탁	-4557
으실	-4558
▁눌러	-4559
▁믿을	-4560
▁상의	-4561
▁초과	-4562
▁크림	-4563
▁결정을	-4564
▁생각엔	-4565
▁적어도	-4566
▁줄게요	-4567
▁개인적으로	-4568
▁확인해주세요	-4569
수한	-4570
▁가질	-4571
▁깔끔	-4572
▁소년	-4573
▁이끌	-4574
됐어요	-4575
▁것이고	-4576
▁계약서	-4577
▁공연을	-4578
▁에이전	-4579
니아	-4580
름을	-4581
▁각자	-4582
▁왼쪽	-4583
▁주방	-4584
▁파티를	-4585
해질	-4586
▁감자	-4587
▁그에	-4588
▁다이	-4589
▁명확	-4590
▁상승	-4591
▁선정	-4592
▁이따	-4593
▁절차	-4594
▁건강한	-4595
▁견적을	-4596
▁귀하의	-4597
▁여자를	-4598
▁연락해	-4599
▁개인적인	-4600
▁사무실에	-4601
▁개념	-4602
▁걸려	-4603
▁블랙	-4604
▁살짝	-4605
▁귀여운	-4606
▁드리고	-4607
▁엄청난	-4608
▁영원히	-4609
▁와이파	-4610
▁합시다	-4611
▁묶	-4612
▁의심	-4613
▁집안	-4614
겠군요	-4615
▁가격에	-4616
▁다행히	-4617
▁어울리는	-4618
▁오늘부터	-4619
▁진행하는	-4620
▁계획입니다	-4621
▁말씀하시는	-4622
소한	-4623
▁가볍	-4624
▁담아	-4625
▁드는	-4626
▁수요	-4627
▁외출	-4628
▁차례	-4629
▁했고	-4630
거에요	-4631
대에서	-4632
▁게다가	-4633
▁끝까지	-4634
▁내년에	-4635
▁답장을	-4636
▁생겨서	-4637
▁수량이	-4638
▁인생을	-4639
▁일본에	-4640
▁있어도	-4641
▁자전거를	-4642
▁닦	-4643
▁각종	-4644
▁남성	-4645
▁놀이	-4646
▁라벨	-4647
▁시리	-4648
▁야채	-4649
겠다는	-4650
▁느끼고	-4651
▁되었다	-4652
▁몰라서	-4653
▁안타깝	-4654
▁케이블	-4655
▁수요일에	-4656
▁재미있게	-4657
드렸습니다	-4658
▁생각하세요	-4659
ac	-4660
▁닿	-4661
물에	-4662
셔츠	-4663
아이	-4664
▁다닐	-4665
▁독특	-4666
▁머무	-4667
▁명절	-4668
▁월급	-4669
▁존중	-4670
▁채팅	-4671
갔어요	-4672
▁고객은	-4673
▁드라이	-4674
▁무조건	-4675
▁소프트	-4676
▁실수로	-4677
▁어제는	-4678
▁캐릭터	-4679
▁학생이	-4680
▁효과를	-4681
▁당신한테	-4682
▁아시나요	-4683
▁말씀해주세요	-4684
▁벤	-4685
물의	-4686
▁걸린	-4687
▁구글	-4688
▁그릇	-4689
▁멈추	-4690
▁올바	-4691
▁줄어	-4692
▁출입	-4693
▁결제를	-4694
▁나오지	-4695
▁나이가	-4696
▁약간의	-4697
▁장소를	-4698
▁처음에	-4699
▁들어가는	-4700
▁시스템을	-4701
▁의사소통	-4702
▁준비되어	-4703
▁상태입니다	-4704
집이	-4705
▁걸로	-4706
▁대응	-4707
▁딸이	-4708
▁설탕	-4709
▁예산	-4710
▁옮겨	-4711
▁흔들	-4712
▁대학생	-4713
▁사진과	-4714
▁손가락	-4715
▁휴대전	-4716
▁일이에요	-4717
봐요	-4718
었기	-4719
▁부디	-4720
▁비록	-4721
▁생선	-4722
▁영광	-4723
▁형성	-4724
되어서	-4725
▁가져오	-4726
▁걸어서	-4727
▁네트워크	-4728
▁알려주시기	-4729
▁앨	-4730
동이	-4731
위는	-4732
주가	-4733
▁거주	-4734
▁긴장	-4735
▁미용	-4736
▁주민	-4737
▁초기	-4738
▁출력	-4739
▁화려	-4740
하느라	-4741
▁광고를	-4742
▁식으로	-4743
▁알았어	-4744
▁예약한	-4745
▁추억을	-4746
▁출장을	-4747
▁2015	-4748
▁궁금해요	-4749
▁말합니다	-4750
▁쭉	-4751
진이	-4752
▁감정	-4753
▁극복	-4754
▁보았	-4755
▁붙여	-4756
▁수령	-4757
▁어깨	-4758
▁특이	-4759
인으로	-4760
킵니다	-4761
해주신	-4762
▁건강에	-4763
▁보고서	-4764
▁얼굴을	-4765
▁뵙	-4766
▁푹	-4767
냐고	-4768
리기	-4769
분의	-4770
▁경비	-4771
▁되길	-4772
▁아예	-4773
▁예뻐	-4774
▁유리	-4775
▁책이	-4776
▁콜라	-4777
▁투어	-4778
▁기술을	-4779
▁끝나면	-4780
▁당신께	-4781
▁받으면	-4782
▁선택한	-4783
▁작품을	-4784
▁주시고	-4785
▁지난주	-4786
▁페이팔	-4787
▁발생하는	-4788
주시겠습니까	-4789
▁옳	-4790
수에	-4791
▁복사	-4792
▁스토	-4793
▁커버	-4794
등학생	-4795
▁급하게	-4796
▁모바일	-4797
▁하도록	-4798
▁어떤가요	-4799
▁젖	-4800
있어	-4801
졌다	-4802
차피	-4803
▁공동	-4804
▁구분	-4805
▁노동	-4806
▁산책	-4807
▁할까	-4808
하다가	-4809
▁설명을	-4810
▁어차피	-4811
▁하던데	-4812
▁때문이야	-4813
▁흑	-4814
구는	-4815
웨어	-4816
해지	-4817
▁감독	-4818
▁드레	-4819
▁맛볼	-4820
▁부르	-4821
▁불이	-4822
▁싶을	-4823
▁쪽에	-4824
▁처방	-4825
여행을	-4826
층으로	-4827
▁관광객	-4828
▁메이크	-4829
▁바이어	-4830
▁쇼핑몰	-4831
▁요금을	-4832
▁저희도	-4833
▁파란색	-4834
▁가격으로	-4835
le	-4836
공항	-4837
리라	-4838
뮤니	-4839
▁자는	-4840
인들이	-4841
▁내용에	-4842
▁오시면	-4843
▁유일한	-4844
▁모르겠지만	-4845
대요	-4846
시기	-4847
역이	-4848
위로	-4849
짜리	-4850
▁믿고	-4851
▁말해요	-4852
▁신발을	-4853
▁완벽한	-4854
▁파스타	-4855
▁그러는데	-4856
▁도와드리겠습니다	-4857
it	-4858
용이	-4859
▁건은	-4860
▁근거	-4861
▁다만	-4862
▁많을	-4863
▁태풍	-4864
▁학기	-4865
드리면	-4866
▁납니다	-4867
▁돌아올	-4868
▁변화를	-4869
▁생각은	-4870
▁자동으로	-4871
▁묘	-4872
부는	-4873
▁가보	-4874
▁공개	-4875
▁뮤지	-4876
▁비자	-4877
▁스카	-4878
▁결혼을	-4879
▁경기를	-4880
▁사려고	-4881
▁숙제를	-4882
▁앉아서	-4883
▁오늘의	-4884
▁전문가	-4885
▁세계에서	-4886
▁스트레스	-4887
▁있는데요	-4888
▁프로그램은	-4889
▁알려드리겠습니다	-4890
함에	-4891
▁메모	-4892
▁무리	-4893
▁사전	-4894
▁성인	-4895
▁시즌	-4896
음으로	-4897
해지고	-4898
▁이내에	-4899
▁쪽에서	-4900
▁티셔츠	-4901
▁어젯밤에	-4902
50	-4903
쯤에	-4904
판을	-4905
▁27	-4906
▁답장	-4907
▁번씩	-4908
▁운행	-4909
▁이웃	-4910
▁일자	-4911
▁전송	-4912
▁좋다	-4913
▁풍경	-4914
▁혼란	-4915
▁활발	-4916
봅시다	-4917
해주고	-4918
▁결과는	-4919
▁그렇기	-4920
▁받아들	-4921
▁수업은	-4922
▁커뮤니	-4923
▁대표적인	-4924
▁이용하는	-4925
▁죄송해요	-4926
▁주문하고	-4927
▁보내겠습니다	-4928
▁햇	-4929
길래	-4930
률이	-4931
▁기원	-4932
▁새해	-4933
▁통합	-4934
▁하였	-4935
점으로	-4936
▁대학에	-4937
▁뭔가요	-4938
▁싱가포	-4939
▁않았다	-4940
▁잘하고	-4941
▁필요로	-4942
▁회사와	-4943
▁구매하고	-4944
▁데이터를	-4945
▁덮	-4946
금액	-4947
지니	-4948
▁도로	-4949
▁성실	-4950
▁신체	-4951
▁연말	-4952
▁지지	-4953
▁현장	-4954
▁협조	-4955
▁확보	-4956
▁흡연	-4957
해야만	-4958
▁대신에	-4959
▁미래를	-4960
▁밖에서	-4961
▁서류는	-4962
▁스페인	-4963
▁시작한	-4964
▁포함한	-4965
▁2016	-4966
리게	-4967
프로	-4968
▁가수	-4969
▁부착	-4970
▁상호	-4971
▁옷은	-4972
▁최초	-4973
▁회복	-4974
▁10%	-4975
▁경우는	-4976
▁뜨거운	-4977
▁마사지	-4978
▁번째는	-4979
▁사항은	-4980
▁샘플은	-4981
▁시험이	-4982
▁중으로	-4983
적이에요	-4984
▁아니지만	-4985
▁한국어를	-4986
BC	-4987
▁뻔	-4988
▁쉴	-4989
재를	-4990
▁감기	-4991
▁강남	-4992
▁바보	-4993
▁없기	-4994
▁유효	-4995
이스를	-4996
▁의미가	-4997
▁준비하고	-4998
왔어	-4999
▁보인	-5000
▁써야	-5001
▁재능	-5002
▁맞는지	-5003
▁전화해	-5004
▁알았어요	-5005
▁좋겠네요	-5006
나가	-5007
▁결론	-5008
▁노출	-5009
▁다녔	-5010
▁떡볶	-5011
▁방은	-5012
▁세금	-5013
▁출연	-5014
▁출하	-5015
▁칭찬	-5016
▁평범	-5017
하였고	-5018
▁공간이	-5019
▁구매를	-5020
▁밖으로	-5021
▁일정에	-5022
▁주시길	-5023
▁질문을	-5024
▁제공하는	-5025
▁죄송한데	-5026
▁판매하고	-5027
▁Q	-5028
계가	-5029
기한	-5030
▁갖추	-5031
▁맛을	-5032
▁오염	-5033
▁우연	-5034
▁종료	-5035
▁줄게	-5036
▁플라	-5037
봤어요	-5038
테이너	-5039
하려는	-5040
▁먹어도	-5041
▁신청을	-5042
▁행복을	-5043
▁보내세요	-5044
▁전화해서	-5045
▁하나입니다	-5046
▁낳	-5047
주를	-5048
화로	-5049
▁개최	-5050
▁꼼꼼	-5051
▁나요	-5052
▁넓은	-5053
▁방지	-5054
▁유니	-5055
▁자녀	-5056
▁해석	-5057
▁위치를	-5058
▁장소는	-5059
▁절대로	-5060
▁첨부파	-5061
▁봤습니다	-5062
▁뿐이에요	-5063
▁필요하신	-5064
▁말해주세요	-5065
▁펴	-5066
레르	-5067
류를	-5068
율을	-5069
진을	-5070
▁내로	-5071
▁돈은	-5072
▁바닷	-5073
▁이른	-5074
▁팀은	-5075
스러워	-5076
▁사이의	-5077
▁상품의	-5078
▁환불이	-5079
▁도착해서	-5080
▁보고서를	-5081
▁선생님은	-5082
▁싶었어요	-5083
▁일본에서	-5084
▁인터넷으로	-5085
▁놔	-5086
▁펼	-5087
단이	-5088
분간	-5089
션이	-5090
▁라면	-5091
▁봤을	-5092
▁어딘	-5093
▁적립	-5094
▁팀이	-5095
시간이	-5096
▁가치가	-5097
▁내려가	-5098
▁다녀오	-5099
▁세상을	-5100
▁애플리	-5101
▁이해해	-5102
▁정해진	-5103
▁제품과	-5104
▁목요일에	-5105
▁어떠세요	-5106
▁적극적으로	-5107
..	-5108
물로	-5109
미널	-5110
부가	-5111
▁PO	-5112
▁가깝	-5113
▁많지	-5114
▁아뇨	-5115
▁앱을	-5116
▁이론	-5117
▁제목	-5118
▁편이	-5119
▁피자	-5120
▁담당자	-5121
▁되어야	-5122
▁어려워	-5123
▁곳입니다	-5124
▁보내주실	-5125
▁제품입니다	-5126
시험	-5127
주면	-5128
튜브	-5129
▁당일	-5130
▁되게	-5131
▁먹방	-5132
▁반납	-5133
▁살이	-5134
▁활성	-5135
▁목표는	-5136
▁잊어버	-5137
▁적당한	-5138
▁점수를	-5139
▁태어나	-5140
▁포함된	-5141
▁하루를	-5142
▁공장에서	-5143
▁컨테이너	-5144
겠니	-5145
기지	-5146
자고	-5147
▁구두	-5148
▁권한	-5149
▁배치	-5150
▁변호	-5151
▁남편이	-5152
▁말씀을	-5153
▁필요는	-5154
▁아이스크림	-5155
▁맺	-5156
▁찌	-5157
회는	-5158
▁감각	-5159
▁거면	-5160
▁당황	-5161
▁상징	-5162
▁그러한	-5163
▁사무실	-5164
▁오류가	-5165
▁왜냐면	-5166
▁저희의	-5167
▁전화가	-5168
▁파티에	-5169
▁자연스럽게	-5170
▁프로그램이	-5171
re	-5172
주로	-5173
▁70	-5174
▁규정	-5175
▁죽을	-5176
▁창고	-5177
▁패턴	-5178
▁결제가	-5179
▁말씀이	-5180
▁바꾸고	-5181
▁보내지	-5182
▁사고가	-5183
▁세상에	-5184
▁알려줘	-5185
▁온종일	-5186
▁위에서	-5187
▁전에는	-5188
▁친절한	-5189
▁할인을	-5190
▁환불을	-5191
▁서비스가	-5192
▁게스트하우	-5193
▁발생합니다	-5194
▁필요하다고	-5195
▁털	-5196
환경	-5197
▁22	-5198
▁그린	-5199
▁도입	-5200
▁둘이	-5201
▁모자	-5202
▁식품	-5203
▁신문	-5204
▁어땠	-5205
▁이하	-5206
▁일도	-5207
▁태양	-5208
▁화학	-5209
이니까	-5210
▁말아요	-5211
▁상태를	-5212
▁우리와	-5213
▁리스트를	-5214
▁만들어진	-5215
▁뿐입니다	-5216
▁원한다면	-5217
▁판매하는	-5218
▁포기하지	-5219
서비	-5220
▁고기	-5221
▁깨달	-5222
▁내고	-5223
▁붙어	-5224
▁앞서	-5225
▁캠핑	-5226
▁갈게요	-5227
▁마스크	-5228
▁알레르	-5229
▁오늘날	-5230
▁인형을	-5231
▁하나가	-5232
▁실례합니다	-5233
▁던	-5234
관리	-5235
느냐	-5236
당한	-5237
▁가벼	-5238
▁강조	-5239
▁뒤로	-5240
▁의뢰	-5241
▁읽는	-5242
▁가치를	-5243
▁남아있	-5244
▁느끼는	-5245
▁데려다	-5246
▁데리고	-5247
▁똑같이	-5248
▁사람도	-5249
▁들어가서	-5250
▁사이즈를	-5251
▁오른쪽으로	-5252
부로	-5253
오니	-5254
▁만드	-5255
▁실내	-5256
▁이와	-5257
▁전환	-5258
▁찾기	-5259
▁채용	-5260
▁커서	-5261
도에서	-5262
되었고	-5263
쳤어요	-5264
해주길	-5265
▁회의가	-5266
▁세상에서	-5267
▁모르겠네요	-5268
▁보여줍니다	-5269
▁업그레이드	-5270
▁헌	-5271
사람	-5272
편에	-5273
히는	-5274
▁꺼내	-5275
▁끝날	-5276
▁리포	-5277
▁보장	-5278
▁블록	-5279
▁빼고	-5280
▁손에	-5281
▁수집	-5282
▁잠들	-5283
▁전용	-5284
▁정지	-5285
▁클릭	-5286
▁통역	-5287
▁기존의	-5288
▁대중교	-5289
▁바람이	-5290
▁연습을	-5291
▁휴식을	-5292
▁받았는데	-5293
▁싱가포르	-5294
▁좋았어요	-5295
▁편입니다	-5296
▁시작합니다	-5297
▁아이들에게	-5298
판에	-5299
▁그쪽	-5300
▁내는	-5301
▁말로	-5302
▁미세	-5303
▁사망	-5304
▁섭취	-5305
▁세일	-5306
▁시민	-5307
▁외모	-5308
▁입사	-5309
▁정기	-5310
▁증거	-5311
▁통제	-5312
▁파마	-5313
▁풀어	-5314
▁하던	-5315
▁핵심	-5316
▁향해	-5317
인에게	-5318
▁가족을	-5319
▁아래에	-5320
▁아이폰	-5321
▁걸리나요	-5322
▁디자인이	-5323
▁안전하게	-5324
▁되겠습니까	-5325
▁뚜	-5326
▁부여	-5327
▁오기	-5328
▁채워	-5329
▁춤을	-5330
되는지	-5331
▁거니까	-5332
▁많은데	-5333
▁뮤지컬	-5334
▁사랑은	-5335
▁얼굴이	-5336
▁준비한	-5337
▁책임을	-5338
▁그것들은	-5339
▁나라에서	-5340
et	-5341
이로	-5342
▁가난	-5343
▁거부	-5344
▁복용	-5345
▁슬퍼	-5346
▁입국	-5347
▁헬스	-5348
▁가운데	-5349
▁메일에	-5350
▁선택할	-5351
▁시장에	-5352
▁실수를	-5353
▁은행에	-5354
▁전화로	-5355
▁제외한	-5356
▁중국에서	-5357
▁띄	-5358
시켰	-5359
안에	-5360
해진	-5361
화는	-5362
▁개봉	-5363
▁공포	-5364
▁다리	-5365
▁매달	-5366
▁바랄	-5367
▁의한	-5368
▁향이	-5369
자마자	-5370
▁가나요	-5371
▁과제를	-5372
▁그것의	-5373
▁노력할	-5374
▁맞춰서	-5375
▁사진에	-5376
▁선물로	-5377
▁아닌데	-5378
▁언제든	-5379
▁좋은데	-5380
▁중국에	-5381
▁2017	-5382
▁기본적인	-5383
▁사용하면	-5384
▁않았으면	-5385
▁일반적인	-5386
▁겸	-5387
았던	-5388
이와	-5389
할까	-5390
▁건설	-5391
▁골라	-5392
▁공정	-5393
▁너가	-5394
▁무역	-5395
▁뭐야	-5396
▁번만	-5397
▁유감	-5398
▁코너	-5399
▁통신	-5400
▁할게	-5401
▁계정을	-5402
▁사용이	-5403
▁서로의	-5404
▁싫어요	-5405
▁제공해	-5406
▁화이트	-5407
▁말씀하신	-5408
▁받습니다	-5409
▁스케줄을	-5410
▁알아보고	-5411
는다	-5412
라우	-5413
량은	-5414
소는	-5415
하긴	-5416
▁개가	-5417
▁대여	-5418
▁등장	-5419
▁메인	-5420
▁받기	-5421
▁색이	-5422
▁수건	-5423
▁예의	-5424
▁전반	-5425
▁중독	-5426
생활을	-5427
▁나라에	-5428
▁남자를	-5429
▁다시는	-5430
▁대단히	-5431
▁사용자	-5432
▁장점은	-5433
▁조용히	-5434
▁취미는	-5435
▁않았는데	-5436
▁텔레비전	-5437
PS	-5438
밥을	-5439
▁갔을	-5440
▁같지	-5441
▁바퀴	-5442
▁부정	-5443
▁입은	-5444
▁진료	-5445
▁담배를	-5446
▁싶다고	-5447
▁질문이	-5448
▁텐데요	-5449
▁여러분의	-5450
is	-5451
▁꽉	-5452
속에	-5453
▁공통	-5454
▁드러	-5455
▁만남	-5456
▁분류	-5457
▁애완	-5458
▁재발	-5459
▁찍고	-5460
▁하신	-5461
▁흡수	-5462
▁걸려요	-5463
▁겨울에	-5464
▁마음은	-5465
▁보내야	-5466
▁상태로	-5467
▁성적이	-5468
▁지역에	-5469
▁크기가	-5470
▁해결할	-5471
▁노력하고	-5472
▁드리도록	-5473
▁사용해요	-5474
▁취소하고	-5475
▁립	-5476
▁칸	-5477
구에	-5478
보면	-5479
▁고르	-5480
▁맡겨	-5481
▁배고	-5482
▁생성	-5483
▁저랑	-5484
▁차단	-5485
▁크기	-5486
▁클래	-5487
된다고	-5488
▁그것도	-5489
▁되도록	-5490
▁메뉴가	-5491
▁메뉴는	-5492
▁박물관	-5493
▁중간에	-5494
▁할인이	-5495
▁낯	-5496
▁좁	-5497
등록	-5498
라리	-5499
치게	-5500
▁80	-5501
▁느낀	-5502
▁똑똑	-5503
▁맡은	-5504
▁번거	-5505
▁송부	-5506
▁읽을	-5507
▁책상	-5508
▁크고	-5509
달러를	-5510
▁나누어	-5511
▁노란색	-5512
▁능력이	-5513
▁상처를	-5514
▁싶지만	-5515
▁있다가	-5516
▁좋네요	-5517
▁찾아가	-5518
▁한국과	-5519
▁호텔은	-5520
▁사진으로	-5521
▁이름으로	-5522
▁나왔습니다	-5523
▁큽	-5524
▁휘	-5525
랫폼	-5526
서와	-5527
▁것만	-5528
▁공원	-5529
▁구할	-5530
▁보게	-5531
▁성능	-5532
▁차는	-5533
▁최신	-5534
소에서	-5535
▁남편은	-5536
▁된다는	-5537
▁서로를	-5538
▁위치한	-5539
▁장소가	-5540
▁내일부터	-5541
▁다이어트	-5542
▁보내주시기	-5543
▁알았습니다	-5544
▁맑	-5545
여야	-5546
프가	-5547
▁불법	-5548
▁소식	-5549
▁손상	-5550
▁있나	-5551
▁자원	-5552
▁재활	-5553
▁책의	-5554
▁취직	-5555
▁가보고	-5556
▁드세요	-5557
▁문서를	-5558
▁사랑에	-5559
▁아세요	-5560
▁얘기해	-5561
▁예약할	-5562
▁통하여	-5563
▁병원에서	-5564
▁부탁해요	-5565
▁보겠습니다	-5566
▁전화번호를	-5567
▁롯	-5568
기간	-5569
님은	-5570
드의	-5571
석을	-5572
할지	-5573
▁물질	-5574
▁받게	-5575
▁새우	-5576
▁이모	-5577
▁천연	-5578
▁취급	-5579
▁시까지	-5580
▁식당이	-5581
▁인스타	-5582
▁일어난	-5583
▁있었고	-5584
▁해보고	-5585
▁날이에요	-5586
▁완벽하게	-5587
▁생겼습니다	-5588
뉴얼	-5589
이즈	-5590
한다	-5591
▁공공	-5592
▁되돌	-5593
▁되죠	-5594
▁들면	-5595
▁매번	-5596
▁믿어	-5597
▁보며	-5598
▁보조	-5599
▁원활	-5600
선으로	-5601
▁관계가	-5602
▁그리스	-5603
▁얼굴에	-5604
▁중인데	-5605
▁지갑을	-5606
▁대학교에	-5607
▁비행기가	-5608
▁이제부터	-5609
▁이해하고	-5610
▁인보이스를	-5611
▁좋았습니다	-5612
가로	-5613
가루	-5614
로우	-5615
방학	-5616
성의	-5617
스코	-5618
티를	-5619
▁끊임	-5620
▁놀고	-5621
▁늘어	-5622
▁마주	-5623
▁양해	-5624
▁없애	-5625
▁조리	-5626
▁측면	-5627
▁편지	-5628
었는지	-5629
▁들어온	-5630
▁분들이	-5631
▁없는지	-5632
▁일어날	-5633
▁큽니다	-5634
▁피해를	-5635
▁학원에	-5636
▁후에는	-5637
▁식당에서	-5638
▁아니라고	-5639
▁알았는데	-5640
▁m	-5641
로로	-5642
수로	-5643
스테	-5644
유의	-5645
▁계정	-5646
▁고쳐	-5647
▁기름	-5648
▁대량	-5649
▁슈퍼	-5650
▁원단	-5651
▁진출	-5652
▁친척	-5653
▁토마	-5654
▁파손	-5655
▁표준	-5656
팀에서	-5657
▁그리워	-5658
▁났어요	-5659
▁번호가	-5660
▁볼게요	-5661
▁세계의	-5662
▁손으로	-5663
▁싶네요	-5664
▁정보는	-5665
MS	-5666
am	-5667
▁캡	-5668
▁DH	-5669
▁늦을	-5670
▁들려	-5671
▁들이	-5672
▁무릎	-5673
▁블루	-5674
▁와야	-5675
▁인원	-5676
▁찍는	-5677
▁가게에	-5678
▁가볍게	-5679
▁거래를	-5680
▁바래요	-5681
▁받았어	-5682
▁번호는	-5683
▁요금은	-5684
▁하나만	-5685
▁환경을	-5686
▁만들어서	-5687
▁기본적으로	-5688
▁배웠습니다	-5689
▁전체적으로	-5690
도와	-5691
비에	-5692
웠던	-5693
집을	-5694
▁26	-5695
▁데이	-5696
▁떠올	-5697
▁롯데	-5698
▁선박	-5699
▁실시	-5700
▁오토	-5701
▁이쪽	-5702
▁종합	-5703
▁차로	-5704
다시피	-5705
▁고기를	-5706
▁그림은	-5707
▁단순히	-5708
▁돈으로	-5709
▁샀어요	-5710
▁업무에	-5711
▁일정은	-5712
▁준비할	-5713
▁간단하게	-5714
▁여기까지	-5715
▁화요일에	-5716
ou	-5717
▁곰	-5718
명한	-5719
안이	-5720
통이	-5721
트와	-5722
▁PC	-5723
▁누워	-5724
▁달성	-5725
▁로봇	-5726
▁마라	-5727
▁모아	-5728
▁수용	-5729
▁신속	-5730
▁신중	-5731
▁오게	-5732
▁잘생	-5733
▁찍을	-5734
▁착각	-5735
▁해산	-5736
▁희생	-5737
색으로	-5738
▁공간을	-5739
▁만나게	-5740
▁심하게	-5741
▁여행이	-5742
▁요리는	-5743
▁정신이	-5744
▁주문은	-5745
▁플랫폼	-5746
▁환불해	-5747
랐습니다	-5748
▁2014	-5749
▁가능하면	-5750
▁강아지를	-5751
▁거짓말을	-5752
▁기다리는	-5753
▁마음으로	-5754
▁무언가를	-5755
▁케이크를	-5756
▁싶었습니다	-5757
▁땀	-5758
▁숲	-5759
닐라	-5760
때로	-5761
리포	-5762
저히	-5763
체가	-5764
▁긴급	-5765
▁만일	-5766
▁보상	-5767
▁쿠키	-5768
▁편한	-5769
된다면	-5770
메리카	-5771
하자면	-5772
▁그러고	-5773
▁나가는	-5774
▁마시는	-5775
▁메뉴를	-5776
▁모니터	-5777
▁생기면	-5778
▁아니다	-5779
▁않네요	-5780
▁프로필	-5781
▁구체적인	-5782
▁나왔어요	-5783
▁일어나서	-5784
▁느꼈습니다	-5785
▁콩	-5786
▁획	-5787
받지	-5788
판이	-5789
화에	-5790
▁관찰	-5791
▁기울	-5792
▁꿈이	-5793
▁남지	-5794
▁누락	-5795
▁답답	-5796
▁모여	-5797
▁사러	-5798
▁사면	-5799
▁샌드	-5800
▁써서	-5801
▁와인	-5802
▁인지	-5803
▁지냈	-5804
▁진열	-5805
▁한복	-5806
▁한정	-5807
줬으면	-5808
▁300	-5809
▁가기로	-5810
▁그렇죠	-5811
▁되었고	-5812
▁듭니다	-5813
▁싶다면	-5814
▁인하여	-5815
▁지원을	-5816
▁편안한	-5817
됐습니다	-5818
▁다음에는	-5819
▁사람들도	-5820
▁5,000	-5821
▁정상적으로	-5822
▁친구들에게	-5823
내고	-5824
들께	-5825
들만	-5826
말을	-5827
일까	-5828
팀에	-5829
▁28	-5830
▁감상	-5831
▁구멍	-5832
▁깊게	-5833
▁끝에	-5834
▁날아	-5835
▁떠오	-5836
▁셔츠	-5837
▁연속	-5838
▁찬성	-5839
▁합리	-5840
드려도	-5841
들보다	-5842
리스트	-5843
▁미팅을	-5844
▁배송을	-5845
▁색상이	-5846
▁엔지니	-5847
▁적합한	-5848
▁치료를	-5849
▁현재의	-5850
▁나에게는	-5851
▁일어나는	-5852
▁중요하다고	-5853
▁추천합니다	-5854
▁연락드리겠습니다	-5855
▁굽	-5856
▁빅	-5857
크가	-5858
하나	-5859
▁됐어	-5860
▁되니	-5861
▁모임	-5862
▁뭔지	-5863
▁반가	-5864
▁설립	-5865
▁외로	-5866
▁응급	-5867
▁이기	-5868
▁잘라	-5869
▁확장	-5870
되었다	-5871
하셔도	-5872
▁계시는	-5873
▁계획은	-5874
▁답변이	-5875
▁먹었어	-5876
▁에너지	-5877
▁찍어서	-5878
▁첨부한	-5879
▁부드러운	-5880
▁불가능한	-5881
▁상관없이	-5882
▁건에	-5883
▁금융	-5884
▁기쁨	-5885
▁기여	-5886
▁깜빡	-5887
▁나빠	-5888
▁먹기	-5889
▁면허	-5890
▁명세	-5891
▁스킨	-5892
▁응답	-5893
▁정거	-5894
했으니	-5895
▁다리를	-5896
▁때때로	-5897
▁미치는	-5898
▁변경이	-5899
▁변화가	-5900
▁엄마와	-5901
▁열리는	-5902
▁제안을	-5903
▁직업은	-5904
▁찾아보	-5905
▁청소를	-5906
▁최소한	-5907
▁기대하고	-5908
▁말이에요	-5909
▁모두에게	-5910
▁싫어하는	-5911
30	-5912
▁t	-5913
▁맵	-5914
개로	-5915
액을	-5916
카락	-5917
▁고속	-5918
▁굳이	-5919
▁때의	-5920
▁빠진	-5921
▁설문	-5922
▁수신	-5923
▁주어	-5924
▁충족	-5925
▁하얀	-5926
▁DHL	-5927
▁나오면	-5928
▁노래는	-5929
▁늘어나	-5930
▁아이돌	-5931
▁올바른	-5932
▁주제는	-5933
▁호텔로	-5934
▁머리카락	-5935
▁부드럽게	-5936
▁자동차를	-5937
▁쥐	-5938
▁펌	-5939
부의	-5940
산이	-5941
살이	-5942
치에	-5943
▁급여	-5944
▁끌어	-5945
▁납품	-5946
▁다를	-5947
▁대형	-5948
▁왔을	-5949
▁원피	-5950
▁조회	-5951
▁진실	-5952
▁추구	-5953
네시아	-5954
▁문자를	-5955
▁발생할	-5956
▁백화점	-5957
▁변경할	-5958
▁사랑해	-5959
▁서류가	-5960
▁이용한	-5961
▁중국의	-5962
▁했으면	-5963
▁상황에서	-5964
▁시장에서	-5965
받았습니다	-5966
계획	-5967
동에	-5968
되며	-5969
렸다	-5970
▁간격	-5971
▁공을	-5972
▁애니	-5973
▁조선	-5974
▁줘야	-5975
▁컨셉	-5976
▁코스	-5977
▁타임	-5978
▁함유	-5979
▁화를	-5980
▁갈아타	-5981
▁것이라	-5982
▁기차를	-5983
▁나타나	-5984
▁도착한	-5985
▁바닥에	-5986
▁봅시다	-5987
▁아이는	-5988
▁아파트	-5989
▁여권을	-5990
▁연락할	-5991
▁인생의	-5992
▁질문에	-5993
▁회의에	-5994
▁가게에서	-5995
▁아버지는	-5996
▁어려워요	-5997
▁카페에서	-5998
▁컴퓨터가	-5999
▁마찬가지로	-6000
▁프로그램에	-6001
▁확인했습니다	-6002
▁X	-6003
▁떼	-6004
개는	-6005
놓고	-6006
스팅	-6007
▁가졌	-6008
▁곤란	-6009
▁당사	-6010
▁대상	-6011
▁맞이	-6012
▁명령	-6013
▁소매	-6014
▁열차	-6015
▁이내	-6016
▁초록	-6017
▁같으니	-6018
▁그러게	-6019
▁그만큼	-6020
▁내에서	-6021
▁독특한	-6022
▁만나러	-6023
▁물품을	-6024
▁사실은	-6025
▁소개할	-6026
▁아파요	-6027
▁위험한	-6028
▁제공할	-6029
겼습니다	-6030
▁메이크업	-6031
▁보이는데	-6032
▁인스타그램	-6033
▁소개하겠습니다	-6034
▁십	-6035
권이	-6036
지털	-6037
▁계시	-6038
▁과연	-6039
▁답을	-6040
▁봐서	-6041
▁시골	-6042
▁실천	-6043
▁양이	-6044
▁질병	-6045
자들의	-6046
하게도	-6047
▁생일을	-6048
▁식당은	-6049
▁예약해	-6050
▁이해를	-6051
▁좋아할	-6052
기입니다	-6053
▁됐습니다	-6054
▁없습니까	-6055
▁여러분이	-6056
▁준비해야	-6057
▁처음부터	-6058
▁편이에요	-6059
▁해줍니다	-6060
▁프로젝트에	-6061
▁끄	-6062
우면	-6063
▁결합	-6064
▁귀엽	-6065
▁대출	-6066
▁무사	-6067
▁미니	-6068
▁아동	-6069
▁원본	-6070
▁유기	-6071
▁중의	-6072
▁표기	-6073
▁간단히	-6074
▁궁금해	-6075
▁너희가	-6076
▁달콤한	-6077
▁성격이	-6078
▁이익을	-6079
▁정도면	-6080
▁해주는	-6081
▁호텔을	-6082
▁디자인은	-6083
▁카메라를	-6084
▁학생들의	-6085
▁화장실이	-6086
▁구체적으로	-6087
▁인도네시아	-6088
▁10,000	-6089
TA	-6090
둘러	-6091
력과	-6092
발을	-6093
▁깊이	-6094
▁빌릴	-6095
▁스피	-6096
▁얼음	-6097
▁위반	-6098
▁유저	-6099
▁이뤄	-6100
▁차에	-6101
▁특허	-6102
려고요	-6103
장님이	-6104
하기는	-6105
▁가게는	-6106
▁같다고	-6107
▁기업의	-6108
▁샌드위	-6109
▁어쩌면	-6110
▁전달해	-6111
▁판매를	-6112
시킵니다	-6113
▁부모님께	-6114
▁생각해보	-6115
▁진행되고	-6116
▁피곤해서	-6117
▁행복해요	-6118
▁세계적으로	-6119
▁쌍	-6120
상품	-6121
▁IT	-6122
▁날에	-6123
▁날은	-6124
▁라인	-6125
▁배를	-6126
▁속이	-6127
▁순서	-6128
▁야외	-6129
▁오프	-6130
▁유아	-6131
▁재무	-6132
▁한가	-6133
▁단어를	-6134
▁안전한	-6135
▁우연히	-6136
▁의미를	-6137
▁자체가	-6138
하겠어요	-6139
▁고객님의	-6140
▁다음으로	-6141
▁이해하지	-6142
▁싼	-6143
기업	-6144
볼게	-6145
제로	-6146
▁가로	-6147
▁깜짝	-6148
▁데에	-6149
▁사원	-6150
▁앨범	-6151
▁어쨌	-6152
▁이혼	-6153
▁주길	-6154
▁지어	-6155
▁흘러	-6156
셨는데	-6157
▁기존에	-6158
▁날짜가	-6159
▁디지털	-6160
▁뛰어난	-6161
▁만나요	-6162
▁보네요	-6163
▁새롭게	-6164
▁장난감	-6165
▁차라리	-6166
▁판매가	-6167
▁누군가가	-6168
▁되었으면	-6169
▁한국어로	-6170
▁어디인가요	-6171
▁빙	-6172
▁젤	-6173
봤어	-6174
신이	-6175
▁버려	-6176
▁빌딩	-6177
▁사촌	-6178
▁어서	-6179
▁열정	-6180
▁지낼	-6181
▁폐기	-6182
하시길	-6183
▁갔다가	-6184
▁계세요	-6185
▁사랑이	-6186
▁아기가	-6187
▁여기로	-6188
▁포장해	-6189
▁하나씩	-6190
▁학생은	-6191
▁행동은	-6192
▁회사로	-6193
▁곳이에요	-6194
▁공항으로	-6195
▁높습니다	-6196
▁실례지만	-6197
▁주말에는	-6198
▁필요하면	-6199
▁캘	-6200
포를	-6201
▁구축	-6202
▁나지	-6203
▁남녀	-6204
▁남았	-6205
▁내릴	-6206
▁바르	-6207
▁세워	-6208
▁전국	-6209
▁지식	-6210
▁집단	-6211
▁코팅	-6212
▁키워	-6213
▁퇴원	-6214
▁199	-6215
▁온다고	-6216
▁주제를	-6217
▁하므로	-6218
▁현재는	-6219
▁음식입니다	-6220
해주시겠어요	-6221
▁d	-6222
▁섹	-6223
류가	-6224
주신	-6225
▁가실	-6226
▁렌즈	-6227
▁리뷰	-6228
▁모른	-6229
▁소셜	-6230
▁심한	-6231
▁아시	-6232
▁워낙	-6233
▁채소	-6234
▁최적	-6235
▁해가	-6236
▁가지는	-6237
▁거라서	-6238
▁그럼요	-6239
▁돌아갈	-6240
▁마이크	-6241
▁방에서	-6242
▁벗어나	-6243
▁부산에	-6244
▁서둘러	-6245
▁언어를	-6246
▁이것에	-6247
▁이들은	-6248
▁절차를	-6249
▁지난달	-6250
▁진행을	-6251
▁사이트에	-6252
▁희망합니다	-6253
▁노력하겠습니다	-6254
km	-6255
야만	-6256
주지	-6257
▁AS	-6258
▁가죽	-6259
▁거울	-6260
▁대만	-6261
▁들지	-6262
▁마셔	-6263
▁반갑	-6264
▁수화	-6265
▁승객	-6266
▁에스	-6267
▁장점	-6268
▁태권	-6269
고기를	-6270
리에서	-6271
사항을	-6272
자리에	-6273
▁문장을	-6274
▁보여줄	-6275
▁스크린	-6276
▁승인을	-6277
▁운동은	-6278
▁콘서트	-6279
▁플레이	-6280
▁행사를	-6281
▁계약서를	-6282
▁않습니까	-6283
▁판매해요	-6284
ay	-6285
▁댓	-6286
▁밸	-6287
▁씁	-6288
▁얇	-6289
▁팁	-6290
▁힐	-6291
기술	-6292
놓은	-6293
만간	-6294
▁기한	-6295
▁불행	-6296
▁입는	-6297
▁잠재	-6298
▁출국	-6299
▁환급	-6300
드리는	-6301
▁ABC	-6302
▁가셔서	-6303
▁기뻐요	-6304
▁내려서	-6305
▁드려요	-6306
▁들어갔	-6307
▁만나면	-6308
▁여유가	-6309
▁오렌지	-6310
▁조만간	-6311
▁중국어	-6312
▁찾으러	-6313
▁축하해	-6314
▁흥미를	-6315
자들에게	-6316
해주시고	-6317
▁담당자가	-6318
▁오늘까지	-6319
▁중요하게	-6320
as	-6321
관계	-6322
관의	-6323
끄럽	-6324
모델	-6325
스턴	-6326
▁45	-6327
▁글쎄	-6328
▁드린	-6329
▁법인	-6330
▁생명	-6331
▁소스	-6332
▁없게	-6333
▁용서	-6334
▁워크	-6335
▁이때	-6336
▁이태	-6337
▁착한	-6338
▁특성	-6339
▁하다	-6340
왔는데	-6341
▁교통사	-6342
▁드리는	-6343
▁시간도	-6344
▁싶었어	-6345
▁의견이	-6346
▁잘하지	-6347
▁주소가	-6348
▁부정적인	-6349
▁사이즈로	-6350
▁연락해주세요	-6351
▁Y	-6352
▁춥	-6353
년을	-6354
약이	-6355
집에	-6356
하진	-6357
▁고추	-6358
▁구워	-6359
▁도망	-6360
▁연관	-6361
▁인종	-6362
▁장식	-6363
▁찾으	-6364
▁취득	-6365
▁하이	-6366
낍니다	-6367
던데요	-6368
▁매장에	-6369
▁보내면	-6370
▁성격을	-6371
▁시간과	-6372
▁인사를	-6373
▁조용한	-6374
▁줄어들	-6375
▁직장을	-6376
▁찾아서	-6377
셨습니까	-6378
▁보여주는	-6379
▁분위기를	-6380
▁사이즈는	-6381
▁사랑합니다	-6382
ch	-6383
ed	-6384
▁겹	-6385
리러	-6386
물과	-6387
▁갖다	-6388
▁개별	-6389
▁길게	-6390
▁끝이	-6391
▁맞죠	-6392
▁민감	-6393
▁선배	-6394
▁여겨	-6395
▁영혼	-6396
▁유전	-6397
▁지시	-6398
▁출판	-6399
▁통관	-6400
레이터	-6401
▁감기에	-6402
▁강력한	-6403
▁받으실	-6404
▁않다고	-6405
▁일들이	-6406
▁주어진	-6407
▁지나면	-6408
▁포스터	-6409
▁포인트	-6410
▁그것들을	-6411
▁사랑하고	-6412
▁싶었는데	-6413
했었습니다	-6414
▁보여주세요	-6415
▁헷	-6416
력에	-6417
을까	-6418
▁공사	-6419
▁본인	-6420
▁비빔	-6421
▁삶은	-6422
▁세미	-6423
▁우승	-6424
▁일치	-6425
▁줘요	-6426
▁진지	-6427
▁추운	-6428
▁팔고	-6429
▁헷갈	-6430
을까요	-6431
해주면	-6432
▁개인의	-6433
▁관리를	-6434
▁드시면	-6435
▁방법에	-6436
▁불편한	-6437
▁장점이	-6438
▁재밌게	-6439
▁토마토	-6440
▁학교는	-6441
▁형태로	-6442
▁확실한	-6443
▁대상으로	-6444
▁이쪽으로	-6445
▁행복합니다	-6446
▁보내드릴게요	-6447
▁부탁드리겠습니다	-6448
12	-6449
▁낸	-6450
다른	-6451
준다	-6452
혀서	-6453
▁같고	-6454
▁괴롭	-6455
▁농구	-6456
▁댓글	-6457
▁드실	-6458
▁리조	-6459
▁링크	-6460
▁많다	-6461
▁볶음	-6462
▁얻기	-6463
▁월드	-6464
▁회식	-6465
▁가지를	-6466
▁떨어진	-6467
▁상품에	-6468
▁샐러드	-6469
▁성적을	-6470
▁아이들	-6471
▁알아봐	-6472
▁조언을	-6473
▁매장에서	-6474
▁사용해야	-6475
▁아버지가	-6476
▁지속해서	-6477
▁포함해서	-6478
▁폰	-6479
고사	-6480
서의	-6481
와는	-6482
▁90	-6483
▁수고	-6484
▁아들	-6485
▁야간	-6486
▁우주	-6487
▁중단	-6488
▁진정	-6489
▁초에	-6490
에게는	-6491
월부터	-6492
했다면	-6493
▁걸리는	-6494
▁것들은	-6495
▁넣어서	-6496
▁맛있어	-6497
▁외에도	-6498
▁진행이	-6499
▁평범한	-6500
▁받아들이	-6501
▁이야기는	-6502
▁해주시면	-6503
▁가겠습니다	-6504
▁사이트에서	-6505
il	-6506
▁낚	-6507
▁텍	-6508
▁핫	-6509
바로	-6510
색이	-6511
시킨	-6512
체의	-6513
프는	-6514
▁슬프	-6515
▁연애	-6516
▁인공	-6517
▁추후	-6518
▁카운	-6519
▁품절	-6520
▁하우	-6521
이라니	-6522
▁맥주를	-6523
▁모르고	-6524
▁미래의	-6525
▁복잡한	-6526
▁사전에	-6527
▁살면서	-6528
▁쇼핑을	-6529
▁어울릴	-6530
▁여부를	-6531
▁예정이	-6532
▁차가운	-6533
▁해서요	-6534
▁해주실	-6535
▁은행에서	-6536
▁만들었어요	-6537
▁많았습니다	-6538
▁인터넷에서	-6539
국의	-6540
처리	-6541
향을	-6542
▁기부	-6543
▁날을	-6544
▁더불	-6545
▁발명	-6546
▁소화	-6547
▁적게	-6548
▁줄은	-6549
▁지출	-6550
▁추적	-6551
▁팀을	-6552
▁합의	-6553
▁거리가	-6554
▁경우에	-6555
▁기분을	-6556
▁느끼게	-6557
▁되네요	-6558
▁두려워	-6559
▁매뉴얼	-6560
▁몰랐어	-6561
▁인원이	-6562
▁지나가	-6563
▁날입니다	-6564
▁느낍니다	-6565
▁드라마를	-6566
▁사용되는	-6567
▁시작하는	-6568
▁알다시피	-6569
▁추가적인	-6570
▁도착했어요	-6571
▁어떻습니까	-6572
▁홈페이지에	-6573
과에	-6574
미가	-6575
시설	-6576
재가	-6577
500	-6578
▁누르	-6579
▁도울	-6580
▁마이	-6581
▁미루	-6582
▁분홍	-6583
▁상업	-6584
▁성분	-6585
▁싱글	-6586
▁열이	-6587
▁영웅	-6588
▁인테	-6589
▁입맛	-6590
▁짧게	-6591
▁촉촉	-6592
▁해소	-6593
▁기간은	-6594
▁마침내	-6595
▁색상을	-6596
▁유튜브	-6597
▁조건을	-6598
▁행동이	-6599
▁100%	-6600
▁누구보다	-6601
▁누구에게	-6602
▁다운로드	-6603
▁도서관에	-6604
▁생각하면	-6605
▁요즘에는	-6606
▁이해하기	-6607
▁있어서요	-6608
▁해결하기	-6609
▁생각하나요	-6610
▁예상됩니다	-6611
▁판매합니다	-6612
▁애플리케이션	-6613
▁x	-6614
권은	-6615
나무	-6616
법은	-6617
음은	-6618
ing	-6619
▁깎아	-6620
▁낭비	-6621
▁대처	-6622
▁뿌듯	-6623
▁셋째	-6624
▁수납	-6625
▁오사	-6626
▁위협	-6627
하여야	-6628
해지는	-6629
▁누구도	-6630
▁디저트	-6631
▁로그인	-6632
▁마시면	-6633
▁수량은	-6634
▁아이의	-6635
▁애니메	-6636
▁애완동	-6637
▁어쨌든	-6638
▁피부가	-6639
▁났습니다	-6640
▁시스템이	-6641
▁않았나요	-6642
▁인생에서	-6643
▁한국에는	-6644
▁확인해야	-6645
▁사진입니다	-6646
▁해드릴게요	-6647
로가	-6648
마를	-6649
보니	-6650
볼까	-6651
산에	-6652
세가	-6653
▁간편	-6654
▁맘에	-6655
▁변동	-6656
▁사다	-6657
▁삶에	-6658
▁색을	-6659
▁솔루	-6660
▁옵션	-6661
▁줄이	-6662
▁창조	-6663
▁하느	-6664
었다는	-6665
자들을	-6666
제품을	-6667
▁가벼운	-6668
▁대학을	-6669
▁목적은	-6670
▁별도로	-6671
▁색깔이	-6672
▁생각한	-6673
▁알려져	-6674
▁이처럼	-6675
▁장비를	-6676
▁터미널	-6677
▁프로모	-6678
▁하나로	-6679
만으로도	-6680
▁누군가를	-6681
▁도착하는	-6682
▁만나기로	-6683
▁시스템에	-6684
▁앞으로는	-6685
▁인터넷을	-6686
▁필요한데	-6687
▁학생들을	-6688
스럽습니다	-6689
▁가능합니까	-6690
▁방법입니다	-6691
11	-6692
▁벚	-6693
▁쏟	-6694
그래	-6695
았고	-6696
카를	-6697
페이	-6698
▁공지	-6699
▁내면	-6700
▁등에	-6701
▁숙제	-6702
▁재킷	-6703
▁채로	-6704
▁체결	-6705
▁컨펌	-6706
▁터키	-6707
▁팀의	-6708
▁파괴	-6709
드리며	-6710
에서만	-6711
적이지	-6712
▁가지가	-6713
▁그만두	-6714
▁데리러	-6715
▁식당에	-6716
▁아침을	-6717
▁알려준	-6718
▁업로드	-6719
▁있잖아	-6720
▁자료가	-6721
▁진행될	-6722
▁힘들게	-6723
하십니다	-6724
해주시길	-6725
▁목적으로	-6726
▁저에게는	-6727
▁출발하는	-6728
▁다행이네요	-6729
▁예약했는데	-6730
▁“	-6731
▁꽂	-6732
▁댄	-6733
줄게	-6734
▁가려	-6735
▁동기	-6736
▁레벨	-6737
▁배워	-6738
▁불렀	-6739
▁스캔	-6740
▁연출	-6741
▁통보	-6742
▁한다	-6743
▁화물	-6744
더군요	-6745
역으로	-6746
▁20%	-6747
▁그래야	-6748
▁도서관	-6749
▁되세요	-6750
▁들어올	-6751
▁말하면	-6752
▁무사히	-6753
▁신분증	-6754
▁안에는	-6755
▁옆에서	-6756
▁좋았어	-6757
▁중이라	-6758
▁축구를	-6759
▁고양이를	-6760
▁도착하지	-6761
▁보여주고	-6762
▁중심으로	-6763
▁지불해야	-6764
▁여자친구가	-6765
▁의미합니다	-6766
▁핀	-6767
님을	-6768
색을	-6769
세서	-6770
역은	-6771
튀김	-6772
▁US	-6773
▁넘게	-6774
▁넣을	-6775
▁다소	-6776
▁다해	-6777
▁도둑	-6778
▁사양	-6779
▁싸게	-6780
▁얻은	-6781
▁제어	-6782
▁추진	-6783
이기도	-6784
▁가지게	-6785
▁그들과	-6786
▁깨끗한	-6787
▁더불어	-6788
▁먹어서	-6789
▁물어봐	-6790
▁역사를	-6791
▁작품은	-6792
▁지역의	-6793
▁측에서	-6794
▁필요해	-6795
▁아니라면	-6796
▁왼쪽으로	-6797
▁포인트를	-6798
▁필요하지	-6799
▁되겠습니다	-6800
▁알려드릴게요	-6801
▁알려주시겠어요	-6802
▁핑	-6803
류는	-6804
시쯤	-6805
오고	-6806
음에	-6807
하네	-6808
화의	-6809
▁갈게	-6810
▁군데	-6811
▁딱히	-6812
▁떠날	-6813
▁밑에	-6814
▁바빴	-6815
▁세팅	-6816
▁실적	-6817
▁출신	-6818
▁행정	-6819
▁휴식	-6820
▁게임은	-6821
▁립스틱	-6822
▁말라고	-6823
▁분위기	-6824
▁살아요	-6825
▁역에서	-6826
▁재밌는	-6827
▁지금의	-6828
▁사용해서	-6829
▁확인하세요	-6830
om	-6831
▁멕	-6832
▁캔	-6833
러가	-6834
받아	-6835
▁길로	-6836
▁보라	-6837
▁스펙	-6838
▁시일	-6839
▁싶고	-6840
▁아팠	-6841
▁이젠	-6842
▁힘드	-6843
줬어요	-6844
▁관련이	-6845
▁다리가	-6846
▁다음은	-6847
▁바람에	-6848
▁브라질	-6849
▁시끄러	-6850
▁신선한	-6851
▁싶다는	-6852
▁좋지만	-6853
▁진행해	-6854
▁트레이	-6855
봤습니다	-6856
▁구성되어	-6857
▁끊임없이	-6858
▁보유하고	-6859
▁보이네요	-6860
▁서비스는	-6861
▁않는다고	-6862
▁전통적인	-6863
▁정리해서	-6864
▁해당하는	-6865
▁흥미로운	-6866
▁학생들에게	-6867
▁갤	-6868
▁냈	-6869
▁몽	-6870
러스	-6871
린다	-6872
였던	-6873
위의	-6874
▁꽃을	-6875
▁딸은	-6876
▁멋있	-6877
▁모듈	-6878
▁모으	-6879
▁부딪	-6880
▁부를	-6881
▁비누	-6882
▁수분	-6883
▁우려	-6884
▁유형	-6885
▁이불	-6886
▁짐이	-6887
퍼센트	-6888
▁가까워	-6889
▁가끔은	-6890
▁결제는	-6891
▁나눠서	-6892
▁당신에	-6893
▁반응이	-6894
▁실력을	-6895
▁아닐까	-6896
▁참여할	-6897
▁확인한	-6898
▁그렇다고	-6899
▁동영상을	-6900
▁들어오는	-6901
▁분위기가	-6902
▁사이에서	-6903
▁않았지만	-6904
▁자격증을	-6905
▁둔	-6906
▁탕	-6907
▁톰	-6908
값을	-6909
국이	-6910
량의	-6911
롭고	-6912
업에	-6913
었지	-6914
우지	-6915
▁29	-6916
▁31	-6917
▁공기	-6918
▁멕시	-6919
▁삼촌	-6920
▁설득	-6921
▁속의	-6922
▁슬픔	-6923
▁쓰면	-6924
▁씨가	-6925
▁올릴	-6926
▁운이	-6927
▁인내	-6928
▁잘할	-6929
편으로	-6930
▁나라는	-6931
▁당분간	-6932
▁드시고	-6933
▁봉사활	-6934
▁블로그	-6935
▁샘플이	-6936
▁식사는	-6937
▁이루기	-6938
▁지도를	-6939
▁포장을	-6940
되었는지	-6941
▁견적서를	-6942
▁구매하신	-6943
▁아메리카	-6944
▁이용하면	-6945
▁화장실에	-6946
▁긍정적으로	-6947
▁확인해보니	-6948
▁딜	-6949
▁윈	-6950
▁잭	-6951
걸요	-6952
등이	-6953
링을	-6954
방에	-6955
아가	-6956
어져	-6957
▁될지	-6958
▁맡아	-6959
▁명시	-6960
▁무섭	-6961
▁벚꽃	-6962
▁보습	-6963
▁뿐만	-6964
▁소속	-6965
▁없지	-6966
▁영문	-6967
▁예수	-6968
▁원인	-6969
▁일회	-6970
▁있긴	-6971
▁장르	-6972
▁조합	-6973
▁줄을	-6974
▁지배	-6975
▁체계	-6976
▁헤드	-6977
거리가	-6978
사항이	-6979
웁니다	-6980
했네요	-6981
▁경기가	-6982
▁경제적	-6983
▁고객을	-6984
▁보려고	-6985
▁세계를	-6986
▁수정된	-6987
▁싶으면	-6988
▁않은데	-6989
▁옵니다	-6990
▁일본은	-6991
▁재료를	-6992
▁팀장님	-6993
▁환경에	-6994
했었는데	-6995
▁물론이죠	-6996
▁불편하게	-6997
▁연락처를	-6998
▁이야기가	-6999
▁직원들이	-7000
▁기대합니다	-7001
▁모르겠는데	-7002
tr	-7003
▁멍	-7004
전은	-7005
▁교회	-7006
▁나고	-7007
▁나에	-7008
▁대사	-7009
▁돼지	-7010
▁마리	-7011
▁성형	-7012
▁식물	-7013
▁우수	-7014
▁임시	-7015
▁통계	-7016
라이언	-7017
봅니다	-7018
▁거리에	-7019
▁결과에	-7020
▁라디오	-7021
▁모델은	-7022
▁사랑할	-7023
▁생일이	-7024
▁지식을	-7025
▁하기로	-7026
▁하셔야	-7027
▁했나요	-7028
▁활성화	-7029
하기에는	-7030
▁건강하게	-7031
▁늦게까지	-7032
▁모르지만	-7033
▁무엇인가	-7034
▁비밀번호	-7035
▁아프리카	-7036
▁도서관에서	-7037
▁아이디어를	-7038
▁샴	-7039
간의	-7040
자인	-7041
▁송장	-7042
▁수강	-7043
▁안심	-7044
▁오리	-7045
▁오실	-7046
▁편집	-7047
부분이	-7048
이에서	-7049
하겠다	-7050
▁동영상	-7051
▁미디어	-7052
▁사진도	-7053
▁사항에	-7054
▁오셔서	-7055
▁우유를	-7056
▁음식에	-7057
▁이따가	-7058
▁파일로	-7059
▁고등학생	-7060
▁물어보고	-7061
▁믿습니다	-7062
▁어려움이	-7063
▁이벤트를	-7064
▁지속적인	-7065
▁남자친구가	-7066
▁말씀드리겠습니다	-7067
▁징	-7068
가의	-7069
감과	-7070
수와	-7071
용품	-7072
하라	-7073
▁걸까	-7074
▁반찬	-7075
▁비상	-7076
▁씨는	-7077
▁자라	-7078
▁자야	-7079
▁짜증	-7080
▁청년	-7081
▁최선	-7082
▁출석	-7083
▁프라	-7084
음에도	-7085
▁것이다	-7086
▁것이며	-7087
▁그때는	-7088
▁그러지	-7089
▁기간을	-7090
▁나가야	-7091
▁보시고	-7092
▁분들은	-7093
▁불리는	-7094
▁아직은	-7095
▁연구를	-7096
▁영어는	-7097
▁영화에	-7098
▁오토바	-7099
▁지내는	-7100
▁코드를	-7101
▁현상이	-7102
▁가족들이	-7103
▁괜찮으시	-7104
▁기반으로	-7105
▁너무나도	-7106
▁대학에서	-7107
▁이것들은	-7108
▁친절하게	-7109
▁좋아하는데	-7110
▁필리핀에서	-7111
▁돋	-7112
▁흉	-7113
겹살	-7114
다란	-7115
로워	-7116
면이	-7117
인트	-7118
크림	-7119
터는	-7120
▁계단	-7121
▁꿈에	-7122
▁등산	-7123
▁분은	-7124
▁왔다	-7125
▁자존	-7126
▁절반	-7127
▁조치	-7128
▁좌우	-7129
▁진단	-7130
▁추출	-7131
카드를	-7132
▁거리를	-7133
▁다녀온	-7134
▁만나지	-7135
▁면세점	-7136
▁미스터	-7137
▁부품을	-7138
▁씁니다	-7139
▁주까지	-7140
▁형태의	-7141
들이에요	-7142
▁만났어요	-7143
▁스케줄이	-7144
▁아이들의	-7145
▁제품들은	-7146
하셨습니다	-7147
▁우리나라의	-7148
▁걔	-7149
▁멜	-7150
▁붉	-7151
▁웬	-7152
말로	-7153
유를	-7154
젠테	-7155
100	-7156
▁갑작	-7157
▁결코	-7158
▁남을	-7159
▁대회	-7160
▁등급	-7161
▁로마	-7162
▁보람	-7163
▁봉투	-7164
▁비롯	-7165
▁수상	-7166
▁신혼	-7167
▁어색	-7168
▁운임	-7169
▁주목	-7170
▁중고	-7171
▁탈의	-7172
▁걸까요	-7173
▁계약이	-7174
▁나와요	-7175
▁못하게	-7176
▁변경된	-7177
▁성분이	-7178
▁수정할	-7179
▁시원한	-7180
▁알아서	-7181
▁자격증	-7182
▁중에는	-7183
▁참고로	-7184
▁하거나	-7185
▁화려한	-7186
하신다면	-7187
▁마십시오	-7188
▁말입니다	-7189
▁부족해서	-7190
▁사이트를	-7191
▁시작해요	-7192
▁아이디어	-7193
▁알려주면	-7194
▁사무실에서	-7195
▁상황입니다	-7196
식의	-7197
해준	-7198
했다	-7199
▁개는	-7200
▁기운	-7201
▁묵을	-7202
▁반죽	-7203
▁벌어	-7204
▁부과	-7205
▁사기	-7206
▁세포	-7207
▁연봉	-7208
▁의존	-7209
▁정직	-7210
▁지적	-7211
▁편견	-7212
▁햇빛	-7213
▁혁신	-7214
사에게	-7215
▁50%	-7216
▁간다고	-7217
▁갔는데	-7218
▁게이트	-7219
▁경향이	-7220
▁공장에	-7221
▁그림이	-7222
▁달라요	-7223
▁말레이	-7224
▁삽니다	-7225
▁예쁘게	-7226
▁운동이	-7227
▁일들을	-7228
▁책임이	-7229
▁프로세	-7230
되었다고	-7231
▁노력하는	-7232
▁운영하는	-7233
▁주문하면	-7234
▁편안하게	-7235
▁면세점에서	-7236
▁아르바이트를	-7237
▁알려주십시오	-7238
▁앤	-7239
▁쫓	-7240
▁찜	-7241
국을	-7242
세기	-7243
▁가공	-7244
▁고대	-7245
▁공무	-7246
▁기말	-7247
▁기뻤	-7248
▁들여	-7249
▁목걸	-7250
▁묘사	-7251
▁믿지	-7252
▁보충	-7253
▁빵을	-7254
▁소금	-7255
▁식탁	-7256
▁아웃	-7257
▁일만	-7258
▁임신	-7259
▁재생	-7260
▁카탈	-7261
났어요	-7262
▁30%	-7263
▁가방은	-7264
▁반대로	-7265
▁방향을	-7266
▁신입사	-7267
▁연예인	-7268
▁오사카	-7269
▁이사를	-7270
▁있으신	-7271
▁차이를	-7272
▁커다란	-7273
▁나머지는	-7274
▁만들어요	-7275
▁분야에서	-7276
▁여보세요	-7277
▁플라스틱	-7278
▁해외에서	-7279
▁기원합니다	-7280
▁말레이시아	-7281
▁괜찮으신가요	-7282
▁덥	-7283
거래	-7284
돈을	-7285
면허	-7286
배우	-7287
술을	-7288
해줘	-7289
▁결심	-7290
▁곁에	-7291
▁기침	-7292
▁로맨	-7293
▁무례	-7294
▁서서	-7295
▁소파	-7296
▁시대	-7297
▁싶기	-7298
▁예능	-7299
▁임대	-7300
▁절약	-7301
▁종목	-7302
▁줄일	-7303
▁허리	-7304
▁확대	-7305
▁바꾸는	-7306
▁번이나	-7307
▁보여서	-7308
▁새벽에	-7309
▁소식이	-7310
▁제주도	-7311
▁좋았을	-7312
▁프린트	-7313
▁학교가	-7314
▁고객님이	-7315
▁그곳에는	-7316
▁근처에서	-7317
▁사람으로	-7318
▁어머니가	-7319
▁제공하고	-7320
▁피드백을	-7321
▁효과적인	-7322
▁도와주세요	-7323
▁얼마입니까	-7324
미터	-7325
크는	-7326
▁겨우	-7327
▁도달	-7328
▁듣기	-7329
▁듣지	-7330
▁리얼	-7331
▁배웠	-7332
▁번의	-7333
▁불평	-7334
▁실용	-7335
▁엄격	-7336
▁의자	-7337
▁이겨	-7338
▁있길	-7339
▁진학	-7340
▁출산	-7341
▁파워	-7342
▁휴게	-7343
▁가격과	-7344
▁결혼식	-7345
▁귀사에	-7346
▁날씨는	-7347
▁남자와	-7348
▁문제없	-7349
▁문화가	-7350
▁스카이	-7351
▁여행자	-7352
▁인해서	-7353
▁있는가	-7354
▁있음을	-7355
▁작업은	-7356
▁즐기고	-7357
▁즐기는	-7358
▁같아서요	-7359
▁족	-7360
매를	-7361
배송	-7362
시지	-7363
용은	-7364
티브	-7365
▁개설	-7366
▁금연	-7367
▁넘는	-7368
▁뉴스	-7369
▁문구	-7370
▁바뀐	-7371
▁불을	-7372
▁살기	-7373
▁삶이	-7374
▁상영	-7375
▁실현	-7376
▁온도	-7377
▁왕복	-7378
▁원산	-7379
▁장치	-7380
▁정식	-7381
▁죽은	-7382
▁줄여	-7383
▁지니	-7384
▁평화	-7385
시키고	-7386
지에서	-7387
▁가지의	-7388
▁과거에	-7389
▁나라를	-7390
▁모델을	-7391
▁아빠가	-7392
▁알려진	-7393
▁없도록	-7394
▁의사가	-7395
▁일부러	-7396
▁준다고	-7397
▁카드는	-7398
겠는데요	-7399
사입니다	-7400
일입니다	-7401
▁것이라는	-7402
▁기억하고	-7403
▁깨끗하게	-7404
▁미국으로	-7405
▁생겼어요	-7406
▁아이들과	-7407
▁어려움을	-7408
▁이용하고	-7409
▁카탈로그	-7410
▁컴퓨터에	-7411
▁만났습니다	-7412
▁사용하세요	-7413
하시겠습니까	-7414
▁빗	-7415
사랑	-7416
셨던	-7417
씨가	-7418
아도	-7419
은행	-7420
해라	-7421
▁35	-7422
▁가본	-7423
▁나갔	-7424
▁노는	-7425
▁머릿	-7426
▁미친	-7427
▁민주	-7428
▁손톱	-7429
▁엑셀	-7430
▁올린	-7431
▁이력	-7432
▁이쁘	-7433
▁잊을	-7434
▁최악	-7435
▁투표	-7436
▁트렌	-7437
였는데	-7438
▁가방이	-7439
▁가족의	-7440
▁강의를	-7441
▁것인가	-7442
▁나보다	-7443
▁돼지고	-7444
▁디즈니	-7445
▁마닐라	-7446
▁부장님	-7447
▁신경을	-7448
▁아닌지	-7449
▁어울리	-7450
▁온다면	-7451
▁태어난	-7452
▁괜찮다면	-7453
▁수수료가	-7454
▁않는다는	-7455
▁이해하는	-7456
▁있었나요	-7457
▁저렴하게	-7458
▁초콜릿을	-7459
▁노력합니다	-7460
▁이야기하고	-7461
▁있겠습니다	-7462
▁환영합니다	-7463
▁이야기입니다	-7464
▁넉	-7465
▁엠	-7466
▁찢	-7467
드와	-7468
리토	-7469
석이	-7470
차별	-7471
퍼런	-7472
▁갖게	-7473
▁그분	-7474
▁기관	-7475
▁달걀	-7476
▁더블	-7477
▁밝혀	-7478
▁보존	-7479
▁시켰	-7480
▁심사	-7481
▁않다	-7482
▁여부	-7483
▁이민	-7484
▁인수	-7485
▁인연	-7486
▁일행	-7487
▁튀김	-7488
▁향후	-7489
겼어요	-7490
일에는	-7491
▁계좌로	-7492
▁동물을	-7493
▁말아야	-7494
▁반응을	-7495
▁수수료	-7496
▁스파게	-7497
▁않았을	-7498
▁요리가	-7499
▁자료는	-7500
▁주머니	-7501
▁주제로	-7502
▁직원을	-7503
▁하려면	-7504
▁해주고	-7505
▁보내드린	-7506
▁시스템은	-7507
▁어린아이	-7508
해주십시오	-7509
▁구매했는데	-7510
▁소프트웨어	-7511
▁친구들이랑	-7512
▁확인했어요	-7513
.0	-7514
ED	-7515
▁뜯	-7516
▁훔	-7517
법이	-7518
셨어	-7519
▁IP	-7520
▁관세	-7521
▁높이	-7522
▁보실	-7523
▁보완	-7524
▁스튜	-7525
▁원칙	-7526
▁유의	-7527
▁지는	-7528
▁트래	-7529
▁하긴	-7530
▁한강	-7531
▁결혼할	-7532
▁기간에	-7533
▁기계를	-7534
▁기능은	-7535
▁색상은	-7536
▁선택을	-7537
▁소개를	-7538
▁않는데	-7539
▁어두운	-7540
▁업무가	-7541
▁원인은	-7542
▁제품도	-7543
▁주셔야	-7544
▁케이팝	-7545
▁쿠폰을	-7546
▁피해가	-7547
▁행복할	-7548
▁몰랐어요	-7549
▁사람한테	-7550
▁함께하는	-7551
▁확실하게	-7552
▁확인해서	-7553
▁내용입니다	-7554
▁시작됩니다	-7555
▁핸드폰으로	-7556
▁말씀해주시면	-7557
▁늙	-7558
구니	-7559
문은	-7560
션은	-7561
파크	-7562
프레	-7563
형이	-7564
▁가만	-7565
▁갈래	-7566
▁결석	-7567
▁내지	-7568
▁문장	-7569
▁비어	-7570
▁사우	-7571
▁얻는	-7572
▁요약	-7573
▁의지	-7574
▁일시	-7575
▁저쪽	-7576
▁제기	-7577
▁태워	-7578
▁표지	-7579
▁한꺼	-7580
거리는	-7581
기로는	-7582
니까요	-7583
해서요	-7584
▁기술이	-7585
▁나만의	-7586
▁대단한	-7587
▁되기를	-7588
▁멕시코	-7589
▁무서워	-7590
▁싶었던	-7591
▁아들은	-7592
▁아이스	-7593
▁업체에	-7594
▁연결이	-7595
▁운전을	-7596
▁일하러	-7597
▁통화를	-7598
▁하다가	-7599
▁도와주는	-7600
▁만들어야	-7601
▁모르겠다	-7602
▁자신감을	-7603
▁전체적인	-7604
▁준비해서	-7605
▁한꺼번에	-7606
▁휴대폰을	-7607
해드릴게요	-7608
▁사랑스러운	-7609
▁이유입니다	-7610
▁뽀	-7611
단의	-7612
리오	-7613
바닥	-7614
분만	-7615
선은	-7616
수도	-7617
입을	-7618
히고	-7619
▁까먹	-7620
▁단백	-7621
▁달이	-7622
▁도구	-7623
▁드셔	-7624
▁딸기	-7625
▁맞은	-7626
▁목이	-7627
▁배출	-7628
▁법률	-7629
▁연필	-7630
▁처벌	-7631
▁드리면	-7632
▁때에는	-7633
▁말해줄	-7634
▁변경을	-7635
▁보내기	-7636
▁생활에	-7637
▁성공을	-7638
▁시험에	-7639
▁않았고	-7640
▁여성의	-7641
▁영감을	-7642
▁올게요	-7643
▁통증이	-7644
▁판매할	-7645
▁동일하게	-7646
▁어머니는	-7647
▁이상으로	-7648
▁을	-7649
과를	-7650
로에	-7651
로의	-7652
보단	-7653
자리	-7654
항공	-7655
▁00	-7656
▁AP	-7657
▁간절	-7658
▁공휴	-7659
▁발을	-7660
▁살았	-7661
▁상자	-7662
▁수하	-7663
▁연설	-7664
▁자서	-7665
▁접촉	-7666
▁해줘	-7667
▁획득	-7668
명으로	-7669
▁나쁘지	-7670
▁단순한	-7671
▁많다고	-7672
▁부끄러	-7673
▁분야의	-7674
▁사소한	-7675
▁상황은	-7676
▁알지만	-7677
▁위해선	-7678
▁음악은	-7679
▁이곳을	-7680
▁인기를	-7681
▁인생에	-7682
▁처리가	-7683
▁처리를	-7684
▁치킨을	-7685
▁파일은	-7686
▁표현을	-7687
되었나요	-7688
해줍니다	-7689
▁사랑해요	-7690
▁사장님이	-7691
▁상품으로	-7692
▁승무원이	-7693
▁쓰레기를	-7694
▁얘기하고	-7695
▁여행하는	-7696
▁일상생활	-7697
▁자리에서	-7698
▁힘듭니다	-7699
▁성공적으로	-7700
▁윗	-7701
▁짝	-7702
가야	-7703
년도	-7704
년의	-7705
는가	-7706
업이	-7707
▁CC	-7708
▁건가	-7709
▁넉넉	-7710
▁목욕	-7711
▁부동	-7712
▁성취	-7713
▁스미	-7714
▁심리	-7715
▁양의	-7716
▁장학	-7717
▁전날	-7718
▁추측	-7719
▁학원	-7720
되는데	-7721
픕니다	-7722
▁교회에	-7723
▁미국은	-7724
▁부르는	-7725
▁속도를	-7726
▁액세서	-7727
▁원인을	-7728
▁위험이	-7729
▁음료를	-7730
▁장소에	-7731
▁처리할	-7732
▁추억이	-7733
▁행사가	-7734
▁희망을	-7735
했습니까	-7736
▁따뜻하게	-7737
▁보기에는	-7738
▁사용하기	-7739
▁서비스로	-7740
▁싶어서요	-7741
▁직원에게	-7742
▁않겠습니다	-7743
▁애니메이션	-7744
▁다녀왔습니다	-7745
60	-7746
im	-7747
▁f	-7748
▁꿀	-7749
▁잦	-7750
▁젓	-7751
경이	-7752
방이	-7753
아를	-7754
저녁	-7755
진은	-7756
표가	-7757
표는	-7758
▁가라	-7759
▁간에	-7760
▁갈까	-7761
▁농담	-7762
▁동반	-7763
▁밤을	-7764
▁상해	-7765
▁서포	-7766
▁유학	-7767
▁작용	-7768
▁체중	-7769
▁쳐다	-7770
▁하와	-7771
까지의	-7772
되어있	-7773
▁가시는	-7774
▁날짜에	-7775
▁무서운	-7776
▁뭐예요	-7777
▁미세먼	-7778
▁세미나	-7779
▁수술을	-7780
▁않을래	-7781
▁연구는	-7782
▁인생은	-7783
▁직업이	-7784
▁찾아야	-7785
▁카페에	-7786
▁했는지	-7787
▁했다고	-7788
점입니다	-7789
▁돌아오는	-7790
▁발생하지	-7791
▁비행기로	-7792
▁아버지의	-7793
▁행복하고	-7794
▁생각입니다	-7795
▁스마트폰을	-7796
▁정류장에서	-7797
▁첨부합니다	-7798
▁도착했습니다	-7799
os	-7800
▁끔	-7801
와야	-7802
율은	-7803
인치	-7804
체는	-7805
키는	-7806
탕을	-7807
해졌	-7808
▁모를	-7809
▁양을	-7810
▁없죠	-7811
▁의도	-7812
▁찾지	-7813
▁현황	-7814
력으로	-7815
부에서	-7816
▁끝내고	-7817
▁누구와	-7818
▁눈으로	-7819
▁더워서	-7820
▁사고를	-7821
▁사업에	-7822
▁생기는	-7823
▁실시간	-7824
▁없었다	-7825
▁이름과	-7826
▁이번엔	-7827
▁파일이	-7828
▁패키지	-7829
▁호텔이	-7830
리포니아	-7831
▁그중에서	-7832
▁되었는데	-7833
▁맞습니까	-7834
▁부모님과	-7835
▁샀습니다	-7836
▁상태에서	-7837
▁선생님을	-7838
▁스타일이	-7839
▁연락해서	-7840
▁적당량을	-7841
▁친구한테	-7842
▁휴대전화	-7843
▁맛있습니다	-7844
▁문제입니다	-7845
▁불가합니다	-7846
▁온라인으로	-7847
▁필요하다면	-7848
▁알려드립니다	-7849
▁큐	-7850
법에	-7851
보지	-7852
산은	-7853
치기	-7854
▁길어	-7855
▁끔찍	-7856
▁나름	-7857
▁대접	-7858
▁맞춤	-7859
▁무한	-7860
▁비닐	-7861
▁비판	-7862
▁손이	-7863
▁숨겨	-7864
▁심심	-7865
▁약이	-7866
▁여섯	-7867
▁와요	-7868
▁웃는	-7869
▁유발	-7870
▁이중	-7871
▁잊고	-7872
▁재정	-7873
▁조카	-7874
▁주택	-7875
▁창업	-7876
▁한참	-7877
볼까요	-7878
속에서	-7879
▁건물이	-7880
▁걸리지	-7881
▁도시락	-7882
▁동생이	-7883
▁되니까	-7884
▁면접을	-7885
▁발전을	-7886
▁방문해	-7887
▁방식을	-7888
▁번역을	-7889
▁번호로	-7890
▁비자를	-7891
▁위치가	-7892
▁출구로	-7893
▁사용해도	-7894
▁수수료를	-7895
▁영화에서	-7896
▁유통기한	-7897
▁이루어진	-7898
▁제주도에	-7899
▁조건으로	-7900
▁확인하는	-7901
▁확인하여	-7902
▁사용됩니다	-7903
▁생각했는데	-7904
▁완료되었습니다	-7905
he	-7906
▁뷰	-7907
독교	-7908
비아	-7909
비와	-7910
상태	-7911
체에	-7912
▁교훈	-7913
▁무너	-7914
▁반입	-7915
▁샴푸	-7916
▁유연	-7917
▁이슬	-7918
▁인구	-7919
▁자본	-7920
▁잘해	-7921
▁재질	-7922
▁호흡	-7923
이션을	-7924
품으로	-7925
해져서	-7926
▁거라면	-7927
▁고민이	-7928
▁과정이	-7929
▁국가의	-7930
▁대화가	-7931
▁매출이	-7932
▁못했던	-7933
▁받으러	-7934
▁분야에	-7935
▁선수가	-7936
▁엄마의	-7937
▁여자의	-7938
▁여행용	-7939
▁입장을	-7940
▁주부터	-7941
▁친구로	-7942
▁하셔도	-7943
시다시피	-7944
▁귀사에서	-7945
▁되었나요	-7946
▁부모님의	-7947
▁부분에서	-7948
▁에너지를	-7949
▁요구하는	-7950
▁캘리포니아	-7951
ra	-7952
▁컸	-7953
국에	-7954
스탄	-7955
함은	-7956
▁MO	-7957
▁나눌	-7958
▁동성	-7959
▁메신	-7960
▁사내	-7961
▁생물	-7962
▁스웨	-7963
▁열린	-7964
▁잡지	-7965
▁주도	-7966
▁첫날	-7967
▁틀림	-7968
▁고통을	-7969
▁그다지	-7970
▁기독교	-7971
▁달라서	-7972
▁리더십	-7973
▁만나자	-7974
▁말하기	-7975
▁문제의	-7976
▁보인다	-7977
▁사실이	-7978
▁삼겹살	-7979
▁생각도	-7980
▁시도해	-7981
▁시리즈	-7982
▁이어폰	-7983
▁인간은	-7984
▁한국이	-7985
▁회의는	-7986
▁메시지가	-7987
▁물어봐도	-7988
▁살아가는	-7989
▁운영하고	-7990
▁이야기할	-7991
▁작성해서	-7992
▁준비하는	-7993
▁프레젠테	-7994
▁3,000	-7995
▁가능하다고	-7996
▁생각이에요	-7997
▁언제인가요	-7998
▁유명합니다	-7999
▁제공됩니다	-8000
▁학생입니다	-8001
▁갱	-8002
비의	-8003
우기	-8004
학적	-8005
호텔	-8006
ion	-8007
▁가상	-8008
▁것뿐	-8009
▁구비	-8010
▁깨닫	-8011
▁담긴	-8012
▁맞을	-8013
▁메세	-8014
▁문이	-8015
▁바깥	-8016
▁바지	-8017
▁발휘	-8018
▁벌레	-8019
▁세관	-8020
▁속상	-8021
▁슬픈	-8022
▁오로	-8023
▁온천	-8024
▁치는	-8025
▁카테	-8026
▁탈출	-8027
국에서	-8028
▁거기는	-8029
▁늦어도	-8030
▁떨어뜨	-8031
▁보이고	-8032
▁어떨까	-8033
▁여행할	-8034
▁영국의	-8035
▁원래는	-8036
▁줬어요	-8037
▁카드가	-8038
▁해주시	-8039
원이에요	-8040
하자마자	-8041
해집니다	-8042
▁나오나요	-8043
▁남아있는	-8044
▁노력해야	-8045
▁돌아다니	-8046
▁보였어요	-8047
▁생각하기	-8048
▁자신에게	-8049
▁점심시간	-8050
▁진행됩니다	-8051
▁프로젝트의	-8052
▁부탁드릴게요	-8053
개씩	-8054
단계	-8055
득이	-8056
일과	-8057
정도	-8058
확인	-8059
▁대구	-8060
▁박람	-8061
▁붉은	-8062
▁빠르	-8063
▁사인	-8064
▁상기	-8065
▁상을	-8066
▁유익	-8067
▁이로	-8068
▁적힌	-8069
▁취향	-8070
▁트럭	-8071
▁파이	-8072
▁해본	-8073
시키기	-8074
인들의	-8075
▁150	-8076
▁걸려서	-8077
▁경찰이	-8078
▁기사를	-8079
▁길거리	-8080
▁말해줘	-8081
▁배터리	-8082
▁성과를	-8083
▁수영을	-8084
▁시험은	-8085
▁어떤지	-8086
▁있었을	-8087
▁자기가	-8088
▁저기요	-8089
▁정도가	-8090
▁친구도	-8091
하셨어요	-8092
▁마지막에	-8093
▁목소리를	-8094
▁바랄게요	-8095
▁오른쪽에	-8096
▁외국인이	-8097
▁운전면허	-8098
▁잃어버린	-8099
▁증가하고	-8100
▁화장실을	-8101
▁화장품을	-8102
▁2,000	-8103
▁부족합니다	-8104
▁도와드릴게요	-8105
▁e	-8106
▁왠	-8107
드민	-8108
미를	-8109
점과	-8110
히지	-8111
▁CD	-8112
▁관객	-8113
▁뉴질	-8114
▁바나	-8115
▁방과	-8116
▁벗어	-8117
▁웃고	-8118
▁입술	-8119
▁자살	-8120
▁준다	-8121
▁컨디	-8122
▁코드	-8123
▁포도	-8124
▁하드	-8125
▁해상	-8126
▁했기	-8127
▁흔히	-8128
▁건강이	-8129
▁끝나는	-8130
▁노래가	-8131
▁늦어서	-8132
▁답장이	-8133
▁바다를	-8134
▁받아볼	-8135
▁사건을	-8136
▁열정을	-8137
▁촬영을	-8138
▁케이스	-8139
▁특이한	-8140
▁행사에	-8141
▁때입니다	-8142
▁부모님을	-8143
▁사무실로	-8144
▁생각했던	-8145
▁여름방학	-8146
▁있었지만	-8147
▁하더라도	-8148
▁현장에서	-8149
▁친구입니다	-8150
ot	-8151
▁밟	-8152
왔다	-8153
인분	-8154
▁2,	-8155
▁IS	-8156
▁갔던	-8157
▁결재	-8158
▁납기	-8159
▁누나	-8160
▁들었	-8161
▁모래	-8162
▁생존	-8163
▁수면	-8164
▁여긴	-8165
▁원을	-8166
▁이럴	-8167
▁일러	-8168
▁재학	-8169
▁탄생	-8170
▁토끼	-8171
▁폭력	-8172
▁해준	-8173
▁후원	-8174
졌는데	-8175
하라는	-8176
▁갑시다	-8177
▁것이기	-8178
▁경기장	-8179
▁노력해	-8180
▁들어있	-8181
▁뛰어나	-8182
▁사과를	-8183
▁설명이	-8184
▁언니가	-8185
▁오는데	-8186
▁올해는	-8187
▁음식도	-8188
▁의견에	-8189
▁인상을	-8190
▁정부는	-8191
▁증상이	-8192
▁힘들고	-8193
▁2018	-8194
▁걸릴까요	-8195
▁교수님이	-8196
▁매력적인	-8197
▁쉽습니다	-8198
▁원하시면	-8199
▁하시나요	-8200
▁할아버지	-8201
▁누군가에게	-8202
▁갚	-8203
▁튼	-8204
각형	-8205
개발	-8206
게임	-8207
버를	-8208
석은	-8209
속을	-8210
습을	-8211
우니	-8212
치료	-8213
ack	-8214
▁가스	-8215
▁과자	-8216
▁낯선	-8217
▁내린	-8218
▁놀랍	-8219
▁데는	-8220
▁때면	-8221
▁발효	-8222
▁불만	-8223
▁불쾌	-8224
▁소모	-8225
▁예민	-8226
▁울고	-8227
▁유사	-8228
▁전액	-8229
▁참을	-8230
▁채식	-8231
▁축복	-8232
▁치고	-8233
▁클렌	-8234
▁한마	-8235
드민턴	-8236
해보는	-8237
▁가방에	-8238
▁간호사	-8239
▁개발을	-8240
▁경우도	-8241
▁그래픽	-8242
▁목표로	-8243
▁못했어	-8244
▁믿어요	-8245
▁버스로	-8246
▁별도의	-8247
▁생산을	-8248
▁이것의	-8249
▁재고를	-8250
▁좋을까	-8251
▁카테고	-8252
▁키우는	-8253
▁특정한	-8254
▁피자를	-8255
▁회신을	-8256
▁계약서에	-8257
▁대부분이	-8258
▁되었는지	-8259
▁보내드릴	-8260
▁서로에게	-8261
▁선생님께	-8262
▁우편으로	-8263
▁이루어져	-8264
▁이야기해	-8265
▁인천공항	-8266
▁진행되는	-8267
▁아메리카노	-8268
▁안타깝게도	-8269
▁요청했습니다	-8270
.2	-8271
▁쾌	-8272
건을	-8273
당이	-8274
리트	-8275
문의	-8276
소의	-8277
잠을	-8278
절을	-8279
해가	-8280
▁가루	-8281
▁가시	-8282
▁걷는	-8283
▁검증	-8284
▁공감	-8285
▁기후	-8286
▁꿈꾸	-8287
▁넣은	-8288
▁떠난	-8289
▁뚜껑	-8290
▁라고	-8291
▁마우	-8292
▁부재	-8293
▁사유	-8294
▁설레	-8295
▁소송	-8296
▁승리	-8297
▁얻고	-8298
▁왠지	-8299
▁토익	-8300
▁표면	-8301
건가요	-8302
상에서	-8303
시다면	-8304
▁가져갈	-8305
▁노력이	-8306
▁모자를	-8307
▁밤에는	-8308
▁본인의	-8309
▁비빔밥	-8310
▁사정이	-8311
▁성격은	-8312
▁성공할	-8313
▁안내를	-8314
▁안전을	-8315
▁용기를	-8316
▁이루고	-8317
▁패스트	-8318
▁표현할	-8319
혔습니다	-8320
▁들어가면	-8321
▁먹으려고	-8322
▁아이템을	-8323
▁예정인데	-8324
▁오프라인	-8325
▁인터넷에	-8326
▁제공해요	-8327
▁존경하는	-8328
▁진행해야	-8329
▁무엇일까요	-8330
▁예정인가요	-8331
▁기다리겠습니다	-8332
OS	-8333
결을	-8334
디아	-8335
보드	-8336
비로	-8337
스카	-8338
어의	-8339
줬어	-8340
퇴근	-8341
▁것의	-8342
▁구독	-8343
▁권장	-8344
▁놓은	-8345
▁때나	-8346
▁많았	-8347
▁면을	-8348
▁바비	-8349
▁벽에	-8350
▁쉽고	-8351
▁싫은	-8352
▁자금	-8353
▁제휴	-8354
▁지워	-8355
▁필터	-8356
▁가게를	-8357
▁가셔야	-8358
▁공장을	-8359
▁그러는	-8360
▁내리는	-8361
▁다음번	-8362
▁도시에	-8363
▁만나기	-8364
▁모델의	-8365
▁변경해	-8366
▁변하지	-8367
▁사진의	-8368
▁시설이	-8369
▁시에는	-8370
▁압니다	-8371
▁어디가	-8372
▁이걸로	-8373
▁조건이	-8374
▁지불할	-8375
▁차이는	-8376
▁학생의	-8377
▁환불은	-8378
▁거기에서	-8379
▁그렇구나	-8380
▁당신들이	-8381
▁마음대로	-8382
▁선생님의	-8383
▁시작하기	-8384
▁주인공이	-8385
▁처음이라	-8386
▁드렸습니다	-8387
▁무엇보다도	-8388
▁비밀번호를	-8389
▁주문할게요	-8390
▁회사입니다	-8391
IP	-8392
▁썰	-8393
단은	-8394
동은	-8395
류의	-8396
버스	-8397
처를	-8398
편을	-8399
편이	-8400
▁가구	-8401
▁당첨	-8402
▁돕는	-8403
▁드렸	-8404
▁멈춰	-8405
▁바른	-8406
▁반려	-8407
▁설거	-8408
▁소지	-8409
▁시카	-8410
▁안의	-8411
▁어학	-8412
▁오르	-8413
▁잡을	-8414
▁장래	-8415
▁전철	-8416
▁컨트	-8417
▁팔찌	-8418
시간을	-8419
역까지	-8420
▁가난한	-8421
▁감정이	-8422
▁갖추고	-8423
▁거대한	-8424
▁마스터	-8425
▁마음의	-8426
▁말해야	-8427
▁사건이	-8428
▁아프지	-8429
▁우산을	-8430
▁원인이	-8431
▁이번이	-8432
▁인간이	-8433
▁인형은	-8434
▁주소는	-8435
▁할인해	-8436
▁행동에	-8437
하려고요	-8438
▁가능성을	-8439
▁다양하게	-8440
▁몰랐는데	-8441
▁미안한데	-8442
▁열립니다	-8443
▁지역에서	-8444
▁표현하는	-8445
▁괜찮으세요	-8446
▁소요됩니다	-8447
▁알레르기가	-8448
▁프로젝트는	-8449
▁상관없습니다	-8450
ig	-8451
▁v	-8452
들어	-8453
롭지	-8454
리티	-8455
선수	-8456
였고	-8457
왔던	-8458
일간	-8459
일의	-8460
타운	-8461
피를	-8462
▁건의	-8463
▁귀사	-8464
▁더운	-8465
▁덜어	-8466
▁렌터	-8467
▁미디	-8468
▁불어	-8469
▁알맞	-8470
▁약은	-8471
▁양파	-8472
▁자가	-8473
▁잡혀	-8474
▁철저	-8475
▁테러	-8476
▁하길	-8477
▁해운	-8478
▁현상	-8479
드려야	-8480
에게도	-8481
▁가져올	-8482
▁귀사와	-8483
▁나누고	-8484
▁내리면	-8485
▁메신저	-8486
▁모델이	-8487
▁목록을	-8488
▁문자로	-8489
▁미팅이	-8490
▁박스에	-8491
▁사랑의	-8492
▁소스를	-8493
▁식당을	-8494
▁아내가	-8495
▁완료된	-8496
▁위치에	-8497
▁이슈가	-8498
▁창고에	-8499
▁포장이	-8500
▁프라이	-8501
▁하늘을	-8502
▁형태를	-8503
▁고객들이	-8504
▁무엇이든	-8505
▁배드민턴	-8506
▁브랜드를	-8507
▁생각했어	-8508
▁성공적인	-8509
▁와이파이	-8510
▁이번에도	-8511
▁제품들을	-8512
달러입니다	-8513
▁계획이에요	-8514
▁다이어트를	-8515
us	-8516
▁댁	-8517
▁멸	-8518
▁흠	-8519
마가	-8520
미디	-8521
우러	-8522
호선	-8523
▁갈색	-8524
▁거고	-8525
▁대행	-8526
▁때만	-8527
▁무대	-8528
▁볼펜	-8529
▁아냐	-8530
▁압박	-8531
▁유료	-8532
▁장착	-8533
▁주위	-8534
▁창문	-8535
▁초청	-8536
▁추워	-8537
▁특수	-8538
▁튼튼	-8539
▁티브	-8540
▁환상	-8541
셨네요	-8542
었다면	-8543
이트를	-8544
했었어	-8545
▁고장이	-8546
▁나오고	-8547
▁내려야	-8548
▁놀라운	-8549
▁메일이	-8550
▁미끄러	-8551
▁발표할	-8552
▁뿐이야	-8553
▁서울의	-8554
▁설명할	-8555
▁세금을	-8556
▁세상이	-8557
▁세트를	-8558
▁신발은	-8559
▁아닌가	-8560
▁요즘에	-8561
▁위대한	-8562
▁있던데	-8563
▁적어서	-8564
▁정해져	-8565
▁조사를	-8566
▁항공권	-8567
▁해드릴	-8568
스러워요	-8569
장입니다	-8570
▁말하자면	-8571
▁모습으로	-8572
▁보낼게요	-8573
▁서비스에	-8574
▁여동생은	-8575
▁여자들은	-8576
▁외국에서	-8577
▁움직이는	-8578
▁추천해요	-8579
▁대학교에서	-8580
▁물론입니다	-8581
▁발견했습니다	-8582
▁아이스크림을	-8583
▁틈	-8584
격을	-8585
규모	-8586
년대	-8587
적일	-8588
종의	-8589
프의	-8590
해져	-8591
▁OS	-8592
▁같다	-8593
▁격려	-8594
▁꽃이	-8595
▁담겨	-8596
▁따르	-8597
▁많기	-8598
▁먹자	-8599
▁멋지	-8600
▁미뤄	-8601
▁서양	-8602
▁소방	-8603
▁수치	-8604
▁시기	-8605
▁아저	-8606
▁은퇴	-8607
▁점에	-8608
▁지혜	-8609
▁터치	-8610
되네요	-8611
쌉니다	-8612
집에서	-8613
▁거기로	-8614
▁단점은	-8615
▁링크를	-8616
▁모양을	-8617
▁베스트	-8618
▁보냈어	-8619
▁불편을	-8620
▁시장의	-8621
▁않았던	-8622
▁여성이	-8623
▁유용한	-8624
▁점수가	-8625
▁추가할	-8626
▁취소가	-8627
▁평가를	-8628
▁프리미	-8629
▁함께할	-8630
▁흥미가	-8631
적이라고	-8632
▁들어가지	-8633
▁생각이야	-8634
▁예정이니	-8635
▁잠시만요	-8636
▁제시간에	-8637
▁존재하지	-8638
▁주었어요	-8639
▁내부적으로	-8640
▁다행이에요	-8641
▁요리입니다	-8642
▁보내주십시오	-8643
▁생각하십니까	-8644
▁넥	-8645
▁뼈	-8646
▁찰	-8647
늦게	-8648
되게	-8649
스티	-8650
안은	-8651
어와	-8652
제의	-8653
지원	-8654
치면	-8655
▁겪고	-8656
▁골목	-8657
▁곳도	-8658
▁김밥	-8659
▁다친	-8660
▁동양	-8661
▁만화	-8662
▁믿는	-8663
▁바꿨	-8664
▁선거	-8665
▁손잡	-8666
▁스탠	-8667
▁시킬	-8668
▁아끼	-8669
▁업계	-8670
▁의논	-8671
▁책에	-8672
▁침해	-8673
▁캠페	-8674
▁틀린	-8675
▁향한	-8676
동으로	-8677
원에게	-8678
해줘서	-8679
▁각자의	-8680
▁간다면	-8681
▁과거의	-8682
▁끝나서	-8683
▁날짜는	-8684
▁넣으면	-8685
▁도면을	-8686
▁도시의	-8687
▁분홍색	-8688
▁수정이	-8689
▁시장이	-8690
▁오라고	-8691
▁자리로	-8692
▁종류는	-8693
▁좋았던	-8694
▁주에는	-8695
▁주위에	-8696
▁지역은	-8697
▁차량을	-8698
▁친환경	-8699
▁풍부한	-8700
▁하더라	-8701
하면서도	-8702
▁강아지가	-8703
▁계획하고	-8704
▁괜찮나요	-8705
▁괜찮은데	-8706
▁사람이야	-8707
▁아니라서	-8708
▁아침부터	-8709
▁없으니까	-8710
▁일어나지	-8711
▁정류장이	-8712
▁조심해야	-8713
▁지하철이	-8714
▁피아노를	-8715
해졌습니다	-8716
▁샵	-8717
▁찼	-8718
▁턱	-8719
개만	-8720
서도	-8721
소로	-8722
이도	-8723
진다	-8724
추는	-8725
팀이	-8726
▁강원	-8727
▁거는	-8728
▁납부	-8729
▁내서	-8730
▁명은	-8731
▁보수	-8732
▁불과	-8733
▁빨래	-8734
▁엉망	-8735
▁에센	-8736
▁여태	-8737
▁이길	-8738
▁이룰	-8739
▁잡는	-8740
▁장을	-8741
▁정당	-8742
▁직진	-8743
▁투숙	-8744
▁펼쳐	-8745
드에서	-8746
주에서	-8747
▁골프를	-8748
▁달러로	-8749
▁달러를	-8750
▁데스크	-8751
▁도저히	-8752
▁모양의	-8753
▁문화에	-8754
▁바꿔야	-8755
▁배워야	-8756
▁본인이	-8757
▁부담이	-8758
▁부분의	-8759
▁않았기	-8760
▁열쇠를	-8761
▁예약은	-8762
▁오래전	-8763
▁일회용	-8764
▁조심히	-8765
▁축제가	-8766
▁하루가	-8767
▁학교의	-8768
▁후에도	-8769
시입니다	-8770
▁교수님의	-8771
▁디자인의	-8772
▁먹었는데	-8773
▁변경하고	-8774
▁의미해요	-8775
▁있겠네요	-8776
▁창의적인	-8777
▁패스트푸	-8778
▁포함하여	-8779
▁대중교통을	-8780
▁진행하겠습니다	-8781
80	-8782
▁칩	-8783
계약	-8784
길을	-8785
라를	-8786
률을	-8787
서로	-8788
제에	-8789
킹을	-8790
▁경유	-8791
▁그릴	-8792
▁냉동	-8793
▁네이	-8794
▁단가	-8795
▁딸을	-8796
▁리그	-8797
▁만두	-8798
▁맛은	-8799
▁모험	-8800
▁물류	-8801
▁밤새	-8802
▁비트	-8803
▁소독	-8804
▁엑스	-8805
▁연령	-8806
▁위생	-8807
▁제임	-8808
▁조종	-8809
▁팀에	-8810
▁하려	-8811
▁해낼	-8812
▁휴무	-8813
원이고	-8814
으로도	-8815
▁가격도	-8816
▁게임이	-8817
▁경험은	-8818
▁계획에	-8819
▁고민을	-8820
▁남편과	-8821
▁문화와	-8822
▁밀가루	-8823
▁아는데	-8824
▁않다면	-8825
▁여자와	-8826
▁오시는	-8827
▁움직임	-8828
▁의자를	-8829
▁자격이	-8830
▁정도에	-8831
▁종이를	-8832
▁좌석이	-8833
▁주문에	-8834
▁클래식	-8835
스입니다	-8836
하였으며	-8837
▁가능하신	-8838
▁않으셔도	-8839
▁언젠가는	-8840
▁자세하게	-8841
▁자신감이	-8842
▁직장에서	-8843
▁청구서를	-8844
▁콘텐츠를	-8845
▁프로모션	-8846
▁해외여행	-8847
▁핸드폰이	-8848
▁현재까지	-8849
▁다행입니다	-8850
▁발견했어요	-8851
▁조심하세요	-8852
▁확인하시고	-8853
▁셰	-8854
▁퓨	-8855
같은	-8856
라가	-8857
마을	-8858
무게	-8859
미는	-8860
보험	-8861
통에	-8862
▁교과	-8863
▁글씨	-8864
▁닦아	-8865
▁더러	-8866
▁들리	-8867
▁망가	-8868
▁맡기	-8869
▁무지	-8870
▁물은	-8871
▁바가	-8872
▁반짝	-8873
▁시술	-8874
▁안경	-8875
▁않니	-8876
▁알기	-8877
▁얼룩	-8878
▁위원	-8879
▁유도	-8880
▁저런	-8881
▁정비	-8882
▁한식	-8883
▁호기	-8884
거예요	-8885
하지도	-8886
▁가만히	-8887
▁가져야	-8888
▁결제할	-8889
▁과일을	-8890
▁교육이	-8891
▁대체로	-8892
▁됐는데	-8893
▁바라며	-8894
▁방식이	-8895
▁배송비	-8896
▁생겼어	-8897
▁시장을	-8898
▁어디를	-8899
▁왔으면	-8900
▁이곳이	-8901
▁이상을	-8902
▁정도만	-8903
▁주제에	-8904
▁처리해	-8905
▁초점을	-8906
▁최초의	-8907
▁해결해	-8908
하더라도	-8909
▁내년에는	-8910
▁스파게티	-8911
▁예정이야	-8912
▁일러스트	-8913
▁주실래요	-8914
▁담당자에게	-8915
ad	-8916
ro	-8917
▁g	-8918
▁맹	-8919
▁윌	-8920
달을	-8921
체로	-8922
▁간직	-8923
▁거쳐	-8924
▁구현	-8925
▁대전	-8926
▁도면	-8927
▁반환	-8928
▁섹시	-8929
▁없네	-8930
▁옮기	-8931
▁유래	-8932
▁자율	-8933
▁중복	-8934
▁지폐	-8935
▁카레	-8936
▁협상	-8937
▁회전	-8938
▁후보	-8939
▁휴일	-8940
성으로	-8941
이므로	-8942
▁감사를	-8943
▁거라는	-8944
▁고객과	-8945
▁남자의	-8946
▁다음의	-8947
▁도중에	-8948
▁만났을	-8949
▁문화적	-8950
▁바라는	-8951
▁방문한	-8952
▁보내줘	-8953
▁시부터	-8954
▁실적이	-8955
▁연기를	-8956
▁움직일	-8957
▁원하고	-8958
▁이끌어	-8959
▁이슬람	-8960
▁즐겁고	-8961
▁태권도	-8962
▁혹시나	-8963
이라서요	-8964
함입니다	-8965
▁감사하고	-8966
▁감자튀김	-8967
▁구매하는	-8968
▁듯합니다	-8969
▁디자인에	-8970
▁마케팅을	-8971
▁보냈는데	-8972
▁손님들이	-8973
▁아름답고	-8974
▁원입니다	-8975
▁일자리를	-8976
▁있었는지	-8977
▁저녁에는	-8978
▁제출해야	-8979
▁존재하는	-8980
▁좋아하기	-8981
▁합리적인	-8982
▁힘들어서	-8983
▁고객님께서	-8984
▁문의드립니다	-8985
▁사과드립니다	-8986
▁아름답습니다	-8987
▁만들어졌습니다	-8988
글라	-8989
되길	-8990
학의	-8991
▁것들	-8992
▁넣는	-8993
▁네게	-8994
▁때에	-8995
▁만료	-8996
▁맡길	-8997
▁메이	-8998
▁무인	-8999
▁발음	-9000
▁범위	-9001
▁빌리	-9002
▁빛을	-9003
▁선풍	-9004
▁세척	-9005
▁승진	-9006
▁쓰기	-9007
▁양식	-9008
▁원격	-9009
▁유산	-9010
▁찾은	-9011
▁학과	-9012
들한테	-9013
랐어요	-9014
해줄게	-9015
▁관광지	-9016
▁관련한	-9017
▁누르면	-9018
▁단어는	-9019
▁들어왔	-9020
▁때로는	-9021
▁몸무게	-9022
▁물품이	-9023
▁바비큐	-9024
▁보내요	-9025
▁보도록	-9026
▁살아야	-9027
▁생산이	-9028
▁스타벅	-9029
▁아빠는	-9030
▁음식의	-9031
▁자리는	-9032
▁장애인	-9033
▁전체를	-9034
▁조치를	-9035
▁지켜야	-9036
▁취소를	-9037
▁한마디	-9038
▁해결책	-9039
렀습니다	-9040
케이션을	-9041
▁건강하고	-9042
▁방문하는	-9043
▁부릅니다	-9044
▁세계적인	-9045
▁알려줄게	-9046
▁어제저녁	-9047
▁인터뷰를	-9048
▁직원들은	-9049
▁디자인으로	-9050
▁시간이에요	-9051
▁우리나라는	-9052
▁확인해보고	-9053
▁탓	-9054
▁횟	-9055
감은	-9056
당을	-9057
력의	-9058
로도	-9059
산화	-9060
았을	-9061
요청	-9062
졌고	-9063
킬로	-9064
하루	-9065
▁경복	-9066
▁늦지	-9067
▁돌봐	-9068
▁목숨	-9069
▁보온	-9070
▁순수	-9071
▁쓰러	-9072
▁아플	-9073
▁옷에	-9074
▁원해	-9075
▁윈도	-9076
▁음주	-9077
▁이베	-9078
▁인물	-9079
▁창가	-9080
▁코멘	-9081
▁한옥	-9082
▁합법	-9083
▁호환	-9084
더라면	-9085
되기를	-9086
적이며	-9087
층에서	-9088
하므로	-9089
▁가게가	-9090
▁갈까요	-9091
▁공연이	-9092
▁귀사가	-9093
▁기계가	-9094
▁나는데	-9095
▁나아가	-9096
▁누구를	-9097
▁대답을	-9098
▁떠나는	-9099
▁바나나	-9100
▁받아요	-9101
▁빠져나	-9102
▁선택이	-9103
▁스타트	-9104
▁시장은	-9105
▁아이콘	-9106
▁잠깐만	-9107
▁잤어요	-9108
▁재료가	-9109
▁전달할	-9110
▁종이에	-9111
▁주어서	-9112
▁참석할	-9113
▁학교로	-9114
▁호텔의	-9115
▁가능하게	-9116
▁가능한데	-9117
▁공원에서	-9118
▁관점에서	-9119
▁뉴질랜드	-9120
▁많았어요	-9121
▁맛있어요	-9122
▁문제점을	-9123
▁사정으로	-9124
▁여쭤봐도	-9125
▁일합니다	-9126
▁작동하지	-9127
▁전반적인	-9128
시켰습니다	-9129
주었습니다	-9130
▁가능하세요	-9131
▁고객들에게	-9132
▁다음부터는	-9133
▁보였습니다	-9134
▁알려주시길	-9135
▁도와드릴까요	-9136
▁되어있습니다	-9137
▁확인해보세요	-9138
15	-9139
TV	-9140
▁껍	-9141
▁둥	-9142
라미	-9143
었나	-9144
▁교정	-9145
▁끝낼	-9146
▁놀아	-9147
▁늘려	-9148
▁도덕	-9149
▁부작	-9150
▁비난	-9151
▁뿌려	-9152
▁속도	-9153
▁약한	-9154
▁어머	-9155
▁엔진	-9156
▁여보	-9157
▁예배	-9158
▁점차	-9159
▁조작	-9160
▁차분	-9161
▁첨가	-9162
▁칼로	-9163
▁코코	-9164
▁트위	-9165
▁표본	-9166
▁허가	-9167
▁화재	-9168
▁흐름	-9169
면서도	-9170
사이즈	-9171
시에서	-9172
있어서	-9173
해서는	-9174
▁감동을	-9175
▁공부에	-9176
▁과정은	-9177
▁교환을	-9178
▁기준을	-9179
▁만들지	-9180
▁머무를	-9181
▁배우가	-9182
▁보내길	-9183
▁부탁을	-9184
▁분석을	-9185
▁비교적	-9186
▁신뢰를	-9187
▁오로지	-9188
▁왼쪽에	-9189
▁요청이	-9190
▁음료는	-9191
▁의해서	-9192
▁이동할	-9193
▁재발급	-9194
▁전시회	-9195
▁정부가	-9196
▁축제는	-9197
▁할인된	-9198
에서부터	-9199
▁고양이가	-9200
▁당신들의	-9201
▁배경으로	-9202
▁사진들을	-9203
▁수정해서	-9204
▁스타일을	-9205
▁시간에는	-9206
▁여기에는	-9207
▁연락하고	-9208
▁운동하는	-9209
▁이것으로	-9210
▁이용하실	-9211
▁있잖아요	-9212
▁넣어주세요	-9213
▁다녀왔어요	-9214
▁물어보세요	-9215
▁연락하세요	-9216
▁가져다드릴게요	-9217
ir	-9218
▁빚	-9219
▁솜	-9220
경기	-9221
고루	-9222
님과	-9223
었죠	-9224
플레	-9225
▁36	-9226
▁AA	-9227
▁값을	-9228
▁귀중	-9229
▁금속	-9230
▁나만	-9231
▁낮아	-9232
▁너에	-9233
▁노선	-9234
▁담은	-9235
▁대금	-9236
▁데로	-9237
▁독점	-9238
▁두꺼	-9239
▁마켓	-9240
▁매진	-9241
▁무선	-9242
▁복지	-9243
▁부른	-9244
▁사냥	-9245
▁스노	-9246
▁슬리	-9247
▁양말	-9248
▁언론	-9249
▁이직	-9250
▁초밥	-9251
▁키를	-9252
▁프런	-9253
▁학부	-9254
년부터	-9255
면으로	-9256
스럽고	-9257
해보자	-9258
해주지	-9259
▁123	-9260
▁경복궁	-9261
▁계좌를	-9262
▁귀찮게	-9263
▁규정에	-9264
▁기쁘게	-9265
▁김치를	-9266
▁내일이	-9267
▁대화할	-9268
▁빠르고	-9269
▁사회에	-9270
▁상담을	-9271
▁서울로	-9272
▁시대의	-9273
▁않으니	-9274
▁유사한	-9275
▁의자에	-9276
▁일이야	-9277
▁일해요	-9278
▁점심은	-9279
▁젓가락	-9280
▁주시는	-9281
▁지역을	-9282
▁지키는	-9283
▁지키지	-9284
▁해봐야	-9285
▁홍콩에	-9286
▁화장을	-9287
▁거기에는	-9288
▁대부분은	-9289
▁대표하는	-9290
▁드라이브	-9291
▁듣습니다	-9292
▁비행기는	-9293
▁않았다면	-9294
▁어렵다고	-9295
▁얼마인지	-9296
▁유명해요	-9297
▁이미지가	-9298
▁컴퓨터로	-9299
▁들어갑니다	-9300
▁생각됩니다	-9301
▁좋아하지만	-9302
▁진행합니다	-9303
▁커뮤니케이션	-9304
oo	-9305
▁곱	-9306
▁얹	-9307
▁엽	-9308
경에	-9309
디는	-9310
러서	-9311
림이	-9312
옷을	-9313
주일	-9314
하곤	-9315
행을	-9316
회사	-9317
▁감지	-9318
▁교사	-9319
▁남한	-9320
▁놓아	-9321
▁마법	-9322
▁몸은	-9323
▁바를	-9324
▁안쪽	-9325
▁오븐	-9326
▁와도	-9327
▁우아	-9328
▁잔디	-9329
▁전원	-9330
▁정정	-9331
▁조율	-9332
▁카톡	-9333
▁태그	-9334
▁폭발	-9335
▁플러	-9336
▁했지	-9337
▁혈액	-9338
▁힘내	-9339
는지요	-9340
센터에	-9341
하오니	-9342
▁강하게	-9343
▁건물은	-9344
▁겨울이	-9345
▁골고루	-9346
▁관하여	-9347
▁당신네	-9348
▁말했어	-9349
▁매력을	-9350
▁문의를	-9351
▁상관이	-9352
▁선적이	-9353
▁스트랩	-9354
▁시대에	-9355
▁엄마를	-9356
▁옛날에	-9357
▁유니폼	-9358
▁유치원	-9359
▁의미는	-9360
▁이외에	-9361
▁제시한	-9362
▁주말을	-9363
▁직원은	-9364
▁카운터	-9365
▁컨트롤	-9366
▁태어났	-9367
▁텍스트	-9368
▁특성을	-9369
▁팀에서	-9370
▁편리한	-9371
▁항공사	-9372
▁혜택을	-9373
▁환자의	-9374
리입니다	-9375
▁노력해요	-9376
▁도와드릴	-9377
▁말씀드렸	-9378
▁물건들을	-9379
▁알려주길	-9380
▁에어컨을	-9381
▁여름에는	-9382
▁있거든요	-9383
▁즐거움을	-9384
▁퇴근하고	-9385
▁해결해야	-9386
▁해수욕장	-9387
▁해주셔서	-9388
보았습니다	-9389
▁사람이라고	-9390
▁존재합니다	-9391
▁주문하려고	-9392
되어있습니다	-9393
해보겠습니다	-9394
▁꺾	-9395
▁뭉	-9396
▁씹	-9397
▁잉	-9398
과정	-9399
권에	-9400
길에	-9401
매가	-9402
명과	-9403
아는	-9404
오가	-9405
오염	-9406
이브	-9407
입고	-9408
▁갖는	-9409
▁과도	-9410
▁딱딱	-9411
▁매너	-9412
▁민족	-9413
▁살인	-9414
▁섬유	-9415
▁소포	-9416
▁숫자	-9417
▁실력	-9418
▁일기	-9419
▁지점	-9420
▁짜장	-9421
▁크레	-9422
▁타러	-9423
▁퇴사	-9424
▁하네	-9425
▁한쪽	-9426
▁한편	-9427
▁홀로	-9428
단으로	-9429
되도록	-9430
되었을	-9431
하셨던	-9432
▁감사의	-9433
▁결정이	-9434
▁교복을	-9435
▁기숙사	-9436
▁나라로	-9437
▁뒤에서	-9438
▁맞추어	-9439
▁목적을	-9440
▁문화의	-9441
▁받았고	-9442
▁소년은	-9443
▁송장을	-9444
▁수준의	-9445
▁실수가	-9446
▁얼마를	-9447
▁에스컬	-9448
▁영원한	-9449
▁예쁘고	-9450
▁올리는	-9451
▁장점을	-9452
▁적당히	-9453
▁전체에	-9454
▁진행한	-9455
▁하라고	-9456
▁행운이	-9457
▁활동에	-9458
페이지를	-9459
했었어요	-9460
▁고객님께	-9461
▁관리하는	-9462
▁교환학생	-9463
▁노트북을	-9464
▁목소리가	-9465
▁발생해요	-9466
▁아이디를	-9467
▁예약하신	-9468
▁주셨으면	-9469
▁주인공은	-9470
▁하루하루	-9471
▁금요일까지	-9472
▁적용됩니다	-9473
▁에스컬레이터	-9474
▁준비했습니다	-9475
▁뚫	-9476
▁멘	-9477
▁융	-9478
▁칵	-9479
국은	-9480
박스	-9481
업의	-9482
월이	-9483
차로	-9484
쳤어	-9485
후에	-9486
▁갈비	-9487
▁거랑	-9488
▁고무	-9489
▁고소	-9490
▁귀걸	-9491
▁균형	-9492
▁근본	-9493
▁금일	-9494
▁놓을	-9495
▁달아	-9496
▁담고	-9497
▁뒤집	-9498
▁불꽃	-9499
▁사은	-9500
▁살을	-9501
▁서랍	-9502
▁어리	-9503
▁어찌	-9504
▁유머	-9505
▁의류	-9506
▁일일	-9507
▁읽은	-9508
▁저작	-9509
▁칵테	-9510
▁캠프	-9511
▁클레	-9512
▁파우	-9513
▁피고	-9514
문으로	-9515
시간은	-9516
에게서	-9517
▁같군요	-9518
▁걱정을	-9519
▁그분은	-9520
▁다름이	-9521
▁드려야	-9522
▁떡볶이	-9523
▁매장은	-9524
▁모두를	-9525
▁모습은	-9526
▁보내서	-9527
▁상태에	-9528
▁생활이	-9529
▁세계에	-9530
▁어렵고	-9531
▁영향이	-9532
▁이상은	-9533
▁자유를	-9534
▁재활용	-9535
▁전략을	-9536
▁정책을	-9537
▁준비는	-9538
▁줄이고	-9539
▁중국은	-9540
▁지나서	-9541
▁초록색	-9542
▁치즈를	-9543
▁크기를	-9544
▁하셔서	-9545
▁한복을	-9546
하겠다고	-9547
▁가능하며	-9548
▁고속도로	-9549
▁그러시면	-9550
▁돌아가는	-9551
▁마사지를	-9552
▁방문하고	-9553
▁브랜드의	-9554
▁아니라는	-9555
▁얘기하는	-9556
▁어제부터	-9557
▁이곳으로	-9558
▁자신들의	-9559
▁주민등록	-9560
▁추천하고	-9561
▁친절하고	-9562
▁화장실은	-9563
▁후회하지	-9564
보겠습니다	-9565
▁반갑습니다	-9566
▁생각하기에	-9567
▁스트레스가	-9568
▁아름다움을	-9569
▁해외여행을	-9570
▁효율적으로	-9571
국제	-9572
놓을	-9573
눈에	-9574
따라	-9575
움에	-9576
쟁이	-9577
지길	-9578
찌개	-9579
▁개방	-9580
▁근로	-9581
▁길은	-9582
▁널리	-9583
▁도메	-9584
▁드시	-9585
▁로비	-9586
▁리가	-9587
▁먹었	-9588
▁모집	-9589
▁버거	-9590
▁브로	-9591
▁세안	-9592
▁수를	-9593
▁스프	-9594
▁신이	-9595
▁열려	-9596
▁자외	-9597
▁작곡	-9598
▁저것	-9599
▁창출	-9600
▁퇴직	-9601
▁편히	-9602
▁회화	-9603
되었던	-9604
원들이	-9605
이어서	-9606
했으며	-9607
▁Con	-9608
▁건물을	-9609
▁계기가	-9610
▁기술의	-9611
▁내리고	-9612
▁대회에	-9613
▁드시는	-9614
▁무거운	-9615
▁미소를	-9616
▁바지를	-9617
▁배송은	-9618
▁삶에서	-9619
▁아쉬워	-9620
▁어렵게	-9621
▁업체가	-9622
▁영어에	-9623
▁워크숍	-9624
▁이곳의	-9625
▁정거장	-9626
▁정보와	-9627
▁출퇴근	-9628
▁키우고	-9629
▁파일에	-9630
수입니다	-9631
주십시오	-9632
▁계신가요	-9633
▁되겠네요	-9634
▁물어보는	-9635
▁부산에서	-9636
▁비슷하게	-9637
▁생각하게	-9638
▁싫어해요	-9639
▁알겠어요	-9640
▁여동생이	-9641
▁예전에는	-9642
▁좋아하게	-9643
▁중요하지	-9644
▁캐나다에	-9645
▁하겠어요	-9646
▁나타냅니다	-9647
▁도와줍니다	-9648
▁불가능해요	-9649
▁요청했어요	-9650
▁프로젝트가	-9651
▁효과적으로	-9652
▁발생했습니다	-9653
▁위해서입니다	-9654
▁확인하였습니다	-9655
lo	-9656
~2	-9657
▁닉	-9658
감에	-9659
망을	-9660
숙한	-9661
원과	-9662
웠다	-9663
인당	-9664
팀은	-9665
학기	-9666
학에	-9667
호가	-9668
▁3,	-9669
▁간식	-9670
▁강요	-9671
▁단단	-9672
▁담요	-9673
▁대충	-9674
▁때를	-9675
▁라운	-9676
▁마늘	-9677
▁맛집	-9678
▁매표	-9679
▁바래	-9680
▁발이	-9681
▁밴드	-9682
▁복숭	-9683
▁상하	-9684
▁손목	-9685
▁시공	-9686
▁시럽	-9687
▁유창	-9688
▁이별	-9689
▁이집	-9690
▁일한	-9691
▁입찰	-9692
▁주간	-9693
▁중순	-9694
▁추정	-9695
▁틀어	-9696
▁혼합	-9697
▁환율	-9698
금으로	-9699
레인지	-9700
신다면	-9701
▁가득한	-9702
▁가수가	-9703
▁공원에	-9704
▁그런가	-9705
▁기차가	-9706
▁느끼지	-9707
▁들으면	-9708
▁등록을	-9709
▁마이클	-9710
▁모여서	-9711
▁목적이	-9712
▁번에는	-9713
▁보기엔	-9714
▁상처가	-9715
▁성함과	-9716
▁아래로	-9717
▁없이는	-9718
▁원산지	-9719
▁종류를	-9720
▁축제에	-9721
▁충격을	-9722
▁커피숍	-9723
▁크기는	-9724
▁클럽에	-9725
▁타이어	-9726
▁특징을	-9727
▁행사는	-9728
▁가능하고	-9729
▁가르치는	-9730
▁결혼식에	-9731
▁때문이죠	-9732
▁샌드위치	-9733
▁아쉽네요	-9734
▁인터넷이	-9735
▁존재해요	-9736
▁졸업하고	-9737
▁주문서를	-9738
▁페이지에	-9739
▁피곤해요	-9740
▁하나님의	-9741
▁것이었어요	-9742
▁생각합니까	-9743
▁원하시나요	-9744
▁자연스러운	-9745
▁필요하시면	-9746
▁다하겠습니다	-9747
▁시작하겠습니다	-9748
18	-9749
CC	-9750
ct	-9751
▁랩	-9752
▁붓	-9753
▁춘	-9754
만은	-9755
번의	-9756
세계	-9757
션에	-9758
팀과	-9759
퍼를	-9760
▁게이	-9761
▁결승	-9762
▁고구	-9763
▁구운	-9764
▁그나	-9765
▁기온	-9766
▁동화	-9767
▁모레	-9768
▁변환	-9769
▁빼앗	-9770
▁상쾌	-9771
▁설날	-9772
▁소진	-9773
▁액체	-9774
▁얻어	-9775
▁자부	-9776
▁지진	-9777
▁차려	-9778
▁청바	-9779
▁큰일	-9780
▁통일	-9781
거리를	-9782
기에서	-9783
드리지	-9784
으려면	-9785
지면서	-9786
▁가봐야	-9787
▁그리는	-9788
▁기억나	-9789
▁기억을	-9790
▁들어와	-9791
▁메일은	-9792
▁모르니	-9793
▁물어볼	-9794
▁바쁘게	-9795
▁부동산	-9796
▁부서에	-9797
▁사이가	-9798
▁사회의	-9799
▁살아가	-9800
▁상태는	-9801
▁수영장	-9802
▁순간이	-9803
▁시간의	-9804
▁썼어요	-9805
▁양식을	-9806
▁어렵지	-9807
▁올리고	-9808
▁우수한	-9809
▁이제야	-9810
▁인증을	-9811
▁작품이	-9812
▁정부의	-9813
▁주변을	-9814
▁주변의	-9815
▁즐거워	-9816
▁직업에	-9817
▁집까지	-9818
▁크기의	-9819
▁하고자	-9820
▁해야만	-9821
들로부터	-9822
하였는데	-9823
해졌어요	-9824
▁갔었어요	-9825
▁검토하고	-9826
▁공부해서	-9827
▁공항까지	-9828
▁들어가야	-9829
▁마련되어	-9830
▁말했듯이	-9831
▁모르겠네	-9832
▁사회에서	-9833
▁생각하며	-9834
▁시작하고	-9835
▁시작해서	-9836
▁앞으로의	-9837
▁어머니의	-9838
▁요청하는	-9839
▁인천에서	-9840
▁있겠어요	-9841
▁참고하여	-9842
▁친구들도	-9843
▁카메라는	-9844
▁커뮤니티	-9845
▁클라이언	-9846
▁한국인이	-9847
▁결과적으로	-9848
▁구매하려고	-9849
▁진행하도록	-9850
▁연락드립니다	-9851
▁우리나라에서	-9852
id	-9853
▁숟	-9854
▁쏘	-9855
기능	-9856
더를	-9857
마는	-9858
방송	-9859
약은	-9860
움은	-9861
짬뽕	-9862
▁감염	-9863
▁계열	-9864
▁돈가	-9865
▁맞고	-9866
▁맞출	-9867
▁법적	-9868
▁본사	-9869
▁부엌	-9870
▁뽑아	-9871
▁뿌리	-9872
▁서두	-9873
▁세종	-9874
▁수락	-9875
▁시티	-9876
▁쏟아	-9877
▁어째	-9878
▁엉덩	-9879
▁오일	-9880
▁재배	-9881
▁저지	-9882
▁주름	-9883
▁주식	-9884
▁진한	-9885
▁화상	-9886
▁회색	-9887
가에서	-9888
서비스	-9889
자로서	-9890
학과에	-9891
▁건물에	-9892
▁검토해	-9893
▁과정에	-9894
▁관계로	-9895
▁광고는	-9896
▁그걸로	-9897
▁그곳을	-9898
▁그곳의	-9899
▁기준이	-9900
▁길이가	-9901
▁냉장고	-9902
▁돌아다	-9903
▁돌아온	-9904
▁매장이	-9905
▁모르게	-9906
▁못하면	-9907
▁뭐든지	-9908
▁바다가	-9909
▁받았다	-9910
▁배송해	-9911
▁배우기	-9912
▁보기에	-9913
▁사회를	-9914
▁세트로	-9915
▁얘기할	-9916
▁와인을	-9917
▁완전한	-9918
▁있다니	-9919
▁작동이	-9920
▁장면을	-9921
▁저희를	-9922
▁주의를	-9923
▁추워서	-9924
▁취소해	-9925
▁커피는	-9926
▁태도를	-9927
▁특징은	-9928
▁하시고	-9929
▁개인정보	-9930
▁결정하는	-9931
▁냉장고에	-9932
▁담당하고	-9933
▁당신과의	-9934
▁대해서도	-9935
▁데이터가	-9936
▁들어와서	-9937
▁떨어지는	-9938
▁못하지만	-9939
▁생각하니	-9940
▁안됩니다	-9941
▁않았다고	-9942
▁없는데요	-9943
▁엔지니어	-9944
▁이상하게	-9945
▁자신만의	-9946
▁지났는데	-9947
▁지원하게	-9948
▁참여하는	-9949
▁추천하는	-9950
▁했었는데	-9951
▁확인하기	-9952
▁나라에서는	-9953
▁보내주시길	-9954
▁지원합니다	-9955
▁주문하겠습니다	-9956
▁첨부하였습니다	-9957
TS	-9958
ap	-9959
ip	-9960
▁붐	-9961
▁샷	-9962
값이	-9963
보를	-9964
볶음	-9965
셨을	-9966
시장	-9967
아의	-9968
웠고	-9969
졌을	-9970
증명	-9971
켓을	-9972
쿠버	-9973
▁간다	-9974
▁걷고	-9975
▁걸쳐	-9976
▁공룡	-9977
▁구별	-9978
▁나니	-9979
▁높여	-9980
▁두께	-9981
▁마카	-9982
▁매콤	-9983
▁무거	-9984
▁묻고	-9985
▁미소	-9986
▁방수	-9987
▁부가	-9988
▁빛이	-9989
▁사물	-9990
▁살지	-9991
▁샀어	-9992
▁생태	-9993
▁세련	-9994
▁암호	-9995
▁오피	-9996
▁장갑	-9997
▁정산	-9998
▁주무	-9999
▁짓을	-10000
▁충실	-10001
▁취해	-10002
▁포토	-10003
▁형제	-10004
있는데	-10005
졌다고	-10006
▁경기는	-10007
▁넘어가	-10008
▁되돌아	-10009
▁등록된	-10010
▁라면을	-10011
▁머리에	-10012
▁모양이	-10013
▁발송할	-10014
▁보상을	-10015
▁보이게	-10016
▁선물이	-10017
▁설문조	-10018
▁속도가	-10019
▁시리얼	-10020
▁연결해	-10021
▁옵션을	-10022
▁외국에	-10023
▁요청에	-10024
▁요청할	-10025
▁운동할	-10026
▁월드컵	-10027
▁일하게	-10028
▁정류장	-10029
▁줬으면	-10030
▁지금이	-10031
▁지원한	-10032
▁침대에	-10033
▁택배를	-10034
지입니다	-10035
▁깔끔하게	-10036
▁나왔는데	-10037
▁대략적인	-10038
▁배터리가	-10039
▁비행기에	-10040
▁사용하실	-10041
▁상대방의	-10042
▁선호하는	-10043
▁스튜디오	-10044
▁어디까지	-10045
▁예전부터	-10046
▁홍콩에서	-10047
▁몰랐습니다	-10048
▁얻었습니다	-10049
▁이야기하는	-10050
▁텔레비전을	-10051
▁해드릴까요	-10052
40	-10053
ie	-10054
~3	-10055
▁몹	-10056
▁썩	-10057
▁톤	-10058
뷔페	-10059
선에	-10060
성한	-10061
심한	-10062
전한	-10063
형은	-10064
▁가리	-10065
▁계곡	-10066
▁공중	-10067
▁녹음	-10068
▁눈썹	-10069
▁룸메	-10070
▁맛도	-10071
▁명백	-10072
▁몹시	-10073
▁무의	-10074
▁배정	-10075
▁버섯	-10076
▁베네	-10077
▁본격	-10078
▁비정	-10079
▁소주	-10080
▁시킨	-10081
▁시합	-10082
▁신어	-10083
▁안될	-10084
▁알바	-10085
▁위와	-10086
▁저항	-10087
▁정중	-10088
▁첫인	-10089
▁해양	-10090
셨군요	-10091
▁그랬어	-10092
▁그렇긴	-10093
▁도시는	-10094
▁버리고	-10095
▁보시는	-10096
▁비트코	-10097
▁사람에	-10098
▁사용될	-10099
▁서류에	-10100
▁선적을	-10101
▁성공한	-10102
▁스피커	-10103
▁실험을	-10104
▁아기를	-10105
▁어딘지	-10106
▁없어도	-10107
▁여행에	-10108
▁예술가	-10109
▁오기를	-10110
▁정리해	-10111
▁정신을	-10112
▁준비된	-10113
▁중요시	-10114
▁축제를	-10115
▁카페가	-10116
▁태풍이	-10117
▁표정이	-10118
▁프레임	-10119
▁피곤해	-10120
▁학기에	-10121
▁허리가	-10122
드렸어요	-10123
인들에게	-10124
▁다니면서	-10125
▁떨어져서	-10126
▁모르는데	-10127
▁배송비를	-10128
▁소개하고	-10129
▁순서대로	-10130
▁시작하면	-10131
▁아름답게	-10132
▁연락하는	-10133
▁영수증이	-10134
▁요청하고	-10135
▁음식으로	-10136
▁이메일에	-10137
▁인테리어	-10138
▁좋겠는데	-10139
▁책임감을	-10140
▁초등학생	-10141
▁포함하고	-10142
▁가졌습니다	-10143
▁남자친구와	-10144
▁부분입니다	-10145
▁아이디어가	-10146
▁했었습니다	-10147
▁생각하시나요	-10148
▁가져다드리겠습니다	-10149
16	-10150
▁앓	-10151
▁콧	-10152
▁탱	-10153
▁핼	-10154
겨서	-10155
레스	-10156
사용	-10157
스텔	-10158
의로	-10159
조를	-10160
주민	-10161
증은	-10162
질의	-10163
▁CE	-10164
▁CO	-10165
▁PD	-10166
▁그로	-10167
▁까다	-10168
▁나간	-10169
▁도난	-10170
▁막기	-10171
▁많으	-10172
▁맨날	-10173
▁몰래	-10174
▁반도	-10175
▁밝고	-10176
▁보살	-10177
▁불리	-10178
▁사로	-10179
▁삽입	-10180
▁수립	-10181
▁아티	-10182
▁연착	-10183
▁윤리	-10184
▁이리	-10185
▁자막	-10186
▁장례	-10187
▁정체	-10188
▁죽음	-10189
▁직무	-10190
▁최저	-10191
겠지요	-10192
되면서	-10193
받아야	-10194
인들을	-10195
인지는	-10196
▁400	-10197
▁간식을	-10198
▁공부도	-10199
▁관계에	-10200
▁기록을	-10201
▁나가면	-10202
▁내용과	-10203
▁놀이터	-10204
▁동네에	-10205
▁되었을	-10206
▁되지만	-10207
▁마시지	-10208
▁마음껏	-10209
▁많지만	-10210
▁배달이	-10211
▁베이징	-10212
▁부탁해	-10213
▁언급한	-10214
▁엄마랑	-10215
▁완벽히	-10216
▁원활한	-10217
▁은행이	-10218
▁일본어	-10219
▁자기소	-10220
▁저쪽에	-10221
▁졸업식	-10222
▁주어야	-10223
▁죽음을	-10224
▁줄이기	-10225
▁친구야	-10226
▁침대가	-10227
▁투자를	-10228
▁특성상	-10229
▁한동안	-10230
되었다는	-10231
▁계시나요	-10232
▁계십니다	-10233
▁괜찮다고	-10234
▁구매하면	-10235
▁도와주고	-10236
▁못했는데	-10237
▁보았어요	-10238
▁부족해요	-10239
▁비디오를	-10240
▁스트레칭	-10241
▁여자들이	-10242
▁유지하는	-10243
▁있는지요	-10244
▁자유로운	-10245
▁작성해야	-10246
▁잘합니다	-10247
▁적용되는	-10248
▁주신다면	-10249
▁채식주의	-10250
▁할머니가	-10251
▁선호합니다	-10252
▁알려줄게요	-10253
▁이용하시면	-10254
▁주겠습니다	-10255
▁괜찮으시다면	-10256
▁알려주시겠습니까	-10257
▁-	-10258
▁쉐	-10259
▁퀄	-10260
공간	-10261
관광	-10262
니는	-10263
다를	-10264
다시	-10265
라테	-10266
러를	-10267
리우	-10268
산의	-10269
신은	-10270
양을	-10271
연을	-10272
이상	-10273
학은	-10274
▁간주	-10275
▁개나	-10276
▁공주	-10277
▁기둥	-10278
▁디테	-10279
▁레슨	-10280
▁멀어	-10281
▁무상	-10282
▁밀려	-10283
▁밸런	-10284
▁보신	-10285
▁복합	-10286
▁봄이	-10287
▁부채	-10288
▁빨라	-10289
▁사본	-10290
▁상반	-10291
▁소득	-10292
▁알람	-10293
▁언덕	-10294
▁없으	-10295
▁연간	-10296
▁외교	-10297
▁유출	-10298
▁이쁜	-10299
▁일과	-10300
▁조그	-10301
▁주된	-10302
▁지킬	-10303
▁직면	-10304
▁추세	-10305
▁충돌	-10306
가지의	-10307
방에서	-10308
사운드	-10309
시스템	-10310
았으면	-10311
주셔야	-10312
▁198	-10313
▁거리는	-10314
▁광고가	-10315
▁교환해	-10316
▁넘어서	-10317
▁뉴스를	-10318
▁다른데	-10319
▁달라질	-10320
▁드려도	-10321
▁들어야	-10322
▁바이올	-10323
▁변화에	-10324
▁병원을	-10325
▁비용에	-10326
▁손해를	-10327
▁수리를	-10328
▁신발이	-10329
▁없잖아	-10330
▁오더를	-10331
▁이대로	-10332
▁있으나	-10333
▁제출할	-10334
▁취소할	-10335
▁큰일이	-10336
▁토대로	-10337
▁풍경을	-10338
▁했잖아	-10339
줬습니다	-10340
▁공부해야	-10341
▁그쪽으로	-10342
▁보내려고	-10343
▁사용자가	-10344
▁스타일의	-10345
▁아픕니다	-10346
▁재미있고	-10347
▁친구들의	-10348
▁케이스를	-10349
▁프로그래	-10350
▁회의에서	-10351
▁걸렸습니다	-10352
▁것만으로도	-10353
▁늦었습니다	-10354
▁동의합니다	-10355
▁리얼사운드	-10356
▁비즈니스를	-10357
▁살았습니다	-10358
▁있으십니까	-10359
▁조금이라도	-10360
▁필요한가요	-10361
▁보내드리도록	-10362
▁이루어집니다	-10363
▁홈페이지에서	-10364
IN	-10365
▁껴	-10366
▁삐	-10367
▁횡	-10368
▁힙	-10369
당에	-10370
두는	-10371
량에	-10372
맛이	-10373
인실	-10374
작업	-10375
절이	-10376
즈는	-10377
차는	-10378
파서	-10379
피가	-10380
▁LC	-10381
▁간략	-10382
▁괜히	-10383
▁국립	-10384
▁놓여	-10385
▁달은	-10386
▁답이	-10387
▁동그	-10388
▁듯한	-10389
▁라는	-10390
▁막을	-10391
▁보너	-10392
▁뷔페	-10393
▁설마	-10394
▁심플	-10395
▁앉을	-10396
▁알파	-10397
▁어둠	-10398
▁에세	-10399
▁옮길	-10400
▁입에	-10401
▁잔뜩	-10402
▁저축	-10403
▁적을	-10404
▁조식	-10405
▁지닌	-10406
▁집의	-10407
▁찜질	-10408
▁팀장	-10409
▁한류	-10410
겁니다	-10411
었네요	-10412
하잖아	-10413
화하는	-10414
▁가자고	-10415
▁갈수록	-10416
▁고맙고	-10417
▁공연은	-10418
▁권리를	-10419
▁기업이	-10420
▁기차는	-10421
▁기회에	-10422
▁나이에	-10423
▁날에는	-10424
▁다음주	-10425
▁데이비	-10426
▁도시를	-10427
▁똑똑한	-10428
▁많으니	-10429
▁메뉴로	-10430
▁바람을	-10431
▁베이스	-10432
▁살아남	-10433
▁상세한	-10434
▁숟가락	-10435
▁신고를	-10436
▁오나요	-10437
▁올라갈	-10438
▁전쟁을	-10439
▁코미디	-10440
▁파티가	-10441
▁품질이	-10442
▁프린터	-10443
▁플러그	-10444
▁환전을	-10445
▁힘들지	-10446
기보다는	-10447
되었는데	-10448
하거든요	-10449
▁가능하니	-10450
▁강아지는	-10451
▁비쌉니다	-10452
▁사진에서	-10453
▁아쉽게도	-10454
▁아쉽지만	-10455
▁어디인지	-10456
▁업체에서	-10457
▁여러분께	-10458
▁완료되면	-10459
▁증명서를	-10460
▁지급해야	-10461
▁진행하면	-10462
▁카메라가	-10463
▁내렸습니다	-10464
▁목표입니다	-10465
▁영화입니다	-10466
▁오겠습니다	-10467
▁이해합니다	-10468
▁추천해주세요	-10469
.3	-10470
▁쫄	-10471
▁퀴	-10472
건이	-10473
기엔	-10474
라니	-10475
료로	-10476
마저	-10477
번을	-10478
스피	-10479
신청	-10480
유로	-10481
이게	-10482
적은	-10483
주인	-10484
▁LA	-10485
▁구역	-10486
▁귀가	-10487
▁기쁜	-10488
▁끝냈	-10489
▁나중	-10490
▁났어	-10491
▁단점	-10492
▁뜻을	-10493
▁렌트	-10494
▁말자	-10495
▁명심	-10496
▁명을	-10497
▁목격	-10498
▁보석	-10499
▁분기	-10500
▁빠질	-10501
▁연어	-10502
▁영역	-10503
▁예비	-10504
▁이래	-10505
▁읽기	-10506
▁전투	-10507
▁종업	-10508
▁초래	-10509
▁측에	-10510
▁친근	-10511
▁캠퍼	-10512
▁타지	-10513
▁패킹	-10514
▁화폐	-10515
▁흥분	-10516
관계를	-10517
월까지	-10518
웠지만	-10519
플레이	-10520
▁120	-10521
▁것이니	-10522
▁군대에	-10523
▁나네요	-10524
▁놀이공	-10525
▁동안의	-10526
▁사업이	-10527
▁사업자	-10528
▁색으로	-10529
▁성장을	-10530
▁승인이	-10531
▁않다는	-10532
▁업체와	-10533
▁연결된	-10534
▁요구를	-10535
▁작아서	-10536
▁저렇게	-10537
▁주려고	-10538
▁중학생	-10539
▁지원이	-10540
▁친하게	-10541
▁클렌징	-10542
▁투어를	-10543
버렸어요	-10544
▁거기까지	-10545
▁동아리에	-10546
▁뜻입니다	-10547
▁먹으면서	-10548
▁방문하여	-10549
▁봐주세요	-10550
▁아름다워	-10551
▁없어서요	-10552
▁이후에는	-10553
▁적극적인	-10554
▁지나가는	-10555
▁페이지를	-10556
▁기다리시면	-10557
▁사용했어요	-10558
▁영광입니다	-10559
▁음식이에요	-10560
▁있겠습니까	-10561
▁정도입니다	-10562
70	-10563
un	-10564
▁램	-10565
▁웅	-10566
급을	-10567
니깐	-10568
반에	-10569
병을	-10570
보호	-10571
서류	-10572
조가	-10573
크로	-10574
팅을	-10575
▁감싸	-10576
▁갱신	-10577
▁걸렸	-10578
▁고백	-10579
▁공모	-10580
▁규제	-10581
▁네일	-10582
▁당근	-10583
▁데뷔	-10584
▁듣게	-10585
▁떠났	-10586
▁뚜렷	-10587
▁사막	-10588
▁섞어	-10589
▁손해	-10590
▁스태	-10591
▁시야	-10592
▁인출	-10593
▁잘됐	-10594
▁저가	-10595
▁주최	-10596
▁준수	-10597
▁진통	-10598
▁총을	-10599
▁투입	-10600
▁파리	-10601
▁후로	-10602
성적인	-10603
였으면	-10604
힙니다	-10605
▁UPS	-10606
▁결정할	-10607
▁고려해	-10608
▁관계는	-10609
▁권한을	-10610
▁그날은	-10611
▁나이는	-10612
▁나타난	-10613
▁눈물이	-10614
▁다루는	-10615
▁돌아와	-10616
▁무리가	-10617
▁바구니	-10618
▁바다에	-10619
▁방문을	-10620
▁방안을	-10621
▁볶음밥	-10622
▁브라운	-10623
▁사용된	-10624
▁생각나	-10625
▁숙소에	-10626
▁순간을	-10627
▁알아볼	-10628
▁어째서	-10629
▁위험을	-10630
▁이것도	-10631
▁자연을	-10632
▁잘못을	-10633
▁커피가	-10634
▁피곤한	-10635
적으로는	-10636
▁겨울에는	-10637
▁남았는데	-10638
▁놀랐어요	-10639
▁도시에서	-10640
▁들어오지	-10641
▁뜻이에요	-10642
▁스타일은	-10643
▁없었는데	-10644
▁이것들을	-10645
▁일어나고	-10646
▁지하철역	-10647
▁진지하게	-10648
▁찾으시는	-10649
▁프리미엄	-10650
▁갔었습니다	-10651
▁기다리셔야	-10652
▁봉사활동을	-10653
▁사용하시면	-10654
▁없으신가요	-10655
▁하시겠어요	-10656
▁한국에서도	-10657
▁기다려주시면	-10658
AR	-10659
if	-10660
▁긁	-10661
▁덧	-10662
▁래	-10663
▁잇	-10664
▁챔	-10665
담을	-10666
데이	-10667
러는	-10668
심에	-10669
정류	-10670
▁가짜	-10671
▁간이	-10672
▁값이	-10673
▁거북	-10674
▁경계	-10675
▁공짜	-10676
▁극단	-10677
▁높게	-10678
▁니가	-10679
▁듯이	-10680
▁뜨거	-10681
▁로고	-10682
▁로스	-10683
▁바쁠	-10684
▁배낭	-10685
▁부합	-10686
▁심장	-10687
▁어쩐	-10688
▁열고	-10689
▁오징	-10690
▁외식	-10691
▁원자	-10692
▁원치	-10693
▁있대	-10694
▁작게	-10695
▁주유	-10696
▁증빙	-10697
▁진입	-10698
▁포워	-10699
▁향수	-10700
사들은	-10701
우니까	-10702
일에서	-10703
자들과	-10704
졌으면	-10705
▁250	-10706
▁EMS	-10707
▁건데요	-10708
▁것이야	-10709
▁계산할	-10710
▁계약은	-10711
▁나누는	-10712
▁다음날	-10713
▁모르겠	-10714
▁모아서	-10715
▁반면에	-10716
▁번역이	-10717
▁보내도	-10718
▁보냈던	-10719
▁빛나는	-10720
▁사고로	-10721
▁사업은	-10722
▁생명을	-10723
▁스미스	-10724
▁시계를	-10725
▁심해서	-10726
▁안경을	-10727
▁업체를	-10728
▁없었던	-10729
▁여기저	-10730
▁외에는	-10731
▁음식점	-10732
▁이용이	-10733
▁일하기	-10734
▁작업에	-10735
▁재미가	-10736
▁저녁은	-10737
▁전공을	-10738
▁전체가	-10739
▁절차가	-10740
▁점에서	-10741
▁제한이	-10742
▁조건은	-10743
▁주문해	-10744
▁줄이는	-10745
▁중이며	-10746
▁진료를	-10747
▁질문은	-10748
▁처음엔	-10749
▁출발할	-10750
▁특유의	-10751
▁편의점	-10752
▁홍보를	-10753
명입니다	-10754
하시려면	-10755
▁같습니까	-10756
▁고객들은	-10757
▁궁금하신	-10758
▁다행히도	-10759
▁만들었어	-10760
▁받으세요	-10761
▁생각해서	-10762
▁안정적인	-10763
▁연락하지	-10764
▁왔는데요	-10765
▁요리하는	-10766
▁움직이지	-10767
▁제공되는	-10768
▁지난달에	-10769
▁지연되고	-10770
▁하셨어요	-10771
▁항공권을	-10772
▁계시는가요	-10773
▁끝났습니다	-10774
▁예정입니까	-10775
▁정기적으로	-10776
▁하더라고요	-10777
▁행복했어요	-10778
▁돌아왔습니다	-10779
45	-10780
▁깃	-10781
라의	-10782
무늬	-10783
운동	-10784
제한	-10785
쯤은	-10786
평가	-10787
핑을	-10788
ent	-10789
▁깨어	-10790
▁낚시	-10791
▁낮에	-10792
▁논쟁	-10793
▁다짐	-10794
▁단골	-10795
▁레몬	-10796
▁매월	-10797
▁면이	-10798
▁밀어	-10799
▁밤이	-10800
▁버리	-10801
▁비치	-10802
▁선보	-10803
▁소풍	-10804
▁숨을	-10805
▁실질	-10806
▁액션	-10807
▁여왕	-10808
▁열릴	-10809
▁옳은	-10810
▁작고	-10811
▁잠금	-10812
▁재판	-10813
▁조항	-10814
▁주관	-10815
▁착륙	-10816
▁크루	-10817
▁한계	-10818
▁협업	-10819
▁형이	-10820
▁황금	-10821
들이랑	-10822
▁건물의	-10823
▁경찰에	-10824
▁계산을	-10825
▁교육의	-10826
▁그렇고	-10827
▁나에겐	-10828
▁내부에	-10829
▁단가를	-10830
▁문제점	-10831
▁밤늦게	-10832
▁보통은	-10833
▁사람인	-10834
▁성인이	-10835
▁습관을	-10836
▁어쩌죠	-10837
▁업무는	-10838
▁음식과	-10839
▁작성해	-10840
▁장면은	-10841
▁재능이	-10842
▁제목은	-10843
▁주소와	-10844
▁주인이	-10845
▁직원들	-10846
▁창문을	-10847
▁첨부해	-10848
▁출장이	-10849
▁활동이	-10850
롭습니다	-10851
었습니까	-10852
▁게임에서	-10853
▁남자에게	-10854
▁대중교통	-10855
▁들어오면	-10856
▁바이어가	-10857
▁버스에서	-10858
▁버스정류	-10859
▁번째로는	-10860
▁보내주면	-10861
▁부서에서	-10862
▁싫습니다	-10863
▁아티스트	-10864
▁여행에서	-10865
▁입장에서	-10866
▁중국어를	-10867
▁중에서도	-10868
▁첨부하여	-10869
▁필요해서	-10870
▁한국말을	-10871
▁도착합니다	-10872
▁제품이에요	-10873
▁좋아하세요	-10874
▁주문하시면	-10875
▁직원들에게	-10876
▁사용했습니다	-10877
▁축하드립니다	-10878
▁변경되었습니다	-10879
OT	-10880
▁랜	-10881
▁붕	-10882
▁흙	-10883
건은	-10884
것이	-10885
관과	-10886
나의	-10887
되니	-10888
러블	-10889
러윈	-10890
룻밤	-10891
률은	-10892
리즘	-10893
마켓	-10894
복지	-10895
부와	-10896
불로	-10897
불을	-10898
와도	-10899
질은	-10900
▁CS	-10901
▁개만	-10902
▁경력	-10903
▁곳곳	-10904
▁교류	-10905
▁군대	-10906
▁돌고	-10907
▁드론	-10908
▁마친	-10909
▁모터	-10910
▁몸의	-10911
▁부럽	-10912
▁부인	-10913
▁산에	-10914
▁상위	-10915
▁서툴	-10916
▁선발	-10917
▁성함	-10918
▁수박	-10919
▁수표	-10920
▁실리	-10921
▁쓰인	-10922
▁어묵	-10923
▁올랐	-10924
▁워터	-10925
▁의식	-10926
▁이가	-10927
▁정답	-10928
▁즉석	-10929
▁지은	-10930
▁지침	-10931
▁짬뽕	-10932
▁체류	-10933
▁층에	-10934
▁키즈	-10935
▁헌신	-10936
▁흔한	-10937
랜드는	-10938
였지만	-10939
▁규칙을	-10940
▁기업은	-10941
▁나가고	-10942
▁도전을	-10943
▁면에서	-10944
▁물어본	-10945
▁방식은	-10946
▁방해가	-10947
▁보여준	-10948
▁뽀로로	-10949
▁사귀고	-10950
▁상당한	-10951
▁시작된	-10952
▁식사가	-10953
▁아저씨	-10954
▁알겠어	-10955
▁오스트	-10956
▁장면이	-10957
▁저기에	-10958
▁좋을지	-10959
▁준다면	-10960
▁택시가	-10961
▁학생을	-10962
▁해보는	-10963
▁핼러윈	-10964
▁확률이	-10965
▁흥미로	-10966
▁가집니다	-10967
▁경기에서	-10968
▁고려하여	-10969
▁기다리면	-10970
▁뉴욕에서	-10971
▁다가오는	-10972
▁다닙니다	-10973
▁문의하신	-10974
▁민주주의	-10975
▁바라보는	-10976
▁생깁니다	-10977
▁신분증을	-10978
▁엄마에게	-10979
▁연결되어	-10980
▁영수증은	-10981
▁일하면서	-10982
▁있을게요	-10983
▁전까지는	-10984
▁전적으로	-10985
▁중간고사	-10986
▁포인트가	-10987
▁효율적인	-10988
하시겠어요	-10989
▁기다리세요	-10990
▁방법이에요	-10991
▁셔틀버스를	-10992
▁찾았습니다	-10993
▁최종적으로	-10994
▁캐나다에서	-10995
▁준비하겠습니다	-10996
CO	-10997
op	-10998
가서	-10999
렸던	-11000
모레	-11001
바이	-11002
시의	-11003
신고	-11004
외로	-11005
종을	-11006
층이	-11007
코올	-11008
크에	-11009
회전	-11010
▁LG	-11011
▁갖춘	-11012
▁걸고	-11013
▁게으	-11014
▁교실	-11015
▁구름	-11016
▁능숙	-11017
▁댄스	-11018
▁땅에	-11019
▁매트	-11020
▁멀티	-11021
▁뭐죠	-11022
▁반사	-11023
▁발목	-11024
▁방의	-11025
▁변형	-11026
▁보네	-11027
▁부자	-11028
▁살게	-11029
▁수의	-11030
▁수직	-11031
▁시드	-11032
▁실무	-11033
▁어지	-11034
▁얻게	-11035
▁염려	-11036
▁오시	-11037
▁옥수	-11038
▁우측	-11039
▁이렇	-11040
▁일해	-11041
▁잃은	-11042
▁자르	-11043
▁자식	-11044
▁장단	-11045
▁적도	-11046
▁전형	-11047
▁접착	-11048
▁제니	-11049
▁증상	-11050
▁지친	-11051
▁출항	-11052
▁테마	-11053
▁토너	-11054
▁투명	-11055
▁편할	-11056
▁하락	-11057
▁하차	-11058
▁협동	-11059
가지를	-11060
받아서	-11061
원들은	-11062
으셔야	-11063
▁LED	-11064
▁가져온	-11065
▁글쎄요	-11066
▁기계는	-11067
▁기억해	-11068
▁당사의	-11069
▁드레스	-11070
▁들었다	-11071
▁또다시	-11072
▁라벨을	-11073
▁마을에	-11074
▁말해서	-11075
▁메뉴판	-11076
▁무게를	-11077
▁미국과	-11078
▁버전을	-11079
▁설치할	-11080
▁소고기	-11081
▁아시안	-11082
▁온도를	-11083
▁위주로	-11084
▁이름의	-11085
▁이전의	-11086
▁일해야	-11087
▁있군요	-11088
▁있듯이	-11089
▁있었기	-11090
▁잘못한	-11091
▁정리를	-11092
▁줄래요	-11093
▁지니고	-11094
▁직원의	-11095
▁티켓은	-11096
▁하기를	-11097
▁하룻밤	-11098
▁할인은	-11099
▁해외에	-11100
▁현장에	-11101
▁호주에	-11102
제입니다	-11103
▁누군가의	-11104
▁디자인과	-11105
▁마칩니다	-11106
▁박물관에	-11107
▁받아들일	-11108
▁보내드리	-11109
▁사랑하지	-11110
▁일정으로	-11111
▁측면에서	-11112
▁핸드폰에	-11113
▁확인하지	-11114
해야겠어요	-11115
▁뵙겠습니다	-11116
▁불러주세요	-11117
▁사랑한다고	-11118
▁소개합니다	-11119
▁월요일까지	-11120
▁장소입니다	-11121
▁15,000	-11122
▁연락드렸습니다	-11123
▁튜	-11124
▁펀	-11125
국수	-11126
그룹	-11127
길이	-11128
됐어	-11129
로만	-11130
리그	-11131
상황	-11132
아리	-11133
유한	-11134
자면	-11135
피언	-11136
화할	-11137
300	-11138
▁MC	-11139
▁감수	-11140
▁겸손	-11141
▁공인	-11142
▁과장	-11143
▁그립	-11144
▁나뉘	-11145
▁달린	-11146
▁도보	-11147
▁로드	-11148
▁바삭	-11149
▁봤던	-11150
▁사지	-11151
▁서술	-11152
▁소망	-11153
▁송도	-11154
▁순환	-11155
▁신의	-11156
▁유해	-11157
▁의상	-11158
▁인권	-11159
▁잃지	-11160
▁작아	-11161
▁조개	-11162
▁주가	-11163
▁죽기	-11164
▁창피	-11165
▁키우	-11166
▁타워	-11167
▁평일	-11168
▁플랜	-11169
▁피가	-11170
▁해라	-11171
다고요	-11172
렀어요	-11173
시군요	-11174
웨어를	-11175
▁경기도	-11176
▁계정이	-11177
▁공유할	-11178
▁과목을	-11179
▁관광을	-11180
▁구조를	-11181
▁기술은	-11182
▁나라가	-11183
▁단위로	-11184
▁동안에	-11185
▁등으로	-11186
▁레시피	-11187
▁먹방을	-11188
▁방송을	-11189
▁배송할	-11190
▁버스에	-11191
▁변화는	-11192
▁비용과	-11193
▁사로잡	-11194
▁세상의	-11195
▁순수한	-11196
▁안드로	-11197
▁약속한	-11198
▁오리지	-11199
▁완성된	-11200
▁운전할	-11201
▁원하면	-11202
▁유지할	-11203
▁의미로	-11204
▁입어야	-11205
▁정치적	-11206
▁좌석을	-11207
▁중국인	-11208
▁찾아볼	-11209
▁테니스	-11210
▁표시된	-11211
▁품질을	-11212
▁하겠다	-11213
▁학생들	-11214
▁해줘서	-11215
▁행복이	-11216
▁2013	-11217
▁것보다는	-11218
▁결혼하고	-11219
▁교통사고	-11220
▁그랬어요	-11221
▁마십니다	-11222
▁바이올린	-11223
▁방문해서	-11224
▁백화점에	-11225
▁생산하는	-11226
▁서비스의	-11227
▁솔직하게	-11228
▁스티커를	-11229
▁시험에서	-11230
▁신혼여행	-11231
▁여기서는	-11232
▁유행하는	-11233
▁일본으로	-11234
▁저녁으로	-11235
▁중요성을	-11236
▁지원하는	-11237
▁해결하는	-11238
▁구매하시면	-11239
▁나타납니다	-11240
▁남자친구는	-11241
▁어떠신가요	-11242
▁웹사이트를	-11243
▁일요일에는	-11244
BA	-11245
ur	-11246
▁굵	-11247
▁잎	-11248
▁혐	-11249
개에	-11250
기념	-11251
나고	-11252
머리	-11253
명세	-11254
모가	-11255
성도	-11256
왔고	-11257
층은	-11258
치의	-11259
퍼센	-11260
ter	-11261
▁객관	-11262
▁기상	-11263
▁남기	-11264
▁낫지	-11265
▁눈은	-11266
▁단독	-11267
▁동행	-11268
▁마술	-11269
▁망설	-11270
▁멍청	-11271
▁모공	-11272
▁바뀔	-11273
▁방어	-11274
▁보드	-11275
▁부스	-11276
▁부지	-11277
▁분노	-11278
▁붙잡	-11279
▁비율	-11280
▁사형	-11281
▁살려	-11282
▁새겨	-11283
▁수선	-11284
▁스터	-11285
▁쌓아	-11286
▁씨와	-11287
▁씨의	-11288
▁야기	-11289
▁여드	-11290
▁월미	-11291
▁장미	-11292
▁주스	-11293
▁침착	-11294
▁크로	-11295
▁한때	-11296
▁합쳐	-11297
분이면	-11298
석으로	-11299
으라고	-11300
으로만	-11301
▁게임에	-11302
▁게임의	-11303
▁고개를	-11304
▁교환할	-11305
▁규정을	-11306
▁기계에	-11307
▁나이를	-11308
▁너희는	-11309
▁놓치지	-11310
▁누구의	-11311
▁다녀올	-11312
▁다해서	-11313
▁대리님	-11314
▁등록이	-11315
▁로맨틱	-11316
▁물품은	-11317
▁바라고	-11318
▁보았다	-11319
▁부드러	-11320
▁불만을	-11321
▁선적할	-11322
▁시카고	-11323
▁실리콘	-11324
▁싶나요	-11325
▁아니기	-11326
▁안타까	-11327
▁열정이	-11328
▁열차를	-11329
▁용량이	-11330
▁위치는	-11331
▁이유에	-11332
▁있기는	-11333
▁자원봉	-11334
▁작성한	-11335
▁전원을	-11336
▁지난해	-11337
▁지진이	-11338
▁집중할	-11339
▁통화할	-11340
▁파운데	-11341
▁해결방	-11342
▁화면에	-11343
▁화면이	-11344
▁환경이	-11345
대학교에	-11346
▁고양이는	-11347
▁나오는데	-11348
▁내용으로	-11349
▁룸메이트	-11350
▁발생하고	-11351
▁셔틀버스	-11352
▁수업에서	-11353
▁아파트에	-11354
▁운전하는	-11355
▁유지하고	-11356
▁장소에서	-11357
▁전공하고	-11358
▁정상적인	-11359
▁하셨는데	-11360
▁Contr	-11361
▁고등학교에	-11362
▁그중에서도	-11363
▁나라입니다	-11364
▁상황이에요	-11365
▁업데이트를	-11366
▁오래전부터	-11367
▁일본에서는	-11368
▁직접적으로	-11369
▁참고하세요	-11370
▁페이스북을	-11371
▁프레젠테이션	-11372
▁해드리겠습니다	-11373
MA	-11374
MO	-11375
VR	-11376
▁캄	-11377
▁헛	-11378
간에	-11379
고요	-11380
구로	-11381
달에	-11382
발이	-11383
사무	-11384
스키	-11385
액이	-11386
양이	-11387
장애	-11388
직을	-11389
했나	-11390
and	-11391
▁32	-11392
▁금전	-11393
▁김에	-11394
▁넥타	-11395
▁단일	-11396
▁돋보	-11397
▁리모	-11398
▁마인	-11399
▁박사	-11400
▁복귀	-11401
▁부대	-11402
▁부어	-11403
▁분쟁	-11404
▁서운	-11405
▁수월	-11406
▁써도	-11407
▁연료	-11408
▁예시	-11409
▁원두	-11410
▁유대	-11411
▁이르	-11412
▁입증	-11413
▁점도	-11414
▁주사	-11415
▁콘크	-11416
▁탄력	-11417
▁트윈	-11418
▁팁을	-11419
▁팬이	-11420
▁해물	-11421
▁해봐	-11422
▁호랑	-11423
달라는	-11424
당에서	-11425
되었어	-11426
분들이	-11427
시네요	-11428
조차도	-11429
쪽에서	-11430
▁가는지	-11431
▁계시면	-11432
▁구매가	-11433
▁날씨에	-11434
▁노력은	-11435
▁놀이기	-11436
▁높이는	-11437
▁떨어질	-11438
▁먹었던	-11439
▁멋있는	-11440
▁모임에	-11441
▁문서는	-11442
▁보고를	-11443
▁부재중	-11444
▁선물은	-11445
▁수학을	-11446
▁스키를	-11447
▁시내에	-11448
▁신나게	-11449
▁아프고	-11450
▁어른이	-11451
▁어우러	-11452
▁오빠가	-11453
▁요소를	-11454
▁음료수	-11455
▁의지가	-11456
▁입구에	-11457
▁입장이	-11458
▁있거나	-11459
▁있지요	-11460
▁장소로	-11461
▁재능을	-11462
▁전화할	-11463
▁채널을	-11464
▁콘퍼런	-11465
▁클라우	-11466
▁혜택이	-11467
▁활용한	-11468
▁회신이	-11469
▁흐르는	-11470
도입니다	-11471
되었으면	-11472
▁가보세요	-11473
▁그곳으로	-11474
▁나타나는	-11475
▁나타내는	-11476
▁당연하지	-11477
▁대한항공	-11478
▁대회에서	-11479
▁데이트를	-11480
▁도착하기	-11481
▁리스트에	-11482
▁말씀드리	-11483
▁보내줄게	-11484
▁불편함을	-11485
▁설치되어	-11486
▁신중하게	-11487
▁썼습니다	-11488
▁외국인과	-11489
▁이외에도	-11490
▁지금처럼	-11491
▁참여하고	-11492
▁문의합니다	-11493
▁아니었어요	-11494
▁적어주세요	-11495
▁전해주세요	-11496
▁좋아했어요	-11497
▁준비했어요	-11498
▁가져다주세요	-11499
▁나타났습니다	-11500
▁들어있습니다	-11501
▁발송하겠습니다	-11502
▁설명하겠습니다	-11503
-2	-11504
▁.	-11505
▁w	-11506
▁갇	-11507
▁뱀	-11508
▁휠	-11509
교를	-11510
구이	-11511
모를	-11512
사업	-11513
아몬	-11514
어에	-11515
우를	-11516
움과	-11517
정의	-11518
주길	-11519
칫솔	-11520
테니	-11521
▁55	-11522
▁EX	-11523
▁감당	-11524
▁감옥	-11525
▁갖춰	-11526
▁갤러	-11527
▁경고	-11528
▁관여	-11529
▁논문	-11530
▁닮은	-11531
▁덕분	-11532
▁딸의	-11533
▁마중	-11534
▁막상	-11535
▁명예	-11536
▁바꾼	-11537
▁빠를	-11538
▁색은	-11539
▁스와	-11540
▁습득	-11541
▁실습	-11542
▁아픔	-11543
▁알리	-11544
▁양도	-11545
▁온몸	-11546
▁외근	-11547
▁용기	-11548
▁웨딩	-11549
▁잔인	-11550
▁정규	-11551
▁주저	-11552
▁중지	-11553
▁짓는	-11554
▁챙기	-11555
▁체포	-11556
▁치과	-11557
▁치워	-11558
▁키울	-11559
▁타깃	-11560
▁파란	-11561
▁팔을	-11562
▁평상	-11563
▁풀고	-11564
▁플레	-11565
▁한두	-11566
▁항의	-11567
까지도	-11568
된다는	-11569
드려서	-11570
로서의	-11571
버스를	-11572
았지만	-11573
었으니	-11574
자리가	-11575
정보를	-11576
▁2~3	-11577
▁API	-11578
▁같다는	-11579
▁결제한	-11580
▁계단을	-11581
▁기사님	-11582
▁깔끔한	-11583
▁깨끗이	-11584
▁다하고	-11585
▁되어요	-11586
▁만나길	-11587
▁맞는데	-11588
▁모임이	-11589
▁미국을	-11590
▁바라보	-11591
▁바이러	-11592
▁받으신	-11593
▁부위에	-11594
▁불만이	-11595
▁살아갈	-11596
▁색깔을	-11597
▁선수는	-11598
▁성장할	-11599
▁아이와	-11600
▁언어로	-11601
▁여행객	-11602
▁옆으로	-11603
▁월급을	-11604
▁음악에	-11605
▁음악이	-11606
▁인도의	-11607
▁입어보	-11608
▁있으실	-11609
▁장비의	-11610
▁정도를	-11611
▁제안한	-11612
▁트래킹	-11613
▁하는가	-11614
▁함부로	-11615
뿐입니다	-11616
▁고려해야	-11617
▁다른가요	-11618
▁다음에도	-11619
▁단계에서	-11620
▁데이터는	-11621
▁드라마는	-11622
▁들어가고	-11623
▁리포트를	-11624
▁문제없이	-11625
▁문제점이	-11626
▁보내도록	-11627
▁보셨나요	-11628
▁선수들이	-11629
▁아까부터	-11630
▁어려워서	-11631
▁유지하기	-11632
▁익숙하지	-11633
▁중국으로	-11634
▁직원들의	-11635
▁카메라의	-11636
▁편리하게	-11637
▁평소보다	-11638
▁필요한지	-11639
▁대한민국의	-11640
▁신용카드로	-11641
▁아시다시피	-11642
▁웹사이트에	-11643
▁지하철에서	-11644
▁페이스북에	-11645
▁Control	-11646
od	-11647
▁넷	-11648
▁럭	-11649
것을	-11650
나와	-11651
란드	-11652
렸고	-11653
메뉴	-11654
버린	-11655
일으	-11656
자들	-11657
치와	-11658
클럽	-11659
팀의	-11660
▁ID	-11661
▁xx	-11662
▁감명	-11663
▁건이	-11664
▁검정	-11665
▁것일	-11666
▁곳의	-11667
▁교복	-11668
▁끼워	-11669
▁내의	-11670
▁뜻이	-11671
▁레드	-11672
▁매칭	-11673
▁미칠	-11674
▁병을	-11675
▁분할	-11676
▁설비	-11677
▁성경	-11678
▁수제	-11679
▁수프	-11680
▁어플	-11681
▁역에	-11682
▁연인	-11683
▁유동	-11684
▁응용	-11685
▁인력	-11686
▁인제	-11687
▁일곱	-11688
▁정품	-11689
▁중소	-11690
▁진심	-11691
▁집어	-11692
▁커튼	-11693
▁크지	-11694
▁탁월	-11695
▁팝콘	-11696
▁필름	-11697
▁해지	-11698
▁형은	-11699
▁활기	-11700
▁회수	-11701
▁힙합	-11702
달러로	-11703
시험을	-11704
오세요	-11705
용품을	-11706
인데도	-11707
해지면	-11708
▁600	-11709
▁객실로	-11710
▁견적서	-11711
▁고기가	-11712
▁과제가	-11713
▁국가가	-11714
▁규모가	-11715
▁근육이	-11716
▁기념품	-11717
▁기대를	-11718
▁기사가	-11719
▁긴장을	-11720
▁김치는	-11721
▁나오게	-11722
▁넘치는	-11723
▁눈물을	-11724
▁다가가	-11725
▁당연한	-11726
▁대금을	-11727
▁뒤에는	-11728
▁물건의	-11729
▁바이오	-11730
▁받아보	-11731
▁보였어	-11732
▁본다면	-11733
▁부담을	-11734
▁불량이	-11735
▁비교해	-11736
▁사인을	-11737
▁수요가	-11738
▁수정을	-11739
▁숙소를	-11740
▁신청한	-11741
▁아내는	-11742
▁아니니	-11743
▁아들을	-11744
▁않기를	-11745
▁연극을	-11746
▁영상이	-11747
▁유익한	-11748
▁이것과	-11749
▁있겠니	-11750
▁잘생긴	-11751
▁장시간	-11752
▁적용할	-11753
▁졸업을	-11754
▁챔피언	-11755
▁최선의	-11756
▁최악의	-11757
▁퀄리티	-11758
▁피곤할	-11759
▁하기에	-11760
▁하루는	-11761
▁했으니	-11762
▁화나게	-11763
▁회신해	-11764
▁CCTV	-11765
▁대통령이	-11766
▁명확하게	-11767
▁배웠어요	-11768
▁부드럽고	-11769
▁스포츠를	-11770
▁신입사원	-11771
▁알기로는	-11772
▁우체국에	-11773
▁이동하는	-11774
▁정리하고	-11775
▁제품들이	-11776
▁주변에서	-11777
▁집안일을	-11778
▁추가해서	-11779
▁콘서트를	-11780
▁걱정입니다	-11781
▁기대됩니다	-11782
▁메뉴입니다	-11783
▁생각하는데	-11784
▁선택하세요	-11785
▁어디입니까	-11786
▁업데이트된	-11787
▁여자친구와	-11788
▁중요하지만	-11789
▁필요하신가요	-11790
해주시겠습니까	-11791
.7	-11792
mL	-11793
ow	-11794
▁n	-11795
▁굶	-11796
▁꼽	-11797
▁놨	-11798
▁는	-11799
개와	-11800
결이	-11801
능한	-11802
다운	-11803
대와	-11804
로써	-11805
빨리	-11806
염이	-11807
자료	-11808
추를	-11809
타임	-11810
포인	-11811
하에	-11812
학습	-11813
▁개정	-11814
▁고른	-11815
▁길러	-11816
▁너네	-11817
▁년에	-11818
▁둘은	-11819
▁마요	-11820
▁면역	-11821
▁문학	-11822
▁반면	-11823
▁복구	-11824
▁산타	-11825
▁선사	-11826
▁성별	-11827
▁술에	-11828
▁씨를	-11829
▁안락	-11830
▁양산	-11831
▁에서	-11832
▁연차	-11833
▁오디	-11834
▁원이	-11835
▁인재	-11836
▁자산	-11837
▁전산	-11838
▁점수	-11839
▁정수	-11840
▁조깅	-11841
▁조명	-11842
▁줄래	-11843
▁지고	-11844
▁치유	-11845
▁팀워	-11846
▁포트	-11847
▁표는	-11848
▁플래	-11849
▁형식	-11850
느냐에	-11851
닙니까	-11852
았다고	-11853
학년이	-11854
함으로	-11855
▁가격의	-11856
▁가다가	-11857
▁같지만	-11858
▁결혼한	-11859
▁경찰은	-11860
▁계산은	-11861
▁곧바로	-11862
▁굉장한	-11863
▁교훈을	-11864
▁구하고	-11865
▁뉴욕에	-11866
▁느껴요	-11867
▁따라가	-11868
▁마카오	-11869
▁만든다	-11870
▁매장을	-11871
▁먹어본	-11872
▁먹었다	-11873
▁목소리	-11874
▁무게가	-11875
▁무언가	-11876
▁불고기	-11877
▁상자에	-11878
▁속도로	-11879
▁수리가	-11880
▁알맞은	-11881
▁업체는	-11882
▁영어와	-11883
▁용돈을	-11884
▁의견은	-11885
▁재미를	-11886
▁제작을	-11887
▁주기로	-11888
▁진짜로	-11889
▁청구서	-11890
▁촬영이	-11891
▁최상의	-11892
▁함께한	-11893
▁화물을	-11894
▁환자가	-11895
▁간호사가	-11896
▁계십니까	-11897
▁기본으로	-11898
▁깨끗하고	-11899
▁꼼꼼하게	-11900
▁남동생은	-11901
▁남자들이	-11902
▁당신들은	-11903
▁들어가기	-11904
▁들으면서	-11905
▁모양으로	-11906
▁사용자의	-11907
▁사이즈의	-11908
▁수정하여	-11909
▁시간까지	-11910
▁시작해야	-11911
▁싶었지만	-11912
▁않겠어요	-11913
▁에어컨이	-11914
▁오리지널	-11915
▁인종차별	-11916
▁지금보다	-11917
▁진정으로	-11918
▁참석하지	-11919
▁찾으세요	-11920
▁책임감이	-11921
▁처리해야	-11922
▁최근에는	-11923
▁충분하지	-11924
▁트레이닝	-11925
▁해주시고	-11926
▁레스토랑은	-11927
▁상품입니다	-11928
▁아름다워요	-11929
▁예약했어요	-11930
▁주기적으로	-11931
▁지났습니다	-11932
▁홈페이지를	-11933
▁30,000	-11934
▁50,000	-11935
32	-11936
▁l	-11937
▁덩	-11938
▁몬	-11939
내기	-11940
드러	-11941
마리	-11942
말이	-11943
백을	-11944
사진	-11945
운전	-11946
있다	-11947
토리	-11948
티콘	-11949
퍼가	-11950
▁강림	-11951
▁강제	-11952
▁곁들	-11953
▁공이	-11954
▁귀국	-11955
▁꾸며	-11956
▁노예	-11957
▁논리	-11958
▁도중	-11959
▁땅을	-11960
▁땅콩	-11961
▁마땅	-11962
▁맑은	-11963
▁무겁	-11964
▁무작	-11965
▁믿음	-11966
▁발권	-11967
▁보시	-11968
▁보편	-11969
▁불고	-11970
▁사귄	-11971
▁선을	-11972
▁소형	-11973
▁수동	-11974
▁온다	-11975
▁우산	-11976
▁이끄	-11977
▁일의	-11978
▁자제	-11979
▁장의	-11980
▁접할	-11981
▁지낸	-11982
▁지능	-11983
▁철학	-11984
▁칫솔	-11985
▁컨설	-11986
▁케빈	-11987
▁코를	-11988
개월이	-11989
사항은	-11990
주시는	-11991
하시오	-11992
▁가을에	-11993
▁개발한	-11994
▁결정에	-11995
▁경험과	-11996
▁고유의	-11997
▁그릇에	-11998
▁기운이	-11999
▁기재된	-12000
▁꼼꼼히	-12001
▁능력은	-12002
▁동생은	-12003
▁드는데	-12004
▁때보다	-12005
▁만났어	-12006
▁많네요	-12007
▁말까지	-12008
▁먹는데	-12009
▁멋지게	-12010
▁박스를	-12011
▁발표는	-12012
▁부득이	-12013
▁부러워	-12014
▁불러서	-12015
▁생선을	-12016
▁샤워를	-12017
▁선글라	-12018
▁시드니	-12019
▁아프게	-12020
▁않으며	-12021
▁알코올	-12022
▁어쩐지	-12023
▁역사에	-12024
▁용기가	-12025
▁우선순	-12026
▁웃음을	-12027
▁유기농	-12028
▁유학을	-12029
▁의하면	-12030
▁인식이	-12031
▁있겠어	-12032
▁자세를	-12033
▁정보에	-12034
▁취업을	-12035
▁패턴을	-12036
▁표현한	-12037
▁행운을	-12038
받았어요	-12039
해주셔야	-12040
▁가족에게	-12041
▁궁금해서	-12042
▁그때부터	-12043
▁다르지만	-12044
▁대학교를	-12045
▁못했지만	-12046
▁문제인지	-12047
▁불립니다	-12048
▁싶으세요	-12049
▁아쉬워요	-12050
▁어떡하지	-12051
▁여기저기	-12052
▁여러분을	-12053
▁여자에게	-12054
▁오늘따라	-12055
▁오래전에	-12056
▁이곳에는	-12057
▁이메일이	-12058
▁이미지는	-12059
▁이벤트에	-12060
▁인상적이	-12061
▁재미있을	-12062
▁전문적인	-12063
▁직접적인	-12064
▁체크인을	-12065
▁취소해야	-12066
▁티셔츠를	-12067
▁환경에서	-12068
▁걱정됩니다	-12069
▁백화점에서	-12070
▁여러분에게	-12071
▁원하신다면	-12072
▁전화했어요	-12073
▁하셨습니다	-12074
▁시작되었습니다	-12075
iv	-12076
▁쇠	-12077
▁짠	-12078
과도	-12079
도그	-12080
려나	-12081
사이	-12082
서요	-12083
석에	-12084
스름	-12085
이네	-12086
정책	-12087
질러	-12088
추어	-12089
필요	-12090
ess	-12091
▁5%	-12092
▁Mr	-12093
▁가이	-12094
▁감시	-12095
▁강사	-12096
▁고등	-12097
▁깜박	-12098
▁다닌	-12099
▁단종	-12100
▁드신	-12101
▁마일	-12102
▁맡고	-12103
▁발매	-12104
▁방사	-12105
▁분의	-12106
▁비중	-12107
▁스쿼	-12108
▁압축	-12109
▁없나	-12110
▁연동	-12111
▁용접	-12112
▁원어	-12113
▁전의	-12114
▁줬어	-12115
▁짓고	-12116
▁취한	-12117
▁행위	-12118
관으로	-12119
구에서	-12120
로서는	-12121
린다고	-12122
사항에	-12123
시스코	-12124
줄게요	-12125
지네요	-12126
하겠어	-12127
했었다	-12128
▁가도록	-12129
▁같던데	-12130
▁개인이	-12131
▁객실이	-12132
▁검토를	-12133
▁경력이	-12134
▁교육은	-12135
▁그중에	-12136
▁기타를	-12137
▁내용의	-12138
▁냅니다	-12139
▁느꼈어	-12140
▁당사는	-12141
▁대상이	-12142
▁들었던	-12143
▁라이브	-12144
▁레이저	-12145
▁렌터카	-12146
▁리조트	-12147
▁마라톤	-12148
▁마시러	-12149
▁모델로	-12150
▁모두의	-12151
▁목적지	-12152
▁바꿔서	-12153
▁방법과	-12154
▁보았을	-12155
▁부지런	-12156
▁빠지는	-12157
▁산책을	-12158
▁샘플에	-12159
▁생각만	-12160
▁수표를	-12161
▁스티브	-12162
▁시기에	-12163
▁시끄럽	-12164
▁시도를	-12165
▁시작해	-12166
▁아내와	-12167
▁에어비	-12168
▁예산을	-12169
▁온도가	-12170
▁이내로	-12171
▁이들이	-12172
▁인생이	-12173
▁일단은	-12174
▁잘해요	-12175
▁장비가	-12176
▁조금은	-12177
▁졸업한	-12178
▁지급을	-12179
▁진실한	-12180
▁찍어도	-12181
▁첫째로	-12182
▁추가해	-12183
▁포스팅	-12184
▁해외로	-12185
▁현금을	-12186
▁효과는	-12187
▁훈련을	-12188
시겠지만	-12189
▁느껴지는	-12190
▁느꼈어요	-12191
▁다음번에	-12192
▁떠오르는	-12193
▁배송비가	-12194
▁보이지만	-12195
▁색상으로	-12196
▁선생님과	-12197
▁스케줄은	-12198
▁신제품을	-12199
▁알려주는	-12200
▁에이전트	-12201
▁영화관에	-12202
▁와주세요	-12203
▁움직임을	-12204
▁일어나면	-12205
▁제공하지	-12206
▁주변에는	-12207
▁침대에서	-12208
▁프랑스에	-12209
▁하셨나요	-12210
▁해결책을	-12211
▁환불하고	-12212
▁때문이라고	-12213
▁머리카락이	-12214
▁먹방입니다	-12215
▁발생했어요	-12216
▁일어납니다	-12217
▁할아버지가	-12218
▁확인합니다	-12219
▁예약했습니다	-12220
-1	-12221
.1	-12222
25	-12223
EM	-12224
ag	-12225
▁?	-12226
가격	-12227
년째	-12228
대문	-12229
란이	-12230
먼트	-12231
여름	-12232
우며	-12233
있을	-12234
질과	-12235
집은	-12236
천만	-12237
층의	-12238
▁가꾸	-12239
▁가볼	-12240
▁나뭇	-12241
▁네덜	-12242
▁동남	-12243
▁물고	-12244
▁보답	-12245
▁불쌍	-12246
▁수취	-12247
▁쉬워	-12248
▁시쯤	-12249
▁쓰던	-12250
▁애들	-12251
▁얇은	-12252
▁오니	-12253
▁오페	-12254
▁완화	-12255
▁용이	-12256
▁원숭	-12257
▁위를	-12258
▁위안	-12259
▁정차	-12260
▁증정	-12261
▁지붕	-12262
▁지향	-12263
▁쪽이	-12264
▁치마	-12265
▁탄산	-12266
▁팔레	-12267
▁포르	-12268
▁폴더	-12269
▁해제	-12270
라인을	-12271
량으로	-12272
분으로	-12273
셨는지	-12274
이지요	-12275
할만한	-12276
▁가라앉	-12277
▁가슴이	-12278
▁가지로	-12279
▁간절히	-12280
▁갔었어	-12281
▁거래가	-12282
▁결과로	-12283
▁고객사	-12284
▁곳이야	-12285
▁그러다	-12286
▁기대가	-12287
▁기준에	-12288
▁나가지	-12289
▁나오기	-12290
▁다르기	-12291
▁달라는	-12292
▁대학원	-12293
▁더러운	-12294
▁들으니	-12295
▁디스크	-12296
▁라이선	-12297
▁마음속	-12298
▁마카롱	-12299
▁만나야	-12300
▁모습에	-12301
▁문장이	-12302
▁물건에	-12303
▁반대편	-12304
▁방법도	-12305
▁분실물	-12306
▁센터에	-12307
▁소요될	-12308
▁수익을	-12309
▁스페셜	-12310
▁시선을	-12311
▁연구에	-12312
▁열차는	-12313
▁예뻐서	-12314
▁오해가	-12315
▁의사를	-12316
▁인원은	-12317
▁잠에서	-12318
▁찾아뵙	-12319
▁출시된	-12320
▁탔어요	-12321
▁트위터	-12322
▁틀림없	-12323
▁포스트	-12324
▁한눈에	-12325
▁해산물	-12326
▁화면을	-12327
▁활동은	-12328
란시스코	-12329
뿐이에요	-12330
하셨는데	-12331
하시다면	-12332
▁감사하게	-12333
▁겨울방학	-12334
▁교환하고	-12335
▁그런데도	-12336
▁기말고사	-12337
▁기숙사에	-12338
▁다이아몬	-12339
▁먹어보고	-12340
▁받아들여	-12341
▁신속하게	-12342
▁신청서를	-12343
▁알레르기	-12344
▁오셨나요	-12345
▁제작하는	-12346
▁주문해야	-12347
▁지나치게	-12348
▁지하철은	-12349
▁진행해도	-12350
▁처리하는	-12351
▁필수적인	-12352
▁하거든요	-12353
▁학교생활	-12354
▁함께하고	-12355
▁행복하길	-12356
▁확실하지	-12357
▁반대합니다	-12358
▁비슷합니다	-12359
▁사진이에요	-12360
▁시간입니다	-12361
▁싫어합니다	-12362
▁전자레인지	-12363
▁전화할게요	-12364
▁좋아하나요	-12365
▁편의점에서	-12366
▁아니었습니다	-12367
▁웹사이트에서	-12368
▁일어났습니다	-12369
▁보여드리겠습니다	-12370
▁딴	-12371
▁릴	-12372
▁탭	-12373
구매	-12374
꺼이	-12375
명에	-12376
모습	-12377
분께	-12378
빛이	-12379
살을	-12380
색의	-12381
세포	-12382
액은	-12383
였을	-12384
작을	-12385
증에	-12386
지능	-12387
초에	-12388
크의	-12389
트리	-12390
풍이	-12391
했지	-12392
▁간접	-12393
▁검수	-12394
▁고를	-12395
▁길고	-12396
▁나게	-12397
▁낮춰	-12398
▁너만	-12399
▁노인	-12400
▁다듬	-12401
▁다할	-12402
▁되찾	-12403
▁때와	-12404
▁러닝	-12405
▁먹게	-12406
▁물로	-12407
▁방영	-12408
▁방콕	-12409
▁배신	-12410
▁별도	-12411
▁보건	-12412
▁보아	-12413
▁분께	-12414
▁성사	-12415
▁수원	-12416
▁술은	-12417
▁신념	-12418
▁아껴	-12419
▁안부	-12420
▁양보	-12421
▁어긋	-12422
▁육체	-12423
▁인하	-12424
▁장만	-12425
▁주입	-12426
▁즉각	-12427
▁집착	-12428
▁책정	-12429
▁촉진	-12430
▁캄보	-12431
▁파라	-12432
▁해봤	-12433
▁해안	-12434
들과의	-12435
분까지	-12436
스트라	-12437
스티벌	-12438
해드릴	-12439
▁가능해	-12440
▁가정을	-12441
▁가지러	-12442
▁거잖아	-12443
▁공간은	-12444
▁과목은	-12445
▁과장님	-12446
▁교통수	-12447
▁기꺼이	-12448
▁내일도	-12449
▁대학의	-12450
▁독일의	-12451
▁말했던	-12452
▁매운맛	-12453
▁머무는	-12454
▁목숨을	-12455
▁발송이	-12456
▁분들도	-12457
▁블라우	-12458
▁상자를	-12459
▁세상은	-12460
▁소녀는	-12461
▁소문이	-12462
▁소중히	-12463
▁손바닥	-12464
▁숨겨진	-12465
▁시험공	-12466
▁싸우는	-12467
▁안되는	-12468
▁안전벨	-12469
▁알리는	-12470
▁야구를	-12471
▁없으며	-12472
▁연구가	-12473
▁완료될	-12474
▁의무가	-12475
▁이용을	-12476
▁인천에	-12477
▁입금이	-12478
▁잘해야	-12479
▁적용이	-12480
▁조건에	-12481
▁태국에	-12482
▁표시가	-12483
▁해결을	-12484
▁했었어	-12485
하였으니	-12486
▁가족들은	-12487
▁교수님께	-12488
▁구매하실	-12489
▁기념으로	-12490
▁돌아가고	-12491
▁돌아오면	-12492
▁말인가요	-12493
▁목적지에	-12494
▁보내주길	-12495
▁소비자의	-12496
▁스타일로	-12497
▁시간으로	-12498
▁아버지를	-12499
▁어울리지	-12500
▁음식들을	-12501
▁의미하는	-12502
▁이루어질	-12503
▁이상적인	-12504
▁있겠지만	-12505
▁장난감을	-12506
▁좋겠다고	-12507
▁지불하고	-12508
▁지하철로	-12509
▁찾아보고	-12510
▁하나하나	-12511
▁발라줍니다	-12512
▁상대적으로	-12513
▁선택했어요	-12514
▁축하합니다	-12515
▁카카오톡을	-12516
▁즐거웠습니다	-12517
ES	-12518
▁i	-12519
▁닥	-12520
▁툴	-12521
권의	-12522
단다	-12523
대학	-12524
발은	-12525
방은	-12526
산업	-12527
스틴	-12528
신데	-12529
음식	-12530
타워	-12531
터리	-12532
토록	-12533
토를	-12534
▁34	-12535
▁AI	-12536
▁급격	-12537
▁날카	-12538
▁네팔	-12539
▁동봉	-12540
▁등은	-12541
▁디스	-12542
▁목에	-12543
▁무기	-12544
▁묻는	-12545
▁미치	-12546
▁밤은	-12547
▁북극	-12548
▁수능	-12549
▁써요	-12550
▁씻어	-12551
▁양쪽	-12552
▁열리	-12553
▁옷의	-12554
▁왜곡	-12555
▁웃게	-12556
▁워킹	-12557
▁위임	-12558
▁이만	-12559
▁일방	-12560
▁잡은	-12561
▁장벽	-12562
▁좌절	-12563
▁진동	-12564
▁최우	-12565
▁추첨	-12566
▁테라	-12567
▁파인	-12568
▁피로	-12569
▁해고	-12570
감으로	-12571
되기도	-12572
만큼은	-12573
번호는	-12574
사들이	-12575
주인공	-12576
▁가지만	-12577
▁검사가	-12578
▁경치가	-12579
▁교육에	-12580
▁귀엽고	-12581
▁기준은	-12582
▁나무를	-12583
▁나왔어	-12584
▁남아서	-12585
▁단어가	-12586
▁따라야	-12587
▁문장은	-12588
▁미용실	-12589
▁바뀌는	-12590
▁받기를	-12591
▁보이기	-12592
▁분들께	-12593
▁상품과	-12594
▁생각과	-12595
▁서버에	-12596
▁설탕을	-12597
▁소원을	-12598
▁소포를	-12599
▁수정해	-12600
▁언니와	-12601
▁언제가	-12602
▁영화도	-12603
▁오셔야	-12604
▁용도로	-12605
▁이슈에	-12606
▁인형이	-12607
▁일기를	-12608
▁일부는	-12609
▁저보다	-12610
▁주었다	-12611
▁진실을	-12612
▁찾아오	-12613
▁체험을	-12614
▁트러블	-12615
▁플리토	-12616
▁할리우	-12617
▁해줘요	-12618
▁회원가	-12619
▁휴가가	-12620
▁가까이에	-12621
▁가시나요	-12622
▁공부하기	-12623
▁근무하고	-12624
▁마이크로	-12625
▁마트에서	-12626
▁물어봐야	-12627
▁반대하는	-12628
▁병원으로	-12629
▁소비자가	-12630
▁심각하게	-12631
▁아버지와	-12632
▁아이템은	-12633
▁영국에서	-12634
▁이미지와	-12635
▁있었다면	-12636
▁컨디션이	-12637
▁포기하고	-12638
▁학원에서	-12639
▁해주셔야	-12640
▁활용하여	-12641
▁가능하지만	-12642
▁감사드려요	-12643
▁걱정이에요	-12644
▁떨어졌어요	-12645
▁사실입니다	-12646
▁안드로이드	-12647
▁읽었습니다	-12648
▁도착하자마자	-12649
▁들어왔습니다	-12650
▁못하였습니다	-12651
AS	-12652
ee	-12653
▁벼	-12654
▁옹	-12655
▁팥	-12656
계의	-12657
급이	-12658
내지	-12659
놀이	-12660
베이	-12661
보기	-12662
심은	-12663
접한	-12664
주문	-12665
치킨	-12666
했니	-12667
...	-12668
ard	-12669
▁75	-12670
▁An	-12671
▁걸을	-12672
▁곡을	-12673
▁귀를	-12674
▁그라	-12675
▁김연	-12676
▁끼고	-12677
▁끼쳐	-12678
▁동전	-12679
▁된장	-12680
▁땀을	-12681
▁뜨겁	-12682
▁마트	-12683
▁막아	-12684
▁멀지	-12685
▁멘토	-12686
▁모둠	-12687
▁문법	-12688
▁밝게	-12689
▁부적	-12690
▁분해	-12691
▁사의	-12692
▁사정	-12693
▁상점	-12694
▁시나	-12695
▁시달	-12696
▁없던	-12697
▁연계	-12698
▁오버	-12699
▁자네	-12700
▁정오	-12701
▁제이	-12702
▁좁은	-12703
▁채택	-12704
▁출전	-12705
▁치열	-12706
▁키보	-12707
▁파견	-12708
▁피할	-12709
작업을	-12710
페이스	-12711
해주기	-12712
했으나	-12713
▁객실을	-12714
▁공기가	-12715
▁공기를	-12716
▁규정이	-12717
▁기쁨을	-12718
▁넣어야	-12719
▁누군지	-12720
▁단가가	-12721
▁더이상	-12722
▁데려가	-12723
▁데에는	-12724
▁도와준	-12725
▁동물이	-12726
▁들어보	-12727
▁떠나고	-12728
▁많았어	-12729
▁명확히	-12730
▁모른다	-12731
▁목록에	-12732
▁부끄럽	-12733
▁부품이	-12734
▁브레이	-12735
▁비밀을	-12736
▁사랑과	-12737
▁사용에	-12738
▁설치를	-12739
▁손상된	-12740
▁숙소가	-12741
▁숫자를	-12742
▁습관이	-12743
▁시내로	-12744
▁아들의	-12745
▁양해를	-12746
▁어렵다	-12747
▁언니는	-12748
▁영국에	-12749
▁움직이	-12750
▁이에요	-12751
▁입맛에	-12752
▁있겠지	-12753
▁자연의	-12754
▁제작한	-12755
▁조직의	-12756
▁직장에	-12757
▁카페는	-12758
▁팔로우	-12759
▁하나인	-12760
▁하늘이	-12761
▁학원을	-12762
▁한가지	-12763
되어있는	-12764
하였으나	-12765
해주시는	-12766
▁Jack	-12767
▁간격으로	-12768
▁갈아타야	-12769
▁결혼식을	-12770
▁계정으로	-12771
▁근처에는	-12772
▁남자들은	-12773
▁너희들이	-12774
▁담당자와	-12775
▁대화하고	-12776
▁도움으로	-12777
▁독일에서	-12778
▁메시지는	-12779
▁번역기를	-12780
▁베트남에	-12781
▁보증금을	-12782
▁불편해요	-12783
▁생각해야	-12784
▁아니었어	-12785
▁아무거나	-12786
▁연락할게	-12787
▁자동차가	-12788
▁전문가가	-12789
▁점입니다	-12790
▁진행하기	-12791
▁캄보디아	-12792
▁컴퓨터는	-12793
▁해보세요	-12794
▁고급스러운	-12795
▁고등학교를	-12796
▁레스토랑에	-12797
▁무엇이라고	-12798
▁싶으신가요	-12799
▁와이파이가	-12800
▁힘들었어요	-12801
▁20,000	-12802
▁것이었습니다	-12803
▁엘리베이터를	-12804
▁확인해주시기	-12805
▁발표하겠습니다	-12806
▁알아보겠습니다	-12807
ut	-12808
▁뚱	-12809
▁띠	-12810
갈비	-12811
검사	-12812
니를	-12813
당은	-12814
딩을	-12815
록을	-12816
마한	-12817
반을	-12818
분기	-12819
비용	-12820
셨나	-12821
소와	-12822
실과	-12823
제와	-12824
주기	-12825
지않	-12826
품의	-12827
▁$1	-12828
▁거에	-12829
▁과외	-12830
▁극대	-12831
▁금메	-12832
▁노란	-12833
▁데서	-12834
▁무관	-12835
▁뮤직	-12836
▁미처	-12837
▁배로	-12838
▁배포	-12839
▁법이	-12840
▁부위	-12841
▁부터	-12842
▁부평	-12843
▁분배	-12844
▁뷰티	-12845
▁사교	-12846
▁앱은	-12847
▁앱이	-12848
▁은혜	-12849
▁일식	-12850
▁입양	-12851
▁있네	-12852
▁전신	-12853
▁절감	-12854
▁정원	-12855
▁주거	-12856
▁주셨	-12857
▁죽는	-12858
▁지우	-12859
▁지쳐	-12860
▁참아	-12861
▁촉박	-12862
▁판타	-12863
▁패널	-12864
▁패스	-12865
▁학업	-12866
▁훔쳐	-12867
겠구나	-12868
데이터	-12869
으시고	-12870
일랜드	-12871
해지기	-12872
▁FTA	-12873
▁것이죠	-12874
▁경우를	-12875
▁고향에	-12876
▁관심과	-12877
▁교통이	-12878
▁권리가	-12879
▁균형을	-12880
▁근무를	-12881
▁기다렸	-12882
▁길어서	-12883
▁길이를	-12884
▁냄새를	-12885
▁동성애	-12886
▁되면서	-12887
▁두드러	-12888
▁마셔요	-12889
▁많다는	-12890
▁많으면	-12891
▁명세를	-12892
▁목표가	-12893
▁문의한	-12894
▁문의해	-12895
▁민감한	-12896
▁바르는	-12897
▁버전이	-12898
▁범위를	-12899
▁보호자	-12900
▁비싸서	-12901
▁비율이	-12902
▁사생활	-12903
▁서울은	-12904
▁성적은	-12905
▁시설을	-12906
▁신상품	-12907
▁실력은	-12908
▁아무튼	-12909
▁아빠와	-12910
▁여행의	-12911
▁요소가	-12912
▁원어민	-12913
▁윈도우	-12914
▁있구나	-12915
▁조절할	-12916
▁좋으면	-12917
▁주기를	-12918
▁지정된	-12919
▁진심을	-12920
▁차이나	-12921
▁채소를	-12922
▁취미로	-12923
▁침대를	-12924
▁카페를	-12925
▁편인데	-12926
▁하느라	-12927
▁하루만	-12928
▁현금이	-12929
▁2012	-12930
▁공식적인	-12931
▁금지되어	-12932
▁내렸어요	-12933
▁사람마다	-12934
▁살아있는	-12935
▁선호해요	-12936
▁설명하는	-12937
▁에어비앤	-12938
▁유치원에	-12939
▁이모티콘	-12940
▁인공지능	-12941
▁있답니다	-12942
▁있을지도	-12943
▁주문했던	-12944
▁최소한의	-12945
▁추구하는	-12946
▁콘서트에	-12947
▁파트너가	-12948
▁프라이팬	-12949
▁하루종일	-12950
버렸습니다	-12951
▁거래처에서	-12952
▁노력했어요	-12953
▁달라집니다	-12954
▁돌아왔어요	-12955
▁바꿔주세요	-12956
▁버렸습니다	-12957
▁힘들었지만	-12958
▁노력했습니다	-12959
▁들어갔습니다	-12960
▁행복했습니다	-12961
BS	-12962
TM	-12963
▁덴	-12964
나서	-12965
디자	-12966
밀한	-12967
보내	-12968
설을	-12969
세의	-12970
씨는	-12971
의가	-12972
있지	-12973
주년	-12974
카페	-12975
해볼	-12976
▁CP	-12977
▁Ch	-12978
▁PP	-12979
▁간섭	-12980
▁견딜	-12981
▁구급	-12982
▁권리	-12983
▁급히	-12984
▁기를	-12985
▁끌고	-12986
▁낮게	-12987
▁넘버	-12988
▁단축	-12989
▁도매	-12990
▁마신	-12991
▁마크	-12992
▁막히	-12993
▁모국	-12994
▁발레	-12995
▁방안	-12996
▁번은	-12997
▁별을	-12998
▁선진	-12999
▁세게	-13000
▁소문	-13001
▁수거	-13002
▁수백	-13003
▁신랑	-13004
▁신비	-13005
▁안고	-13006
▁않길	-13007
▁애매	-13008
▁에펠	-13009
▁예로	-13010
▁이날	-13011
▁이륙	-13012
▁인용	-13013
▁일련	-13014
▁자지	-13015
▁전주	-13016
▁제약	-13017
▁찢어	-13018
▁취할	-13019
▁푸른	-13020
▁하든	-13021
▁할당	-13022
▁합성	-13023
▁홍삼	-13024
달러에	-13025
되거나	-13026
버렸어	-13027
소리를	-13028
으므로	-13029
임에도	-13030
지기를	-13031
질수록	-13032
처리를	-13033
▁Mar	-13034
▁가게의	-13035
▁가보자	-13036
▁공간에	-13037
▁권한이	-13038
▁끔찍한	-13039
▁다녀요	-13040
▁다수의	-13041
▁단계를	-13042
▁단점이	-13043
▁대해선	-13044
▁도구를	-13045
▁돌아왔	-13046
▁동남아	-13047
▁뒤쪽에	-13048
▁드리지	-13049
▁들어본	-13050
▁리모컨	-13051
▁명이나	-13052
▁받았던	-13053
▁사건은	-13054
▁사이드	-13055
▁서로에	-13056
▁서울을	-13057
▁소설을	-13058
▁시절에	-13059
▁씨에게	-13060
▁앞두고	-13061
▁얘기는	-13062
▁어떡해	-13063
▁없었고	-13064
▁여자애	-13065
▁올리브	-13066
▁외국어	-13067
▁이루는	-13068
▁인테리	-13069
▁일으키	-13070
▁있기에	-13071
▁자기의	-13072
▁전통의	-13073
▁제안에	-13074
▁차량이	-13075
▁책상에	-13076
▁철저히	-13077
▁크림을	-13078
▁타시면	-13079
▁택배로	-13080
▁페인트	-13081
▁프린팅	-13082
▁핫도그	-13083
▁활용할	-13084
고등학교	-13085
되었으며	-13086
인입니다	-13087
▁같았어요	-13088
▁걸어가면	-13089
▁괜찮으면	-13090
▁구입하고	-13091
▁놀았어요	-13092
▁도착했을	-13093
▁동료들과	-13094
▁돼지고기	-13095
▁미칩니다	-13096
▁바입니다	-13097
▁버전으로	-13098
▁보고서는	-13099
▁불러일으	-13100
▁생긴다면	-13101
▁선택하는	-13102
▁아닐까요	-13103
▁않을래요	-13104
▁알려주신	-13105
▁액세서리	-13106
▁어떡하죠	-13107
▁어머니와	-13108
▁예약해야	-13109
▁요청했던	-13110
▁이태원에	-13111
▁입습니다	-13112
▁있었다고	-13113
▁작성하여	-13114
▁장학금을	-13115
▁즐깁니다	-13116
▁캐릭터를	-13117
▁포장해서	-13118
▁한국인은	-13119
▁해주시기	-13120
▁희망해요	-13121
▁힘들었어	-13122
▁게임입니다	-13123
▁기뻤습니다	-13124
▁본격적으로	-13125
▁사랑한다는	-13126
▁언제입니까	-13127
▁온라인에서	-13128
▁월요일부터	-13129
▁유감스럽게	-13130
▁주셨습니다	-13131
▁필요하다는	-13132
▁한국에서의	-13133
▁확신합니다	-13134
▁말씀이신가요	-13135
▁보여드릴게요	-13136
▁작성해주세요	-13137
▁태어났습니다	-13138
AN	-13139
em	-13140
▁놈	-13141
▁듬	-13142
▁헐	-13143
건에	-13144
겼어	-13145
고한	-13146
나라	-13147
돈이	-13148
받기	-13149
방울	-13150
버리	-13151
브리	-13152
뿐인	-13153
었니	-13154
연구	-13155
위원	-13156
으론	-13157
즈가	-13158
크와	-13159
티가	-13160
표에	-13161
프라	-13162
화와	-13163
ort	-13164
▁가동	-13165
▁같네	-13166
▁개월	-13167
▁건네	-13168
▁구상	-13169
▁글자	-13170
▁기구	-13171
▁기기	-13172
▁끓인	-13173
▁내구	-13174
▁높고	-13175
▁눈치	-13176
▁독서	-13177
▁돕고	-13178
▁두는	-13179
▁드림	-13180
▁떼어	-13181
▁뚱뚱	-13182
▁리필	-13183
▁마약	-13184
▁맛과	-13185
▁맡게	-13186
▁반은	-13187
▁버릴	-13188
▁부부	-13189
▁사탕	-13190
▁성숙	-13191
▁세대	-13192
▁속을	-13193
▁싱싱	-13194
▁싸고	-13195
▁오타	-13196
▁웃음	-13197
▁워싱	-13198
▁원료	-13199
▁원할	-13200
▁의문	-13201
▁잤어	-13202
▁재산	-13203
▁점유	-13204
▁정착	-13205
▁좋죠	-13206
▁차감	-13207
▁코카	-13208
▁타기	-13209
▁평등	-13210
▁포켓	-13211
▁호출	-13212
년에는	-13213
놀이를	-13214
립니까	-13215
보도록	-13216
인지를	-13217
지거나	-13218
▁같나요	-13219
▁그전에	-13220
▁금액에	-13221
▁다니지	-13222
▁단점을	-13223
▁당시에	-13224
▁대규모	-13225
▁대하는	-13226
▁두번째	-13227
▁등산을	-13228
▁롤모델	-13229
▁말고는	-13230
▁맡기고	-13231
▁매일매	-13232
▁머리는	-13233
▁무례한	-13234
▁믿음을	-13235
▁바닷가	-13236
▁받았을	-13237
▁방법의	-13238
▁변동이	-13239
▁별다른	-13240
▁샘플로	-13241
▁생활은	-13242
▁서로가	-13243
▁선택에	-13244
▁솔루션	-13245
▁송금할	-13246
▁신나는	-13247
▁신문을	-13248
▁신청할	-13249
▁쓰이는	-13250
▁언어는	-13251
▁없을까	-13252
▁여름이	-13253
▁여지가	-13254
▁역량을	-13255
▁역할은	-13256
▁연구의	-13257
▁오빠는	-13258
▁요새는	-13259
▁원주민	-13260
▁의사는	-13261
▁의자가	-13262
▁이것저	-13263
▁이라는	-13264
▁일인지	-13265
▁자외선	-13266
▁작가의	-13267
▁작성을	-13268
▁재료는	-13269
▁저희와	-13270
▁정하는	-13271
▁제작이	-13272
▁중국과	-13273
▁집에는	-13274
▁최소화	-13275
▁코리아	-13276
▁헤어진	-13277
개입니다	-13278
었거든요	-13279
하시는지	-13280
▁걸렸어요	-13281
▁구매해야	-13282
▁넣습니다	-13283
▁노력해서	-13284
▁누구한테	-13285
▁다행이야	-13286
▁당신이랑	-13287
▁말씀드릴	-13288
▁모니터링	-13289
▁못한다면	-13290
▁무상으로	-13291
▁사람이랑	-13292
▁수영장에	-13293
▁아닙니까	-13294
▁알려주고	-13295
▁에너지가	-13296
▁전시회에	-13297
▁판매하지	-13298
▁페스티벌	-13299
▁프랑스의	-13300
▁하던데요	-13301
해왔습니다	-13302
▁디자이너가	-13303
▁사장님께서	-13304
▁상관없어요	-13305
▁소개하려고	-13306
▁알려주셔서	-13307
▁연락할게요	-13308
▁영화관에서	-13309
▁위함입니다	-13310
▁좋아한다고	-13311
▁지하철역이	-13312
▁휴대폰으로	-13313
▁방문했습니다	-13314
▁크리스마스를	-13315
▁애플리케이션을	-13316
▁연락하겠습니다	-13317
▁전달하겠습니다	-13318
ea	-13319
▁델	-13320
▁뻗	-13321
결제	-13322
과학	-13323
니스	-13324
둥이	-13325
듯한	-13326
비게	-13327
살에	-13328
세트	-13329
쇼핑	-13330
시와	-13331
애틀	-13332
활동	-13333
▁갈지	-13334
▁갤럭	-13335
▁검출	-13336
▁고전	-13337
▁고칠	-13338
▁끓여	-13339
▁나야	-13340
▁난방	-13341
▁내어	-13342
▁넣지	-13343
▁닿지	-13344
▁뒤쪽	-13345
▁들러	-13346
▁리드	-13347
▁몽골	-13348
▁무늬	-13349
▁벗겨	-13350
▁베풀	-13351
▁선착	-13352
▁스무	-13353
▁습관	-13354
▁실을	-13355
▁앞당	-13356
▁연합	-13357
▁온난	-13358
▁용감	-13359
▁이수	-13360
▁이자	-13361
▁저조	-13362
▁정할	-13363
▁조성	-13364
▁지날	-13365
▁질의	-13366
▁짐은	-13367
▁출동	-13368
▁치러	-13369
▁컬렉	-13370
▁타서	-13371
▁폭포	-13372
▁푸드	-13373
▁하도	-13374
▁허브	-13375
번호가	-13376
서에서	-13377
시쯤에	-13378
지는데	-13379
하군요	-13380
▁걸어야	-13381
▁결제해	-13382
▁계정에	-13383
▁공부가	-13384
▁과자를	-13385
▁교환이	-13386
▁구하는	-13387
▁그러자	-13388
▁기록이	-13389
▁노력한	-13390
▁도시로	-13391
▁두세요	-13392
▁라인을	-13393
▁레이스	-13394
▁만났던	-13395
▁말고도	-13396
▁멈추지	-13397
▁물어봤	-13398
▁미술관	-13399
▁방학이	-13400
▁비롯한	-13401
▁빠지게	-13402
▁사용은	-13403
▁사회가	-13404
▁세관에	-13405
▁소통을	-13406
▁수준이	-13407
▁신호를	-13408
▁싫어서	-13409
▁아빠의	-13410
▁않아야	-13411
▁어울려	-13412
▁얼굴은	-13413
▁연기가	-13414
▁예산이	-13415
▁오디오	-13416
▁올해도	-13417
▁요즘엔	-13418
▁이끄는	-13419
▁이번주	-13420
▁일부를	-13421
▁입으면	-13422
▁작품에	-13423
▁적용될	-13424
▁전문점	-13425
▁좋다는	-13426
▁지원해	-13427
▁참여를	-13428
▁찾으면	-13429
▁첫번째	-13430
▁최초로	-13431
▁타입의	-13432
▁투어는	-13433
▁프로토	-13434
▁프리랜	-13435
▁하기도	-13436
▁했다는	-13437
▁향상을	-13438
▁화물은	-13439
물입니다	-13440
센터에서	-13441
주실래요	-13442
하시네요	-13443
해달라고	-13444
▁간편하게	-13445
▁걸린다고	-13446
▁기다리게	-13447
▁남동생이	-13448
▁다녀왔어	-13449
▁돌아와서	-13450
▁마스크를	-13451
▁본사에서	-13452
▁사용하던	-13453
▁선택해서	-13454
▁소개하는	-13455
▁솔루션을	-13456
▁수수료는	-13457
▁않았다는	-13458
▁알려드릴	-13459
▁알려줘야	-13460
▁어땠어요	-13461
▁얼마든지	-13462
▁여행하고	-13463
▁예정되어	-13464
▁요청으로	-13465
▁이것저것	-13466
▁제품이라	-13467
▁지불하는	-13468
▁편인가요	-13469
▁해달라고	-13470
▁형식으로	-13471
▁같았습니다	-13472
▁기다릴게요	-13473
▁기다립니다	-13474
▁누구입니까	-13475
▁다이어트에	-13476
▁말아주세요	-13477
▁부탁드려도	-13478
▁셔틀버스가	-13479
▁신용카드를	-13480
▁있습니다만	-13481
▁주문했어요	-13482
▁회사에서는	-13483
▁고맙겠습니다	-13484
67	-13485
ab	-13486
ul	-13487
▁깼	-13488
▁뱃	-13489
▁콤	-13490
▁훼	-13491
근혜	-13492
까진	-13493
났어	-13494
리안	-13495
버려	-13496
생을	-13497
언을	-13498
오를	-13499
오지	-13500
있고	-13501
전의	-13502
종이	-13503
치로	-13504
탄소	-13505
플릿	-13506
▁33	-13507
▁BL	-13508
▁강연	-13509
▁개입	-13510
▁공용	-13511
▁공존	-13512
▁광화	-13513
▁교차	-13514
▁궁극	-13515
▁까지	-13516
▁깨워	-13517
▁끊어	-13518
▁년간	-13519
▁녹차	-13520
▁늦는	-13521
▁단기	-13522
▁동맹	-13523
▁듬뿍	-13524
▁롤러	-13525
▁마른	-13526
▁매체	-13527
▁분을	-13528
▁비벼	-13529
▁샌프	-13530
▁세우	-13531
▁소수	-13532
▁슬라	-13533
▁신부	-13534
▁실업	-13535
▁쌓고	-13536
▁쓰게	-13537
▁안아	-13538
▁앞쪽	-13539
▁어댑	-13540
▁오길	-13541
▁왔고	-13542
▁왕이	-13543
▁외계	-13544
▁일관	-13545
▁임금	-13546
▁자면	-13547
▁접어	-13548
▁중동	-13549
▁중시	-13550
▁쪽을	-13551
▁차고	-13552
▁체력	-13553
▁충고	-13554
▁트럼	-13555
▁핑크	-13556
▁회장	-13557
빕니다	-13558
살이고	-13559
▁것만큼	-13560
▁결함이	-13561
▁경쟁사	-13562
▁공유해	-13563
▁광고에	-13564
▁구매자	-13565
▁구멍이	-13566
▁긍정적	-13567
▁기름을	-13568
▁나무는	-13569
▁날짜와	-13570
▁남에게	-13571
▁내셔야	-13572
▁누락된	-13573
▁매력이	-13574
▁매출을	-13575
▁먹을까	-13576
▁명확한	-13577
▁반려동	-13578
▁보는데	-13579
▁부분도	-13580
▁북한의	-13581
▁빠지지	-13582
▁사건에	-13583
▁생기지	-13584
▁소재를	-13585
▁송금을	-13586
▁수화물	-13587
▁스터디	-13588
▁시계는	-13589
▁실례가	-13590
▁싶으신	-13591
▁에러가	-13592
▁여기를	-13593
▁올려놓	-13594
▁옮기는	-13595
▁음료가	-13596
▁의향이	-13597
▁이어질	-13598
▁입금을	-13599
▁있을게	-13600
▁자금을	-13601
▁작품의	-13602
▁잘해서	-13603
▁장치를	-13604
▁재물을	-13605
▁재미없	-13606
▁적용된	-13607
▁전에도	-13608
▁전원이	-13609
▁조식을	-13610
▁좋았다	-13611
▁주위를	-13612
▁지원할	-13613
▁찾아갈	-13614
▁찾아봐	-13615
▁채팅을	-13616
▁티켓이	-13617
▁품질의	-13618
▁풍경이	-13619
▁했다면	-13620
▁행복은	-13621
▁홈스테	-13622
호선으로	-13623
▁가득하길	-13624
▁가정에서	-13625
▁관광객이	-13626
▁내일모레	-13627
▁대화하는	-13628
▁돌아오지	-13629
▁드라마가	-13630
▁뜻인가요	-13631
▁마셨어요	-13632
▁만들었다	-13633
▁머무르고	-13634
▁사람들에	-13635
▁시스템의	-13636
▁오후에는	-13637
▁음료수를	-13638
▁일이라고	-13639
▁잠자리에	-13640
▁조심해서	-13641
▁주의해야	-13642
▁행동으로	-13643
▁행동하는	-13644
▁호텔까지	-13645
▁가격입니다	-13646
▁갑작스럽게	-13647
▁동일합니다	-13648
▁보시겠어요	-13649
▁선생님께서	-13650
▁있으시다면	-13651
▁전문적으로	-13652
▁할아버지는	-13653
▁깨달았습니다	-13654
▁남아있습니다	-13655
▁바뀌었습니다	-13656
▁샌프란시스코	-13657
▁선택했습니다	-13658
▁힘들었습니다	-13659
▁요청하였습니다	-13660
▁확인되었습니다	-13661
.9	-13662
AC	-13663
AT	-13664
▁h	-13665
▁록	-13666
각이	-13667
갔다	-13668
갔어	-13669
달라	-13670
바람	-13671
시대	-13672
월의	-13673
이긴	-13674
있던	-13675
지역	-13676
편은	-13677
피아	-13678
호에	-13679
▁SP	-13680
▁개개	-13681
▁계실	-13682
▁공학	-13683
▁구해	-13684
▁규격	-13685
▁남의	-13686
▁넘겨	-13687
▁농업	-13688
▁단위	-13689
▁덕에	-13690
▁돌이	-13691
▁두지	-13692
▁멈출	-13693
▁물과	-13694
▁바디	-13695
▁반성	-13696
▁배에	-13697
▁법에	-13698
▁병이	-13699
▁복싱	-13700
▁분들	-13701
▁불확	-13702
▁석사	-13703
▁섬세	-13704
▁승차	-13705
▁신사	-13706
▁싸움	-13707
▁쌀쌀	-13708
▁앉은	-13709
▁여는	-13710
▁연수	-13711
▁요가	-13712
▁원형	-13713
▁이성	-13714
▁인근	-13715
▁잃고	-13716
▁잔을	-13717
▁정문	-13718
▁지저	-13719
▁지휘	-13720
▁친화	-13721
▁트랙	-13722
▁트로	-13723
▁페덱	-13724
▁포지	-13725
▁학창	-13726
▁해볼	-13727
▁했죠	-13728
▁횡단	-13729
▁휴학	-13730
기까지	-13731
냈어요	-13732
달러가	-13733
들에서	-13734
머리를	-13735
법으로	-13736
제품은	-13737
지라도	-13738
하더라	-13739
▁119	-13740
▁강하고	-13741
▁거스름	-13742
▁검색을	-13743
▁계약에	-13744
▁계정은	-13745
▁공부한	-13746
▁그림에	-13747
▁근처의	-13748
▁기내에	-13749
▁길에서	-13750
▁길이는	-13751
▁남편의	-13752
▁놀라게	-13753
▁누워서	-13754
▁늦어진	-13755
▁늦어질	-13756
▁대체할	-13757
▁더러워	-13758
▁두꺼운	-13759
▁들었을	-13760
▁듯해요	-13761
▁따르는	-13762
▁못했을	-13763
▁미국인	-13764
▁바람직	-13765
▁바빠요	-13766
▁박근혜	-13767
▁방문객	-13768
▁변호사	-13769
▁보라색	-13770
▁불필요	-13771
▁사업의	-13772
▁사이를	-13773
▁선물해	-13774
▁설치된	-13775
▁셔츠를	-13776
▁아니죠	-13777
▁애들이	-13778
▁에펠탑	-13779
▁역사적	-13780
▁영업을	-13781
▁오기로	-13782
▁위험에	-13783
▁인턴십	-13784
▁일부가	-13785
▁있고요	-13786
▁잘못이	-13787
▁종이가	-13788
▁지나간	-13789
▁지나친	-13790
▁지식이	-13791
▁지역이	-13792
▁촉촉한	-13793
▁최적의	-13794
▁추천을	-13795
▁컬러를	-13796
▁코트를	-13797
▁한계가	-13798
▁해야지	-13799
▁혼란을	-13800
들에게는	-13801
성입니다	-13802
▁건너편에	-13803
▁경찰서에	-13804
▁계산하고	-13805
▁관해서는	-13806
▁괜찮으실	-13807
▁교회에서	-13808
▁나중에는	-13809
▁남습니다	-13810
▁누구인지	-13811
▁다르다는	-13812
▁마음속에	-13813
▁많으니까	-13814
▁물고기를	-13815
▁방문하면	-13816
▁방지하기	-13817
▁배웁니다	-13818
▁사진처럼	-13819
▁생각나는	-13820
▁스타트업	-13821
▁않으려고	-13822
▁알아봐야	-13823
▁알았으면	-13824
▁어제보다	-13825
▁연예인이	-13826
▁올라가는	-13827
▁유일하게	-13828
▁음식들이	-13829
▁이력서를	-13830
▁일주일이	-13831
▁저한테는	-13832
▁정식으로	-13833
▁주문하실	-13834
▁참여하지	-13835
▁테니스를	-13836
▁테이블에	-13837
▁호주에서	-13838
▁가깝습니다	-13839
▁감사드리며	-13840
▁갑작스러운	-13841
▁교수님께서	-13842
▁궁금하네요	-13843
▁남자친구랑	-13844
▁놀랐습니다	-13845
▁당신에게는	-13846
▁보내주셔서	-13847
▁외국인에게	-13848
▁우리에게는	-13849
▁유통기한이	-13850
▁전반적으로	-13851
▁점심시간에	-13852
▁찍었습니다	-13853
▁확인됩니다	-13854
▁가능하십니다	-13855
▁말씀드릴게요	-13856
▁실례합니다만	-13857
▁진행해주세요	-13858
IF	-13859
▁으	-13860
▁험	-13861
가게	-13862
견을	-13863
날짜	-13864
면은	-13865
받았	-13866
분과	-13867
실한	-13868
주와	-13869
카메	-13870
트라	-13871
현실	-13872
형에	-13873
200	-13874
ate	-13875
▁3~	-13876
▁48	-13877
▁국물	-13878
▁군사	-13879
▁극장	-13880
▁나눴	-13881
▁내기	-13882
▁눈앞	-13883
▁담임	-13884
▁당뇨	-13885
▁대가	-13886
▁대고	-13887
▁동굴	-13888
▁두렵	-13889
▁든든	-13890
▁등교	-13891
▁리듬	-13892
▁맺고	-13893
▁모서	-13894
▁몰입	-13895
▁뭐니	-13896
▁보도	-13897
▁보류	-13898
▁불면	-13899
▁빌린	-13900
▁새것	-13901
▁센트	-13902
▁소음	-13903
▁씻고	-13904
▁애가	-13905
▁어둡	-13906
▁에디	-13907
▁웃을	-13908
▁입점	-13909
▁전과	-13910
▁정한	-13911
▁줄넘	-13912
▁지리	-13913
▁질환	-13914
▁춘천	-13915
▁취약	-13916
▁탐험	-13917
▁튜브	-13918
국으로	-13919
능력을	-13920
되어요	-13921
되었기	-13922
보다도	-13923
셨다면	-13924
자료를	-13925
카드가	-13926
하자고	-13927
혔어요	-13928
▁180	-13929
▁가르칠	-13930
▁가르침	-13931
▁개념을	-13932
▁것일까	-13933
▁계좌에	-13934
▁공원이	-13935
▁기관에	-13936
▁기억은	-13937
▁기온이	-13938
▁꾸준한	-13939
▁낮에는	-13940
▁네이버	-13941
▁단계로	-13942
▁당신만	-13943
▁드나요	-13944
▁드려서	-13945
▁떠나지	-13946
▁맞으면	-13947
▁몰라도	-13948
▁바랄게	-13949
▁발송을	-13950
▁발전에	-13951
▁봉투에	-13952
▁분야를	-13953
▁비싸요	-13954
▁색다른	-13955
▁설정을	-13956
▁소년이	-13957
▁소리는	-13958
▁손님은	-13959
▁순간에	-13960
▁시각을	-13961
▁시기를	-13962
▁시애틀	-13963
▁시키는	-13964
▁신용장	-13965
▁아기는	-13966
▁않기로	-13967
▁어려서	-13968
▁여배우	-13969
▁역할이	-13970
▁올해의	-13971
▁요리에	-13972
▁이산화	-13973
▁이쪽에	-13974
▁있겠죠	-13975
▁자신과	-13976
▁자원을	-13977
▁잡니다	-13978
▁제출한	-13979
▁좌석은	-13980
▁주사를	-13981
▁중간고	-13982
▁지나고	-13983
▁책으로	-13984
▁체크해	-13985
▁코너에	-13986
▁표정을	-13987
▁했더니	-13988
▁현명한	-13989
▁현상을	-13990
▁확신이	-13991
▁환자분	-13992
▁활발한	-13993
주셨으면	-13994
프로그램	-13995
하셨으면	-13996
회사에서	-13997
▁2000	-13998
▁가능성은	-13999
▁경제적인	-14000
▁구매자가	-14001
▁구비되어	-14002
▁근무하는	-14003
▁담당하는	-14004
▁당연하죠	-14005
▁도시락을	-14006
▁도착해야	-14007
▁드라마에	-14008
▁물건들은	-14009
▁물건들이	-14010
▁물리치료	-14011
▁미세먼지	-14012
▁바다에서	-14013
▁발생하면	-14014
▁버렸어요	-14015
▁비용으로	-14016
▁사무실을	-14017
▁사용되고	-14018
▁생각으로	-14019
▁아이템이	-14020
▁않아서요	-14021
▁않으세요	-14022
▁운동하고	-14023
▁찍었어요	-14024
▁창고에서	-14025
▁찾습니다	-14026
▁책입니다	-14027
▁확인하면	-14028
▁힘들었던	-14029
▁규칙적으로	-14030
▁남았습니다	-14031
▁도시입니다	-14032
▁메이크업을	-14033
▁보여주시면	-14034
▁알려줍니다	-14035
▁우리나라에	-14036
▁인보이스에	-14037
▁제안합니다	-14038
▁지금이라도	-14039
▁토요일에는	-14040
▁포함합니다	-14041
▁필리핀으로	-14042
▁휴대전화를	-14043
▁첨부했습니다	-14044
▁프로그램에서	-14045
▁해주시겠어요	-14046
▁환불해주세요	-14047
.6	-14048
.8	-14049
19	-14050
MP	-14051
ck	-14052
▁갓	-14053
▁쟁	-14054
▁쳤	-14055
▁텀	-14056
들고	-14057
르기	-14058
면의	-14059
선생	-14060
였기	-14061
우가	-14062
위해	-14063
작용	-14064
▁Jo	-14065
▁가속	-14066
▁남북	-14067
▁내역	-14068
▁녹색	-14069
▁단말	-14070
▁단발	-14071
▁망고	-14072
▁모닝	-14073
▁미쳐	-14074
▁반지	-14075
▁배열	-14076
▁밸브	-14077
▁볼륨	-14078
▁뵙고	-14079
▁상사	-14080
▁세럼	-14081
▁센서	-14082
▁속옷	-14083
▁숙지	-14084
▁시사	-14085
▁아울	-14086
▁악화	-14087
▁알림	-14088
▁억울	-14089
▁에드	-14090
▁예외	-14091
▁인적	-14092
▁임원	-14093
▁입주	-14094
▁입지	-14095
▁제도	-14096
▁주재	-14097
▁쫄깃	-14098
▁치아	-14099
▁캡처	-14100
▁키는	-14101
▁탁구	-14102
▁탄탄	-14103
▁훼손	-14104
교육을	-14105
시키지	-14106
웠는데	-14107
주의는	-14108
집으로	-14109
카드로	-14110
,500	-14111
▁가수는	-14112
▁개발이	-14113
▁결정은	-14114
▁경기에	-14115
▁공부는	-14116
▁과도한	-14117
▁관리가	-14118
▁그러기	-14119
▁그림과	-14120
▁그림의	-14121
▁근육을	-14122
▁논문을	-14123
▁놀이를	-14124
▁높아요	-14125
▁동안은	-14126
▁들으며	-14127
▁마음도	-14128
▁모으고	-14129
▁모임을	-14130
▁바다로	-14131
▁배고프	-14132
▁변경될	-14133
▁보증금	-14134
▁상대로	-14135
▁생산할	-14136
▁생일에	-14137
▁성함을	-14138
▁수정한	-14139
▁아니지	-14140
▁알아차	-14141
▁야채를	-14142
▁언어의	-14143
▁여성을	-14144
▁예정인	-14145
▁음식물	-14146
▁이외의	-14147
▁입력해	-14148
▁재확인	-14149
▁접수를	-14150
▁제임스	-14151
▁좋아질	-14152
▁주제가	-14153
▁중이고	-14154
▁지원자	-14155
▁지저분	-14156
▁참여한	-14157
▁취미가	-14158
▁취미를	-14159
▁칭찬을	-14160
▁콜라를	-14161
▁파손된	-14162
▁하나에	-14163
▁학점을	-14164
▁한글을	-14165
▁회장님	-14166
▁후기를	-14167
서비스를	-14168
중입니다	-14169
했는데요	-14170
했으니까	-14171
▁개발하고	-14172
▁그때까지	-14173
▁그러게요	-14174
▁기념품을	-14175
▁나갑니다	-14176
▁동의하지	-14177
▁되어있는	-14178
▁모르니까	-14179
▁배송비는	-14180
▁부산으로	-14181
▁분위기는	-14182
▁빠졌어요	-14183
▁소통하는	-14184
▁슈퍼마켓	-14185
▁아이에게	-14186
▁아침까지	-14187
▁여태까지	-14188
▁연결하는	-14189
▁외국어를	-14190
▁원했어요	-14191
▁일요일은	-14192
▁재미있어	-14193
▁적용하여	-14194
▁좋아하니	-14195
▁주말마다	-14196
▁차이점이	-14197
▁추가하고	-14198
▁테스트가	-14199
▁특별하게	-14200
▁행복하지	-14201
해드립니다	-14202
▁가족들에게	-14203
▁경제적으로	-14204
▁괜찮습니까	-14205
▁떠났습니다	-14206
▁레스토랑이	-14207
▁안타깝지만	-14208
▁예약하려고	-14209
▁일했습니다	-14210
▁즐거웠어요	-14211
▁감사했습니다	-14212
▁진행했습니다	-14213
▁해보겠습니다	-14214
▁보여주시겠어요	-14215
17	-14216
IC	-14217
IS	-14218
OC	-14219
av	-14220
▁k	-14221
▁뵐	-14222
▁템	-14223
▁헨	-14224
각을	-14225
군의	-14226
기관	-14227
너지	-14228
눈썹	-14229
리다	-14230
버렸	-14231
버릴	-14232
벌레	-14233
수육	-14234
웨이	-14235
음악	-14236
이든	-14237
즈음	-14238
즈의	-14239
체험	-14240
타는	-14241
티는	-14242
티즌	-14243
피트	-14244
했네	-14245
▁In	-14246
▁St	-14247
▁가급	-14248
▁갈등	-14249
▁곤충	-14250
▁골든	-14251
▁관습	-14252
▁관절	-14253
▁낭만	-14254
▁넘쳐	-14255
▁느린	-14256
▁다뤄	-14257
▁다큐	-14258
▁데가	-14259
▁돕기	-14260
▁든다	-14261
▁리무	-14262
▁모던	-14263
▁바코	-14264
▁변할	-14265
▁볼게	-14266
▁봄에	-14267
▁살균	-14268
▁생리	-14269
▁세월	-14270
▁수십	-14271
▁숨어	-14272
▁스릴	-14273
▁시트	-14274
▁신상	-14275
▁쌓여	-14276
▁안보	-14277
▁야생	-14278
▁없니	-14279
▁에버	-14280
▁요인	-14281
▁웹툰	-14282
▁위탁	-14283
▁이란	-14284
▁자를	-14285
▁작별	-14286
▁재현	-14287
▁적고	-14288
▁전설	-14289
▁정돈	-14290
▁조기	-14291
▁주먹	-14292
▁지성	-14293
▁집행	-14294
▁책자	-14295
▁초코	-14296
▁커리	-14297
▁퍼포	-14298
▁폐쇄	-14299
▁포항	-14300
▁피겨	-14301
▁필기	-14302
▁해를	-14303
▁해킹	-14304
▁호박	-14305
▁흑인	-14306
거리에	-14307
때문에	-14308
시에는	-14309
시켜야	-14310
타인데	-14311
해보니	-14312
해지지	-14313
▁건조한	-14314
▁경험할	-14315
▁교육과	-14316
▁기능에	-14317
▁끝내야	-14318
▁끼치는	-14319
▁낮잠을	-14320
▁네티즌	-14321
▁논의를	-14322
▁느껴져	-14323
▁다문화	-14324
▁대기업	-14325
▁도쿄에	-14326
▁로고를	-14327
▁리뷰를	-14328
▁마음과	-14329
▁마트에	-14330
▁만들면	-14331
▁멤버십	-14332
▁미국이	-14333
▁믿음이	-14334
▁박람회	-14335
▁반도체	-14336
▁발견할	-14337
▁병원이	-14338
▁보관할	-14339
▁보내게	-14340
▁복숭아	-14341
▁봉사를	-14342
▁부모가	-14343
▁사실상	-14344
▁소재로	-14345
▁수건을	-14346
▁수량에	-14347
▁수분을	-14348
▁수행할	-14349
▁쉬어야	-14350
▁스웨덴	-14351
▁실적을	-14352
▁알리고	-14353
▁알아듣	-14354
▁앱으로	-14355
▁업체의	-14356
▁없음을	-14357
▁여성은	-14358
▁원피스	-14359
▁의식을	-14360
▁이하의	-14361
▁일본을	-14362
▁일하지	-14363
▁일해서	-14364
▁자신감	-14365
▁잡아야	-14366
▁장비는	-14367
▁적부터	-14368
▁정보의	-14369
▁제작할	-14370
▁제품만	-14371
▁조각을	-14372
▁최근의	-14373
▁특징이	-14374
▁판매자	-14375
▁편하고	-14376
▁포트폴	-14377
▁피고는	-14378
▁하루도	-14379
▁한복은	-14380
▁향수를	-14381
▁협의가	-14382
▁협의를	-14383
▁환승을	-14384
▁힘으로	-14385
었는데요	-14386
▁고민하고	-14387
▁공유하고	-14388
▁그리워요	-14389
▁그쪽에서	-14390
▁낮습니다	-14391
▁누군가와	-14392
▁되었다고	-14393
▁드렸는데	-14394
▁따릅니다	-14395
▁마닐라에	-14396
▁만났으면	-14397
▁매일매일	-14398
▁무엇으로	-14399
▁사회복지	-14400
▁소중함을	-14401
▁신청하고	-14402
▁아십니까	-14403
▁알려주기	-14404
▁없었으면	-14405
▁여러분도	-14406
▁예쁘다고	-14407
▁외국인을	-14408
▁우리한테	-14409
▁유창하게	-14410
▁저번에도	-14411
▁출구에서	-14412
▁표현하고	-14413
▁함으로써	-14414
▁해볼게요	-14415
▁핸드폰은	-14416
▁했습니까	-14417
▁화장품이	-14418
두었습니다	-14419
▁공부했어요	-14420
▁기도합니다	-14421
▁나갔습니다	-14422
▁눌러주세요	-14423
▁레스토랑을	-14424
▁무료입니다	-14425
▁여자친구를	-14426
▁오스트리아	-14427
▁주의하세요	-14428
▁파운데이션	-14429
▁떨어졌습니다	-14430
▁잃어버렸어요	-14431
▁전화했습니다	-14432
▁하시겠습니까	-14433
▁확인하겠습니다	-14434
.4	-14435
IT	-14436
NA	-14437
RL	-14438
ex	-14439
▁Z	-14440
▁듀	-14441
▁엎	-14442
▁웰	-14443
▁혀	-14444
공원	-14445
께요	-14446
니즘	-14447
마에	-14448
밀리	-14449
부여	-14450
오면	-14451
운송	-14452
유가	-14453
지노	-14454
초를	-14455
터의	-14456
프에	-14457
all	-14458
▁가길	-14459
▁간장	-14460
▁개씩	-14461
▁겪은	-14462
▁교재	-14463
▁교토	-14464
▁그대	-14465
▁김포	-14466
▁난다	-14467
▁남길	-14468
▁대피	-14469
▁댁에	-14470
▁돈도	-14471
▁두피	-14472
▁뜨고	-14473
▁마르	-14474
▁멋져	-14475
▁모션	-14476
▁바늘	-14477
▁바와	-14478
▁밥은	-14479
▁병에	-14480
▁복수	-14481
▁비극	-14482
▁생신	-14483
▁선주	-14484
▁손수	-14485
▁수단	-14486
▁수평	-14487
▁식민	-14488
▁신을	-14489
▁알면	-14490
▁야경	-14491
▁에러	-14492
▁윌리	-14493
▁응대	-14494
▁의학	-14495
▁이득	-14496
▁이윤	-14497
▁읽지	-14498
▁자아	-14499
▁잠실	-14500
▁진로	-14501
▁질투	-14502
▁천재	-14503
▁쾌적	-14504
▁텀블	-14505
▁팔에	-14506
▁플로	-14507
▁향신	-14508
▁현명	-14509
▁형편	-14510
▁혼잡	-14511
▁후의	-14512
▁힐튼	-14513
룸으로	-14514
보려고	-14515
센터로	-14516
업체에	-14517
졌나요	-14518
준다고	-14519
크림을	-14520
했잖아	-14521
▁USD	-14522
▁건강과	-14523
▁겨울은	-14524
▁경험해	-14525
▁관람객	-14526
▁구하기	-14527
▁국가에	-14528
▁나쁘게	-14529
▁달부터	-14530
▁동작을	-14531
▁맛있을	-14532
▁멀리서	-14533
▁물량이	-14534
▁믿기지	-14535
▁방향이	-14536
▁배송될	-14537
▁배우게	-14538
▁벌금을	-14539
▁범죄를	-14540
▁베네치	-14541
▁부르고	-14542
▁불편해	-14543
▁브라우	-14544
▁비교할	-14545
▁사라져	-14546
▁사탕을	-14547
▁사회는	-14548
▁속눈썹	-14549
▁시작될	-14550
▁신입생	-14551
▁심장이	-14552
▁알았다	-14553
▁야경을	-14554
▁없었을	-14555
▁여유를	-14556
▁웃음이	-14557
▁워싱턴	-14558
▁원단을	-14559
▁웨이터	-14560
▁인지도	-14561
▁일정한	-14562
▁일종의	-14563
▁작가가	-14564
▁정하지	-14565
▁좋은지	-14566
▁주문서	-14567
▁주차장	-14568
▁줄여야	-14569
▁중이니	-14570
▁중점을	-14571
▁지구의	-14572
▁지불한	-14573
▁집중을	-14574
▁체력이	-14575
▁최고로	-14576
▁출근을	-14577
▁쿠키를	-14578
▁표현이	-14579
▁하지는	-14580
▁항목을	-14581
▁해주신	-14582
▁협상을	-14583
▁호스트	-14584
▁환율이	-14585
▁회의실	-14586
▁흐름을	-14587
하겠지만	-14588
하셨는지	-14589
해보도록	-14590
▁2019	-14591
▁고객들의	-14592
▁공유하는	-14593
▁구경하고	-14594
▁국가에서	-14595
▁그것으로	-14596
▁기사님이	-14597
▁기재되어	-14598
▁다르다고	-14599
▁돌아가야	-14600
▁되시나요	-14601
▁레이아웃	-14602
▁말씀드린	-14603
▁면허증을	-14604
▁문제들을	-14605
▁받으시면	-14606
▁보내드렸	-14607
▁브랜드가	-14608
▁상대방이	-14609
▁성장하고	-14610
▁수정해야	-14611
▁수행하는	-14612
▁신청하면	-14613
▁안전하고	-14614
▁알아보는	-14615
▁애완동물	-14616
▁엄마한테	-14617
▁예정이라	-14618
▁이벤트가	-14619
▁일어나야	-14620
▁읽었어요	-14621
▁입어보고	-14622
▁저렴하고	-14623
▁점심으로	-14624
▁조용하고	-14625
▁주머니에	-14626
▁주셨어요	-14627
▁중이라서	-14628
▁테이블을	-14629
▁팀원들과	-14630
▁할머니를	-14631
▁했었어요	-14632
▁현지에서	-14633
▁힘들다고	-14634
있었습니다	-14635
▁결론적으로	-14636
▁내용이에요	-14637
▁실시간으로	-14638
▁올려주세요	-14639
▁요구합니다	-14640
▁인터페이스	-14641
▁입었습니다	-14642
▁평균적으로	-14643
▁확인했는데	-14644
▁Jackal	-14645
▁레스토랑에서	-14646
▁만들어집니다	-14647
14	-14648
24	-14649
up	-14650
▁꼴	-14651
▁린	-14652
▁뱅	-14653
▁뺄	-14654
▁킹	-14655
가짐	-14656
계산	-14657
나이	-14658
냐는	-14659
달이	-14660
더가	-14661
두면	-14662
드라	-14663
드레	-14664
련을	-14665
렬한	-14666
론을	-14667
리한	-14668
막을	-14669
만원	-14670
망이	-14671
미한	-14672
밤에	-14673
보가	-14674
쉽게	-14675
압을	-14676
욕을	-14677
욕이	-14678
움의	-14679
이요	-14680
ell	-14681
▁1/	-14682
▁DB	-14683
▁SK	-14684
▁ST	-14685
▁개와	-14686
▁개혁	-14687
▁거듭	-14688
▁그레	-14689
▁기저	-14690
▁끝을	-14691
▁난감	-14692
▁노르	-14693
▁높일	-14694
▁달고	-14695
▁대개	-14696
▁대변	-14697
▁독자	-14698
▁돈과	-14699
▁뜨는	-14700
▁뜻깊	-14701
▁뜻은	-14702
▁리본	-14703
▁무난	-14704
▁번을	-14705
▁법은	-14706
▁병행	-14707
▁볼까	-14708
▁불교	-14709
▁브러	-14710
▁사상	-14711
▁새끼	-14712
▁생생	-14713
▁성향	-14714
▁소변	-14715
▁슬펐	-14716
▁시가	-14717
▁아트	-14718
▁안나	-14719
▁압도	-14720
▁역이	-14721
▁올게	-14722
▁용돈	-14723
▁용어	-14724
▁원천	-14725
▁웬만	-14726
▁음성	-14727
▁이스	-14728
▁이행	-14729
▁전역	-14730
▁전파	-14731
▁절실	-14732
▁주연	-14733
▁지참	-14734
▁진보	-14735
▁컵을	-14736
▁통증	-14737
▁폭이	-14738
▁표정	-14739
▁호수	-14740
▁확산	-14741
는지는	-14742
비용을	-14743
안에서	-14744
원들의	-14745
월에는	-14746
키스탄	-14747
파운드	-14748
한데요	-14749
해보면	-14750
했더니	-14751
회사에	-14752
▁197	-14753
▁PDF	-14754
▁갈아입	-14755
▁갑니까	-14756
▁같기도	-14757
▁겨울을	-14758
▁경영진	-14759
▁계란을	-14760
▁고마운	-14761
▁관리에	-14762
▁나타내	-14763
▁내역을	-14764
▁너희들	-14765
▁느꼈다	-14766
▁다르지	-14767
▁다쳐서	-14768
▁다큐멘	-14769
▁도시가	-14770
▁동물은	-14771
▁됐나요	-14772
▁뚜껑을	-14773
▁렌즈를	-14774
▁마셔서	-14775
▁막혀서	-14776
▁맞아서	-14777
▁무리한	-14778
▁문자가	-14779
▁문제도	-14780
▁문제인	-14781
▁문화는	-14782
▁반죽을	-14783
▁반지를	-14784
▁변경은	-14785
▁보냈다	-14786
▁사본을	-14787
▁상상할	-14788
▁색깔은	-14789
▁선수의	-14790
▁설거지	-14791
▁소녀가	-14792
▁스토리	-14793
▁식당의	-14794
▁쓰세요	-14795
▁아쉽다	-14796
▁역사가	-14797
▁왔는지	-14798
▁요청해	-14799
▁유럽의	-14800
▁이들의	-14801
▁인형의	-14802
▁자르고	-14803
▁작성할	-14804
▁잡지를	-14805
▁적성에	-14806
▁전망이	-14807
▁전보다	-14808
▁정신적	-14809
▁제공한	-14810
▁주요한	-14811
▁초대해	-14812
▁총금액	-14813
▁취소된	-14814
▁카드에	-14815
▁커플이	-14816
▁탕수육	-14817
▁토스트	-14818
▁파티는	-14819
▁퍼포먼	-14820
▁포장은	-14821
▁품목명	-14822
▁퓨리토	-14823
▁피로를	-14824
▁하려는	-14825
▁했네요	-14826
▁행위를	-14827
▁형태가	-14828
받습니다	-14829
▁가실래요	-14830
▁가이드를	-14831
▁결제하고	-14832
▁구매해서	-14833
▁국제적인	-14834
▁기억해요	-14835
▁꿈입니다	-14836
▁낫습니다	-14837
▁느껴져요	-14838
▁당신께서	-14839
▁되었네요	-14840
▁메세지를	-14841
▁바뀌어서	-14842
▁보이나요	-14843
▁보호하기	-14844
▁사이트의	-14845
▁손가락을	-14846
▁시간이나	-14847
▁않겠다고	-14848
▁알고리즘	-14849
▁얻습니다	-14850
▁올라가서	-14851
▁우리들의	-14852
▁자동차는	-14853
▁전형적인	-14854
▁제주도로	-14855
▁준비되면	-14856
▁진열되어	-14857
▁첨부해서	-14858
▁탔습니다	-14859
▁태어나서	-14860
▁풍부하게	-14861
▁하십시오	-14862
▁한국에선	-14863
▁확신해요	-14864
▁회사들은	-14865
되었습니까	-14866
▁결과입니다	-14867
▁디즈니랜드	-14868
▁부모님에게	-14869
▁부족하지만	-14870
▁어제저녁에	-14871
▁여기서부터	-14872
▁올라가시면	-14873
▁올렸습니다	-14874
▁이용합니다	-14875
▁제주도에서	-14876
▁패스트푸드	-14877
▁프로그래밍	-14878
▁프로그램의	-14879
▁공부했습니다	-14880
▁서비스입니다	-14881
▁설명해주세요	-14882
▁엘리베이터가	-14883
▁카카오톡으로	-14884
▁크리스마스에	-14885
▁재미있었습니다	-14886
-3	-14887
DP	-14888
▁뒀	-14889
▁몫	-14890
▁퀸	-14891
거를	-14892
계좌	-14893
구조	-14894
군을	-14895
기기	-14896
도시	-14897
둬야	-14898
령을	-14899
르트	-14900
막이	-14901
바지	-14902
박물	-14903
받침	-14904
번은	-14905
범위	-14906
병에	-14907
선의	-14908
세는	-14909
세대	-14910
셨고	-14911
슨은	-14912
시안	-14913
실험	-14914
심과	-14915
전자	-14916
층을	-14917
케어	-14918
풀이	-14919
화폐	-14920
▁IR	-14921
▁강도	-14922
▁거다	-14923
▁고치	-14924
▁꼭대	-14925
▁남긴	-14926
▁노후	-14927
▁다룰	-14928
▁다쳤	-14929
▁다치	-14930
▁다크	-14931
▁더럽	-14932
▁도출	-14933
▁독창	-14934
▁동호	-14935
▁되며	-14936
▁들렀	-14937
▁막혀	-14938
▁말만	-14939
▁말았	-14940
▁멜로	-14941
▁미네	-14942
▁밥도	-14943
▁방침	-14944
▁배부	-14945
▁버클	-14946
▁버킷	-14947
▁보길	-14948
▁복도	-14949
▁본래	-14950
▁부하	-14951
▁부활	-14952
▁브리	-14953
▁비워	-14954
▁빠지	-14955
▁사계	-14956
▁살던	-14957
▁선별	-14958
▁소시	-14959
▁술이	-14960
▁스팸	-14961
▁슬플	-14962
▁시점	-14963
▁여가	-14964
▁옳지	-14965
▁운명	-14966
▁웨이	-14967
▁조지	-14968
▁조화	-14969
▁차갑	-14970
▁체인	-14971
▁치명	-14972
▁치수	-14973
▁트레	-14974
▁퍼즐	-14975
▁페인	-14976
▁항생	-14977
▁향을	-14978
달러의	-14979
레이션	-14980
명인데	-14981
야말로	-14982
졌다는	-14983
테리아	-14984
포인트	-14985
▁15%	-14986
▁가을이	-14987
▁가족들	-14988
▁개선이	-14989
▁개수를	-14990
▁것인데	-14991
▁공급이	-14992
▁광고의	-14993
▁교실에	-14994
▁구성된	-14995
▁기억할	-14996
▁깊었던	-14997
▁나이키	-14998
▁날짜로	-14999
▁내일로	-15000
▁높아서	-15001
▁다르다	-15002
▁대구에	-15003
▁동물의	-15004
▁만남을	-15005
▁말이죠	-15006
▁맛있다	-15007
▁매콤한	-15008
▁면접이	-15009
▁미팅은	-15010
▁바닐라	-15011
▁바르고	-15012
▁발주를	-15013
▁발표가	-15014
▁방학에	-15015
▁버리지	-15016
▁보관해	-15017
▁볼까요	-15018
▁부탁할	-15019
▁비싸지	-15020
▁사례를	-15021
▁서명을	-15022
▁센트럴	-15023
▁손님을	-15024
▁손쉽게	-15025
▁슬퍼요	-15026
▁시작을	-15027
▁싶지는	-15028
▁아나요	-15029
▁안쪽에	-15030
▁어쩌지	-15031
▁얼룩이	-15032
▁여권이	-15033
▁여행도	-15034
▁역사와	-15035
▁연관이	-15036
▁영화관	-15037
▁오징어	-15038
▁오해를	-15039
▁요구한	-15040
▁운동화	-15041
▁이사할	-15042
▁일상을	-15043
▁자세로	-15044
▁전공은	-15045
▁점수는	-15046
▁제목을	-15047
▁종류에	-15048
▁지나지	-15049
▁지내요	-15050
▁지루한	-15051
▁지키기	-15052
▁집중이	-15053
▁차질이	-15054
▁참고해	-15055
▁책에서	-15056
▁책임감	-15057
▁최대의	-15058
▁추가된	-15059
▁커피와	-15060
▁크기로	-15061
▁타세요	-15062
▁파일의	-15063
▁한계를	-15064
▁합쳐서	-15065
▁향기가	-15066
▁현실을	-15067
▁환자는	-15068
싶습니다	-15069
하겠네요	-15070
했거든요	-15071
▁2010	-15072
▁가이드가	-15073
▁걸리는데	-15074
▁괜찮으니	-15075
▁그러세요	-15076
▁근본적인	-15077
▁늦어져서	-15078
▁다양하고	-15079
▁당신처럼	-15080
▁돌아가서	-15081
▁디저트를	-15082
▁따뜻하고	-15083
▁로비에서	-15084
▁몰랐네요	-15085
▁바쁩니다	-15086
▁사용했던	-15087
▁사장님께	-15088
▁시작으로	-15089
▁아파트를	-15090
▁알려주지	-15091
▁예정이며	-15092
▁오전까지	-15093
▁이벤트는	-15094
▁이용하지	-15095
▁인터넷은	-15096
▁입구에서	-15097
▁전달하는	-15098
▁정리하여	-15099
▁주차장이	-15100
▁중이라고	-15101
▁지냈어요	-15102
▁직원들을	-15103
▁집중하고	-15104
▁집중해서	-15105
▁클라우드	-15106
▁클럽에서	-15107
▁판매자가	-15108
▁포함되지	-15109
▁할머니는	-15110
▁혹시라도	-15111
▁화장품은	-15112
▁환경오염	-15113
▁남겨주세요	-15114
▁넣었습니다	-15115
▁놓았습니다	-15116
▁느껴집니다	-15117
▁느낌이에요	-15118
▁들었는데요	-15119
▁만족합니다	-15120
▁물어볼게요	-15121
▁바이어에게	-15122
▁보내줄게요	-15123
▁유감입니다	-15124
▁이루어지지	-15125
▁자랑스러워	-15126
▁전화번호는	-15127
▁포트폴리오	-15128
▁포함됩니다	-15129
▁만들어주세요	-15130
AP	-15131
ID	-15132
▁y	-15133
▁낡	-15134
▁녀	-15135
▁돔	-15136
▁를	-15137
▁씌	-15138
▁앙	-15139
▁폼	-15140
▁흩	-15141
격이	-15142
구와	-15143
구의	-15144
군이	-15145
대왕	-15146
량과	-15147
립을	-15148
링이	-15149
선과	-15150
식품	-15151
실의	-15152
잔을	-15153
전략	-15154
추가	-15155
치노	-15156
해본	-15157
했죠	-15158
호를	-15159
화한	-15160
art	-15161
▁가니	-15162
▁가맹	-15163
▁갈라	-15164
▁강릉	-15165
▁개구	-15166
▁고래	-15167
▁구속	-15168
▁국경	-15169
▁기쁠	-15170
▁나열	-15171
▁늘릴	-15172
▁닫아	-15173
▁달을	-15174
▁담백	-15175
▁대조	-15176
▁더워	-15177
▁동등	-15178
▁돼야	-15179
▁디바	-15180
▁따를	-15181
▁딸과	-15182
▁때쯤	-15183
▁못생	-15184
▁뭐든	-15185
▁박지	-15186
▁버그	-15187
▁벨을	-15188
▁보행	-15189
▁부근	-15190
▁부상	-15191
▁브런	-15192
▁빈칸	-15193
▁수송	-15194
▁스킬	-15195
▁심판	-15196
▁싸우	-15197
▁씨앗	-15198
▁아랍	-15199
▁아우	-15200
▁양은	-15201
▁오브	-15202
▁원에	-15203
▁유쾌	-15204
▁자러	-15205
▁자요	-15206
▁자취	-15207
▁잔잔	-15208
▁전면	-15209
▁좋기	-15210
▁지표	-15211
▁집주	-15212
▁차의	-15213
▁찾았	-15214
▁체코	-15215
▁총괄	-15216
▁축적	-15217
▁커요	-15218
▁클리	-15219
▁학문	-15220
▁홍대	-15221
▁효능	-15222
▁후속	-15223
개월간	-15224
께서는	-15225
나가는	-15226
드리기	-15227
리라는	-15228
스럽지	-15229
자리를	-15230
전에서	-15231
▁1~2	-15232
▁CEO	-15233
▁USB	-15234
▁갈래요	-15235
▁객실에	-15236
▁걸리고	-15237
▁계산이	-15238
▁고소한	-15239
▁공짜로	-15240
▁과제는	-15241
▁교사가	-15242
▁귀하가	-15243
▁규정상	-15244
▁근사한	-15245
▁금액의	-15246
▁기계의	-15247
▁남기고	-15248
▁남편을	-15249
▁노하우	-15250
▁다가올	-15251
▁다치지	-15252
▁마우스	-15253
▁말해주	-15254
▁매니큐	-15255
▁문구를	-15256
▁미팅에	-15257
▁보낼게	-15258
▁보스턴	-15259
▁본사에	-15260
▁사라진	-15261
▁섞어서	-15262
▁세우고	-15263
▁소스가	-15264
▁수량과	-15265
▁시간만	-15266
▁심사를	-15267
▁싶은지	-15268
▁아픈데	-15269
▁언어가	-15270
▁오늘만	-15271
▁우정을	-15272
▁유럽에	-15273
▁유전자	-15274
▁이동을	-15275
▁인구가	-15276
▁자체를	-15277
▁전공과	-15278
▁점심에	-15279
▁접속이	-15280
▁정책에	-15281
▁정해서	-15282
▁착오가	-15283
▁채소와	-15284
▁취향에	-15285
▁태도는	-15286
▁통관을	-15287
▁필라테	-15288
▁하우스	-15289
▁해결이	-15290
▁휴가는	-15291
▁휴일이	-15292
되었으니	-15293
비게이션	-15294
스럽네요	-15295
음으로써	-15296
▁가족들을	-15297
▁거라서요	-15298
▁거래처에	-15299
▁걱정하고	-15300
▁결제하면	-15301
▁공간에서	-15302
▁그런가요	-15303
▁나갔어요	-15304
▁누르세요	-15305
▁늘어나고	-15306
▁대비해서	-15307
▁대통령은	-15308
▁도와주실	-15309
▁떨어지고	-15310
▁맛있어서	-15311
▁맞는다면	-15312
▁무서워서	-15313
▁빠릅니다	-15314
▁성장하는	-15315
▁않으니까	-15316
▁어렵다는	-15317
▁열정적인	-15318
▁우리에겐	-15319
▁이미지에	-15320
▁이용하기	-15321
▁일본어로	-15322
▁일본어를	-15323
▁있음으로	-15324
▁자기소개	-15325
▁정류장에	-15326
▁주인공의	-15327
▁중학교에	-15328
▁진행하지	-15329
▁추가하여	-15330
▁카메라에	-15331
▁토요일은	-15332
▁했는데요	-15333
하더라고요	-15334
▁검은색으로	-15335
▁남자친구를	-15336
▁누구에게나	-15337
▁도와주셔서	-15338
▁두었습니다	-15339
▁마쳤습니다	-15340
▁배드민턴을	-15341
▁의사소통을	-15342
▁의사소통이	-15343
▁전화번호가	-15344
▁조심스럽게	-15345
▁좋아하는지	-15346
▁즐겁습니다	-15347
▁페이지에서	-15348
▁편리합니다	-15349
▁해야겠어요	-15350
▁연락드릴게요	-15351
▁완료했습니다	-15352
▁주문했습니다	-15353
▁시간이었습니다	-15354
▁확인해보겠습니다	-15355
OP	-15356
ce	-15357
▁r	-15358
▁뵈	-15359
▁숯	-15360
▁앰	-15361
▁찹	-15362
▁찻	-15363
▁톡	-15364
▁펭	-15365
▁힌	-15366
가량	-15367
공학	-15368
길동	-15369
날이	-15370
능력	-15371
던지	-15372
라노	-15373
라엘	-15374
마크	-15375
색은	-15376
으려	-15377
익을	-15378
졌기	-15379
텐데	-15380
팀을	-15381
판매	-15382
폰을	-15383
품에	-15384
형의	-15385
800	-15386
der	-15387
▁IC	-15388
▁KT	-15389
▁가신	-15390
▁감고	-15391
▁거친	-15392
▁건을	-15393
▁겁이	-15394
▁겪는	-15395
▁견과	-15396
▁골드	-15397
▁구사	-15398
▁그전	-15399
▁글은	-15400
▁깨진	-15401
▁꾸미	-15402
▁날로	-15403
▁낮추	-15404
▁동창	-15405
▁두통	-15406
▁땀이	-15407
▁마녀	-15408
▁몰아	-15409
▁미룰	-15410
▁배는	-15411
▁벌기	-15412
▁사격	-15413
▁산이	-15414
▁상에	-15415
▁상한	-15416
▁서식	-15417
▁섞여	-15418
▁선교	-15419
▁성수	-15420
▁셀프	-15421
▁스틱	-15422
▁신은	-15423
▁아가	-15424
▁억제	-15425
▁엔터	-15426
▁역동	-15427
▁열람	-15428
▁열을	-15429
▁오를	-15430
▁왔던	-15431
▁유로	-15432
▁이들	-15433
▁일괄	-15434
▁일인	-15435
▁자정	-15436
▁잘한	-15437
▁장담	-15438
▁재난	-15439
▁절망	-15440
▁지겨	-15441
▁지름	-15442
▁지문	-15443
▁질이	-15444
▁차서	-15445
▁참치	-15446
▁팔지	-15447
▁펜션	-15448
▁펜을	-15449
▁편도	-15450
▁평창	-15451
▁폴리	-15452
▁표가	-15453
▁피어	-15454
▁한대	-15455
▁형광	-15456
▁후면	-15457
됐다고	-15458
둡니다	-15459
리라고	-15460
문화를	-15461
분에서	-15462
하던데	-15463
하시죠	-15464
학과를	-15465
▁70%	-15466
▁가져와	-15467
▁가치는	-15468
▁갔으면	-15469
▁같았어	-15470
▁개성을	-15471
▁거군요	-15472
▁걱정은	-15473
▁검사는	-15474
▁것들에	-15475
▁것에는	-15476
▁결론을	-15477
▁결혼은	-15478
▁경력을	-15479
▁경쟁이	-15480
▁계절이	-15481
▁고파서	-15482
▁공부해	-15483
▁공휴일	-15484
▁관리할	-15485
▁규모의	-15486
▁그러던	-15487
▁기업에	-15488
▁깨닫게	-15489
▁나아요	-15490
▁너처럼	-15491
▁누구랑	-15492
▁다하는	-15493
▁단계에	-15494
▁단체로	-15495
▁달에는	-15496
▁대만에	-15497
▁두통이	-15498
▁둘러싸	-15499
▁뒷받침	-15500
▁때문이	-15501
▁리더쉽	-15502
▁먹으며	-15503
▁모델에	-15504
▁모두들	-15505
▁물리적	-15506
▁버리는	-15507
▁버튼이	-15508
▁보라카	-15509
▁보험을	-15510
▁사귀는	-15511
▁사람만	-15512
▁사우나	-15513
▁색상의	-15514
▁생산된	-15515
▁생일파	-15516
▁선택의	-15517
▁선택해	-15518
▁세일즈	-15519
▁스테인	-15520
▁시점에	-15521
▁신속한	-15522
▁아내의	-15523
▁알파벳	-15524
▁야근을	-15525
▁양념을	-15526
▁어학연	-15527
▁얼음을	-15528
▁없어진	-15529
▁역사는	-15530
▁연주를	-15531
▁열려요	-15532
▁열정과	-15533
▁영상은	-15534
▁예뻐요	-15535
▁예상치	-15536
▁올리면	-15537
▁왔다고	-15538
▁운동도	-15539
▁위치해	-15540
▁유형의	-15541
▁의식이	-15542
▁이후의	-15543
▁일본과	-15544
▁일본인	-15545
▁입어요	-15546
▁자신에	-15547
▁작가는	-15548
▁장난을	-15549
▁전하고	-15550
▁접시에	-15551
▁조사한	-15552
▁조화를	-15553
▁존재가	-15554
▁주셔도	-15555
▁주스를	-15556
▁찍어야	-15557
▁책임질	-15558
▁책자를	-15559
▁처음이	-15560
▁치즈가	-15561
▁컬러가	-15562
▁코스를	-15563
▁통하는	-15564
▁파악할	-15565
▁판타지	-15566
▁포토샵	-15567
▁해변에	-15568
▁해주면	-15569
▁허가를	-15570
▁환자를	-15571
▁회사도	-15572
서입니다	-15573
으셨나요	-15574
하신다고	-15575
▁걱정이야	-15576
▁걸리는지	-15577
▁것이었어	-15578
▁경험으로	-15579
▁군대에서	-15580
▁금액으로	-15581
▁냈습니다	-15582
▁당신하고	-15583
▁드레스를	-15584
▁드리려고	-15585
▁뜻합니다	-15586
▁마을에서	-15587
▁말하세요	-15588
▁문제라도	-15589
▁물어보면	-15590
▁받았다고	-15591
▁받으려면	-15592
▁변경하여	-15593
▁보관하고	-15594
▁보십시오	-15595
▁사용하게	-15596
▁사장님은	-15597
▁사진들은	-15598
▁시켰는데	-15599
▁여쭤보고	-15600
▁예정대로	-15601
▁예정이고	-15602
▁옛날부터	-15603
▁원피스를	-15604
▁잤습니다	-15605
▁전시회를	-15606
▁제품에는	-15607
▁차이점은	-15608
▁첨부파일	-15609
▁체크인할	-15610
▁필리핀의	-15611
▁하늘에서	-15612
▁할리우드	-15613
▁혁신적인	-15614
▁드셔보세요	-15615
▁말해보세요	-15616
▁미국에서는	-15617
▁부득이하게	-15618
▁업데이트가	-15619
▁제외하고는	-15620
▁좋아하시는	-15621
▁추가됩니다	-15622
▁프랑스에서	-15623
▁학교생활을	-15624
▁재미있었어요	-15625
▁참고해주세요	-15626
▁100,000	-15627
▁프로그램입니다	-15628
MR	-15629
OB	-15630
ke	-15631
▁룰	-15632
▁얽	-15633
▁촛	-15634
관념	-15635
기사	-15636
니가	-15637
닝을	-15638
마의	-15639
문학	-15640
봐서	-15641
언이	-15642
유는	-15643
장한	-15644
전문	-15645
▁DC	-15646
▁가나	-15647
▁각질	-15648
▁간혹	-15649
▁갖지	-15650
▁같긴	-15651
▁개로	-15652
▁걷기	-15653
▁공화	-15654
▁근대	-15655
▁날도	-15656
▁남이	-15657
▁넓어	-15658
▁당당	-15659
▁멈췄	-15660
▁명단	-15661
▁명칭	-15662
▁묻어	-15663
▁물의	-15664
▁미만	-15665
▁반에	-15666
▁발로	-15667
▁밥이	-15668
▁본다	-15669
▁붙이	-15670
▁사려	-15671
▁색채	-15672
▁섭외	-15673
▁셀러	-15674
▁소고	-15675
▁소용	-15676
▁아깝	-15677
▁안주	-15678
▁에티	-15679
▁여덟	-15680
▁유입	-15681
▁응시	-15682
▁이뻐	-15683
▁이의	-15684
▁이체	-15685
▁재수	-15686
▁적재	-15687
▁정교	-15688
▁정작	-15689
▁주력	-15690
▁지상	-15691
▁켜고	-15692
▁코트	-15693
▁타도	-15694
▁트리	-15695
▁펭귄	-15696
▁프랜	-15697
▁하반	-15698
▁학급	-15699
▁했니	-15700
▁화합	-15701
▁후배	-15702
▁휴양	-15703
동에서	-15704
두세요	-15705
로에서	-15706
번으로	-15707
상적인	-15708
셨다고	-15709
을수록	-15710
춥니다	-15711
터미널	-15712
해줘요	-15713
했어야	-15714
▁MOQ	-15715
▁가르치	-15716
▁가면서	-15717
▁감사할	-15718
▁감성을	-15719
▁강제로	-15720
▁갤럭시	-15721
▁걱정돼	-15722
▁걸어갈	-15723
▁계산해	-15724
▁공장이	-15725
▁구경을	-15726
▁그것과	-15727
▁그나마	-15728
▁그분이	-15729
▁그저께	-15730
▁기분은	-15731
▁기쁘다	-15732
▁기회는	-15733
▁끝으로	-15734
▁날이야	-15735
▁났는데	-15736
▁농구를	-15737
▁느껴질	-15738
▁늦잠을	-15739
▁다이빙	-15740
▁달리기	-15741
▁당장은	-15742
▁대학은	-15743
▁도장을	-15744
▁되돌려	-15745
▁되시길	-15746
▁둘이서	-15747
▁드네요	-15748
▁마시기	-15749
▁먼지가	-15750
▁명시된	-15751
▁무엇에	-15752
▁문의가	-15753
▁물고기	-15754
▁뭔가를	-15755
▁미네랄	-15756
▁바꾸어	-15757
▁반에서	-15758
▁발급이	-15759
▁방문이	-15760
▁방식의	-15761
▁봤으면	-15762
▁부자가	-15763
▁부탁한	-15764
▁불편할	-15765
▁블록체	-15766
▁선수를	-15767
▁소음이	-15768
▁수하물	-15769
▁스위스	-15770
▁시작은	-15771
▁식사할	-15772
▁아쉬운	-15773
▁어디든	-15774
▁여기요	-15775
▁여드름	-15776
▁여분의	-15777
▁염색을	-15778
▁오페라	-15779
▁인간을	-15780
▁일부분	-15781
▁일행이	-15782
▁읽어보	-15783
▁자료에	-15784
▁작동을	-15785
▁저에겐	-15786
▁정리가	-15787
▁정하고	-15788
▁조절이	-15789
▁중심에	-15790
▁지하에	-15791
▁찍으면	-15792
▁참가할	-15793
▁챙겨서	-15794
▁최고가	-15795
▁추천할	-15796
▁출근할	-15797
▁출시할	-15798
▁친구인	-15799
▁카지노	-15800
▁커버를	-15801
▁코카콜	-15802
▁태도가	-15803
▁태어날	-15804
▁택배가	-15805
▁통화가	-15806
▁투명한	-15807
▁투어가	-15808
▁튼튼한	-15809
▁편지가	-15810
▁포함해	-15811
▁표본을	-15812
▁프런트	-15813
▁하단에	-15814
▁홍길동	-15815
▁환전할	-15816
으십니까	-15817
이입니다	-15818
호입니다	-15819
▁거리에서	-15820
▁경우에도	-15821
▁경우에만	-15822
▁경험하고	-15823
▁그다음에	-15824
▁그만두고	-15825
▁너희들은	-15826
▁넣으세요	-15827
▁노력으로	-15828
▁다녀와서	-15829
▁대량으로	-15830
▁도착해요	-15831
▁동기부여	-15832
▁마음가짐	-15833
▁먹을까요	-15834
▁목소리로	-15835
▁무언가가	-15836
▁무엇일까	-15837
▁바구니에	-15838
▁바라보고	-15839
▁브라우저	-15840
▁생겼는데	-15841
▁시작했어	-15842
▁어울려요	-15843
▁언제인지	-15844
▁요리사가	-15845
▁운전해서	-15846
▁음식점이	-15847
▁이스라엘	-15848
▁이야기한	-15849
▁제주도의	-15850
▁좋아지고	-15851
▁주문번호	-15852
▁주문해서	-15853
▁지역으로	-15854
▁차원에서	-15855
▁카메라로	-15856
▁트레이너	-15857
▁편의점이	-15858
▁학생들과	-15859
▁해봤는데	-15860
▁확인하실	-15861
▁기다렸어요	-15862
▁누구인가요	-15863
▁당신에게서	-15864
▁방문했어요	-15865
▁밸런타인데	-15866
▁소비자들은	-15867
▁아쉽습니다	-15868
▁애완동물을	-15869
▁와이파이를	-15870
▁있으십니다	-15871
▁좋겠는데요	-15872
▁중요하다는	-15873
▁특징입니다	-15874
▁해왔습니다	-15875
▁안녕하십니까	-15876
▁전문점입니다	-15877
▁증가했습니다	-15878
90	-15879
ft	-15880
▁갯	-15881
▁굿	-15882
▁떴	-15883
▁맙	-15884
▁숭	-15885
간다	-15886
값은	-15887
대회	-15888
도날	-15889
목이	-15890
무가	-15891
방의	-15892
소리	-15893
속이	-15894
온난	-15895
차게	-15896
차에	-15897
책이	-15898
체육	-15899
크라	-15900
호의	-15901
est	-15902
▁95	-15903
▁가위	-15904
▁가전	-15905
▁거대	-15906
▁곧장	-15907
▁공평	-15908
▁교내	-15909
▁기어	-15910
▁기자	-15911
▁꿈과	-15912
▁끄는	-15913
▁남산	-15914
▁당겨	-15915
▁마쳤	-15916
▁맞춘	-15917
▁멸종	-15918
▁모색	-15919
▁밀크	-15920
▁발렌	-15921
▁벌금	-15922
▁벽을	-15923
▁비례	-15924
▁산출	-15925
▁세로	-15926
▁알렉	-15927
▁어딜	-15928
▁여의	-15929
▁요코	-15930
▁욕을	-15931
▁운반	-15932
▁이룬	-15933
▁인류	-15934
▁임산	-15935
▁잡힌	-15936
▁잦은	-15937
▁전력	-15938
▁종사	-15939
▁진술	-15940
▁진작	-15941
▁집과	-15942
▁채권	-15943
▁천사	-15944
▁키스	-15945
▁태도	-15946
▁특산	-15947
▁평온	-15948
▁포맷	-15949
▁푸는	-15950
▁하노	-15951
▁하위	-15952
▁합병	-15953
▁화산	-15954
▁후반	-15955
방으로	-15956
비용은	-15957
어에서	-15958
업체를	-15959
졌지만	-15960
처리가	-15961
하기만	-15962
▁800	-15963
▁GMO	-15964
▁MOU	-15965
▁VIP	-15966
▁가보는	-15967
▁개인적	-15968
▁거품을	-15969
▁경쟁력	-15970
▁고기는	-15971
▁공공장	-15972
▁구경할	-15973
▁구두를	-15974
▁구성이	-15975
▁극대화	-15976
▁기말고	-15977
▁기저귀	-15978
▁기한이	-15979
▁꽃들이	-15980
▁날씨를	-15981
▁다음엔	-15982
▁닭고기	-15983
▁대회를	-15984
▁드셔야	-15985
▁로비에	-15986
▁말하길	-15987
▁맞추기	-15988
▁머물러	-15989
▁먹기로	-15990
▁범위가	-15991
▁보이네	-15992
▁부위가	-15993
▁불러야	-15994
▁붙이는	-15995
▁비해서	-15996
▁사는데	-15997
▁사례가	-15998
▁사원이	-15999
▁살아서	-16000
▁샘플과	-16001
▁서서히	-16002
▁선물할	-16003
▁소통이	-16004
▁속으로	-16005
▁수시로	-16006
▁시계가	-16007
▁시기가	-16008
▁얘기한	-16009
▁어려우	-16010
▁엄격한	-16011
▁오르는	-16012
▁오리엔	-16013
▁오일을	-16014
▁요리할	-16015
▁운영을	-16016
▁원본을	-16017
▁원하던	-16018
▁윌리엄	-16019
▁유효한	-16020
▁의무를	-16021
▁인수인	-16022
▁인식을	-16023
▁인원을	-16024
▁입사한	-16025
▁자세가	-16026
▁재료로	-16027
▁재무제	-16028
▁젊은이	-16029
▁정의를	-16030
▁제한된	-16031
▁조직을	-16032
▁좋았고	-16033
▁주방에	-16034
▁주었어	-16035
▁중국을	-16036
▁중심의	-16037
▁첫사랑	-16038
▁초기화	-16039
▁치킨은	-16040
▁파마를	-16041
▁팬들이	-16042
▁편이야	-16043
▁편해요	-16044
▁평화를	-16045
▁품질에	-16046
▁하나랑	-16047
▁학교와	-16048
▁학생회	-16049
▁현대의	-16050
▁협조를	-16051
▁화물이	-16052
▁회원이	-16053
▁횡단보	-16054
▁희망이	-16055
차적으로	-16056
▁1000	-16057
▁가족이랑	-16058
▁강아지와	-16059
▁걱정하는	-16060
▁관리하고	-16061
▁나누어서	-16062
▁내려가서	-16063
▁도착하여	-16064
▁동물들은	-16065
▁되는데요	-16066
▁만드세요	-16067
▁메시지에	-16068
▁붙어있는	-16069
▁사람처럼	-16070
▁서비스와	-16071
▁소중하게	-16072
▁수영장이	-16073
▁스카이프	-16074
▁시나리오	-16075
▁실용적인	-16076
▁아래에서	-16077
▁아일랜드	-16078
▁아침에는	-16079
▁어렵네요	-16080
▁어머니를	-16081
▁에버랜드	-16082
▁영향으로	-16083
▁예상했던	-16084
▁오셨어요	-16085
▁원하는지	-16086
▁이메일은	-16087
▁이해해요	-16088
▁장기적인	-16089
▁정확하지	-16090
▁제출하면	-16091
▁주문하지	-16092
▁지구온난	-16093
▁청소하는	-16094
▁케이크는	-16095
▁판매되고	-16096
▁패키지를	-16097
▁포스터를	-16098
▁포함해요	-16099
▁프로토콜	-16100
▁하느님의	-16101
▁환상적인	-16102
▁활동하고	-16103
▁가능하다는	-16104
▁결제하시면	-16105
▁공부합니다	-16106
▁다음번에는	-16107
▁들어주셔서	-16108
▁뛰어납니다	-16109
▁발라주세요	-16110
▁부탁드리며	-16111
▁빠졌습니다	-16112
▁샌드위치를	-16113
▁소비자들이	-16114
▁아니더라도	-16115
▁어울립니다	-16116
▁여러분들이	-16117
▁의미입니다	-16118
▁있었습니까	-16119
▁판단됩니다	-16120
▁행복했으면	-16121
▁가능합니다만	-16122
▁고객으로부터	-16123
▁좋아하시나요	-16124
▁좋아했습니다	-16125
▁참여했습니다	-16126
▁추가되었습니다	-16127
pe	-16128
▁똥	-16129
▁랭	-16130
▁앵	-16131
▁쿨	-16132
계는	-16133
근한	-16134
길로	-16135
놓는	-16136
랑은	-16137
루를	-16138
린은	-16139
박한	-16140
배를	-16141
앤젤	-16142
일러	-16143
재료	-16144
전화	-16145
테이	-16146
티에	-16147
ice	-16148
▁SD	-16149
▁Sh	-16150
▁가든	-16151
▁거슬	-16152
▁건전	-16153
▁고유	-16154
▁고프	-16155
▁고흐	-16156
▁기밀	-16157
▁끝마	-16158
▁녹화	-16159
▁대다	-16160
▁도장	-16161
▁돌리	-16162
▁됐다	-16163
▁막걸	-16164
▁말라	-16165
▁무덤	-16166
▁물량	-16167
▁버릇	-16168
▁법무	-16169
▁보던	-16170
▁불공	-16171
▁삼아	-16172
▁서핑	-16173
▁선이	-16174
▁손은	-16175
▁쉬어	-16176
▁쉬울	-16177
▁스코	-16178
▁시급	-16179
▁시를	-16180
▁식단	-16181
▁아랫	-16182
▁아크	-16183
▁안되	-16184
▁연고	-16185
▁오자	-16186
▁왼손	-16187
▁웃어	-16188
▁위기	-16189
▁위약	-16190
▁유독	-16191
▁육아	-16192
▁융합	-16193
▁자판	-16194
▁전염	-16195
▁좀비	-16196
▁좋긴	-16197
▁좌측	-16198
▁죄책	-16199
▁죽고	-16200
▁중개	-16201
▁증권	-16202
▁지사	-16203
▁지을	-16204
▁책도	-16205
▁초안	-16206
▁출생	-16207
▁캐리	-16208
▁케어	-16209
▁코디	-16210
▁코치	-16211
▁패치	-16212
▁포커	-16213
▁하필	-16214
▁한해	-16215
▁해에	-16216
▁핸들	-16217
▁했나	-16218
▁화살	-16219
▁후기	-16220
계획을	-16221
관계가	-16222
됐는데	-16223
들처럼	-16224
밀하게	-16225
스턴트	-16226
싶어요	-16227
아이가	-16228
었잖아	-16229
자들에	-16230
층에는	-16231
프리카	-16232
하기엔	-16233
하였을	-16234
해야지	-16235
했다가	-16236
▁1.5	-16237
▁110	-16238
▁40%	-16239
▁URL	-16240
▁갈등을	-16241
▁같으면	-16242
▁건강검	-16243
▁공무원	-16244
▁과목이	-16245
▁광범위	-16246
▁그때의	-16247
▁그룹의	-16248
▁기능성	-16249
▁꿈꾸는	-16250
▁나가기	-16251
▁나뭇잎	-16252
▁나아질	-16253
▁나와야	-16254
▁나타날	-16255
▁높이가	-16256
▁되기도	-16257
▁둘러보	-16258
▁둘째로	-16259
▁들어도	-16260
▁때문인	-16261
▁만족할	-16262
▁맞춤형	-16263
▁맥도날	-16264
▁무릎을	-16265
▁문서에	-16266
▁발음이	-16267
▁방송에	-16268
▁버전의	-16269
▁베이컨	-16270
▁보기로	-16271
▁보내니	-16272
▁부산의	-16273
▁부서의	-16274
▁분명한	-16275
▁불러요	-16276
▁빕니다	-16277
▁사운드	-16278
▁생기고	-16279
▁생일은	-16280
▁서점에	-16281
▁성공의	-16282
▁수술이	-16283
▁슬프게	-16284
▁슬픔을	-16285
▁시간당	-16286
▁아래는	-16287
▁약속은	-16288
▁어두워	-16289
▁업무의	-16290
▁여권과	-16291
▁여부에	-16292
▁영혼을	-16293
▁위기에	-16294
▁음악과	-16295
▁이라고	-16296
▁익숙한	-16297
▁장비에	-16298
▁장소와	-16299
▁재밌을	-16300
▁저작권	-16301
▁점검을	-16302
▁중앙에	-16303
▁증상은	-16304
▁지각을	-16305
▁지내길	-16306
▁책임은	-16307
▁취하고	-16308
▁컴플레	-16309
▁크기에	-16310
▁크리에	-16311
▁토론을	-16312
▁하얀색	-16313
▁하잖아	-16314
▁학부모	-16315
▁학습을	-16316
▁항목에	-16317
▁항목이	-16318
▁해서는	-16319
▁햇빛이	-16320
▁향상할	-16321
국제공항	-16322
섰습니다	-16323
켰습니다	-16324
ation	-16325
▁걸립니까	-16326
▁게시판에	-16327
▁결제해야	-16328
▁공부해요	-16329
▁교환이나	-16330
▁규칙적인	-16331
▁그것들이	-16332
▁그렇기에	-16333
▁기업들은	-16334
▁끝났어요	-16335
▁남았어요	-16336
▁노력하면	-16337
▁뉴욕으로	-16338
▁늦어지는	-16339
▁다녔어요	-16340
▁대학생이	-16341
▁되어가고	-16342
▁로스앤젤	-16343
▁맛있는데	-16344
▁맛있다고	-16345
▁물어보자	-16346
▁바빴어요	-16347
▁받으려고	-16348
▁배우들이	-16349
▁변화하는	-16350
▁부분으로	-16351
▁사람보다	-16352
▁사이트가	-16353
▁사이트는	-16354
▁상관없어	-16355
▁상대방을	-16356
▁세부적인	-16357
▁세종대왕	-16358
▁쇼핑하러	-16359
▁식사하고	-16360
▁아니니까	-16361
▁어디서나	-16362
▁어땠나요	-16363
▁연락하여	-16364
▁영향력을	-16365
▁오토바이	-16366
▁은행으로	-16367
▁좋으세요	-16368
▁주말에도	-16369
▁지원하지	-16370
▁팀장님이	-16371
▁편안함을	-16372
▁포인트는	-16373
▁포함하는	-16374
▁필요하니	-16375
▁하십니다	-16376
▁학교까지	-16377
▁학생에게	-16378
▁화면에서	-16379
▁활동적인	-16380
▁희망하는	-16381
▁힘드네요	-16382
적이었어요	-16383
▁4,000	-16384
▁그러시군요	-16385
▁다녔습니다	-16386
▁들어가시면	-16387
▁마셨습니다	-16388
▁말았습니다	-16389
▁미안하다고	-16390
▁연구입니다	-16391
▁열정적으로	-16392
▁우리나라가	-16393
▁이루어지는	-16394
▁잃어버려서	-16395
▁저렴합니다	-16396
▁전부입니다	-16397
▁정신적으로	-16398
▁지금까지도	-16399
▁처음이에요	-16400
▁추천해주실	-16401
▁출발합니다	-16402
▁화장실에서	-16403
▁유감스럽게도	-16404
▁보내주시겠어요	-16405
▁요청하겠습니다	-16406
EC	-16407
co	-16408
ob	-16409
ub	-16410
▁싹	-16411
강을	-16412
겠고	-16413
경영	-16414
공을	-16415
과가	-16416
그러	-16417
담이	-16418
등에	-16419
란에	-16420
무지	-16421
받게	-16422
번이	-16423
분도	-16424
셨다	-16425
셨죠	-16426
스케	-16427
식과	-16428
애플	-16429
여요	-16430
열이	-16431
영화	-16432
유럽	-16433
있게	-16434
절은	-16435
행이	-16436
호는	-16437
환을	-16438
ine	-16439
oll	-16440
▁65	-16441
▁PT	-16442
▁VR	-16443
▁개당	-16444
▁경주	-16445
▁고작	-16446
▁구간	-16447
▁근력	-16448
▁냉각	-16449
▁느려	-16450
▁되자	-16451
▁뒤를	-16452
▁리버	-16453
▁막내	-16454
▁맛의	-16455
▁맥락	-16456
▁먹던	-16457
▁목도	-16458
▁물도	-16459
▁버블	-16460
▁버터	-16461
▁법정	-16462
▁변함	-16463
▁보급	-16464
▁복제	-16465
▁봐봐	-16466
▁부츠	-16467
▁분산	-16468
▁비서	-16469
▁사가	-16470
▁산을	-16471
▁삼계	-16472
▁식기	-16473
▁식료	-16474
▁실은	-16475
▁심어	-16476
▁역은	-16477
▁연도	-16478
▁예금	-16479
▁오락	-16480
▁울산	-16481
▁유닛	-16482
▁유혹	-16483
▁이달	-16484
▁자칼	-16485
▁잠도	-16486
▁재즈	-16487
▁적정	-16488
▁전복	-16489
▁제과	-16490
▁제정	-16491
▁조별	-16492
▁주류	-16493
▁주를	-16494
▁지체	-16495
▁첨단	-16496
▁체온	-16497
▁초반	-16498
▁치우	-16499
▁캐러	-16500
▁커트	-16501
▁팔이	-16502
▁펌프	-16503
▁편해	-16504
▁포럼	-16505
▁피는	-16506
▁한숨	-16507
▁해피	-16508
▁햇볕	-16509
▁화주	-16510
가지가	-16511
는지도	-16512
렸다고	-16513
속으로	-16514
스터를	-16515
시간씩	-16516
었다가	-16517
있나요	-16518
졌네요	-16519
하다니	-16520
했듯이	-16521
화되어	-16522
▁196	-16523
▁Fed	-16524
▁가방의	-16525
▁간격이	-16526
▁개선을	-16527
▁건으로	-16528
▁건축물	-16529
▁검색해	-16530
▁경비를	-16531
▁경찰관	-16532
▁계셔서	-16533
▁고맙게	-16534
▁골라서	-16535
▁공사를	-16536
▁국가는	-16537
▁귀여워	-16538
▁그려져	-16539
▁기념일	-16540
▁기술에	-16541
▁내일을	-16542
▁느낌의	-16543
▁다니기	-16544
▁다리에	-16545
▁도메인	-16546
▁돈가스	-16547
▁돌려보	-16548
▁동료가	-16549
▁되잖아	-16550
▁딱딱한	-16551
▁떠나기	-16552
▁레슨을	-16553
▁마케터	-16554
▁많이들	-16555
▁맞추는	-16556
▁매장의	-16557
▁먹는다	-16558
▁멋있어	-16559
▁모닝콜	-16560
▁모시고	-16561
▁문서가	-16562
▁뭐에요	-16563
▁뮤직비	-16564
▁밀려서	-16565
▁바뀌지	-16566
▁바지가	-16567
▁받으며	-16568
▁발전할	-16569
▁발표에	-16570
▁배달을	-16571
▁배송된	-16572
▁버전은	-16573
▁보다가	-16574
▁보다는	-16575
▁부분만	-16576
▁빌려줄	-16577
▁빌리고	-16578
▁사건의	-16579
▁사실에	-16580
▁사이클	-16581
▁산업의	-16582
▁상세히	-16583
▁설치가	-16584
▁성능을	-16585
▁성적에	-16586
▁세계로	-16587
▁세련된	-16588
▁섹시한	-16589
▁소금을	-16590
▁숙소는	-16591
▁시트를	-16592
▁않겠어	-16593
▁연주할	-16594
▁예측할	-16595
▁오늘을	-16596
▁우울한	-16597
▁은행을	-16598
▁이기는	-16599
▁이불을	-16600
▁인도에	-16601
▁입력한	-16602
▁자유의	-16603
▁자재를	-16604
▁접근을	-16605
▁정리할	-16606
▁제조업	-16607
▁지시를	-16608
▁진열된	-16609
▁진행된	-16610
▁찾아온	-16611
▁청소가	-16612
▁충전이	-16613
▁코멘트	-16614
▁타려고	-16615
▁투숙객	-16616
▁표면에	-16617
▁피우는	-16618
▁하겠어	-16619
▁할부로	-16620
▁항공기	-16621
▁허리를	-16622
▁현실이	-16623
시까지는	-16624
적이어서	-16625
포인트를	-16626
하였지만	-16627
▁가르치고	-16628
▁남들보다	-16629
▁다음주에	-16630
▁담당자를	-16631
▁당했어요	-16632
▁대부분을	-16633
▁되겠어요	-16634
▁드렸어요	-16635
▁마시면서	-16636
▁무시하고	-16637
▁번거롭게	-16638
▁법적으로	-16639
▁변경해야	-16640
▁볼거리가	-16641
▁사용자는	-16642
▁설치하는	-16643
▁수정하고	-16644
▁알려줘요	-16645
▁알려지지	-16646
▁어렵지만	-16647
▁없으세요	-16648
▁예상되는	-16649
▁올라가면	-16650
▁올해에는	-16651
▁외로움을	-16652
▁우리들은	-16653
▁운동화를	-16654
▁유용하게	-16655
▁이용해야	-16656
▁읽습니다	-16657
▁있더라도	-16658
▁자원봉사	-16659
▁적습니다	-16660
▁점이에요	-16661
▁제작하고	-16662
▁주문하는	-16663
▁중소기업	-16664
▁지루하지	-16665
▁집중하는	-16666
▁찍어주실	-16667
▁찾았어요	-16668
▁찾으려고	-16669
▁표합니다	-16670
▁필요성을	-16671
▁하려고요	-16672
▁해드리고	-16673
▁행복했던	-16674
▁공식적으로	-16675
▁괜찮은가요	-16676
▁그곳에서는	-16677
▁금요일에는	-16678
▁날이었어요	-16679
▁다양합니다	-16680
▁도착했는데	-16681
▁돌아갑니다	-16682
▁물었습니다	-16683
▁방식입니다	-16684
▁베트남에서	-16685
▁보시다시피	-16686
▁부탁할게요	-16687
▁사실이에요	-16688
▁상대방에게	-16689
▁선물입니다	-16690
▁선생님에게	-16691
▁설명하세요	-16692
▁스테이크를	-16693
▁아마존에서	-16694
▁업데이트해	-16695
▁여자입니다	-16696
▁여자친구는	-16697
▁이루어져야	-16698
▁인보이스와	-16699
▁재미있었어	-16700
▁진행하려고	-16701
▁컨테이너에	-16702
▁클라이언트	-16703
▁표시됩니다	-16704
▁하나이에요	-16705
▁결정했습니다	-16706
▁괜찮겠습니까	-16707
▁사람들입니다	-16708
▁아이템입니다	-16709
▁잃어버렸는데	-16710
▁게스트하우스에	-16711
▁발견되었습니다	-16712
▁말씀해주시겠어요	-16713
31	-16714
AD	-16715
ON	-16716
eb	-16717
▁눕	-16718
▁득	-16719
▁믹	-16720
감도	-16721
겨울	-16722
계에	-16723
그릇	-16724
디가	-16725
때는	-16726
루미	-16727
르몬	-16728
물질	-16729
박에	-16730
베리	-16731
부탁	-16732
생산	-16733
신의	-16734
씨를	-16735
예술	-16736
자나	-16737
전과	-16738
전쟁	-16739
제도	-16740
주간	-16741
쫀득	-16742
태를	-16743
품과	-16744
하늘	-16745
▁ED	-16746
▁Pl	-16747
▁QR	-16748
▁SM	-16749
▁가축	-16750
▁걔네	-16751
▁거치	-16752
▁고령	-16753
▁고모	-16754
▁국수	-16755
▁급속	-16756
▁날씬	-16757
▁넓고	-16758
▁놀랄	-16759
▁달간	-16760
▁데도	-16761
▁데미	-16762
▁두면	-16763
▁러브	-16764
▁로션	-16765
▁무용	-16766
▁미역	-16767
▁미워	-16768
▁민간	-16769
▁민속	-16770
▁바에	-16771
▁바우	-16772
▁받침	-16773
▁방치	-16774
▁배상	-16775
▁버는	-16776
▁복습	-16777
▁볶은	-16778
▁비를	-16779
▁비쌀	-16780
▁뽑는	-16781
▁살해	-16782
▁선도	-16783
▁세무	-16784
▁소량	-16785
▁식용	-16786
▁신생	-16787
▁신축	-16788
▁않나	-16789
▁알릴	-16790
▁양치	-16791
▁어필	-16792
▁억압	-16793
▁열대	-16794
▁요양	-16795
▁우정	-16796
▁이주	-16797
▁인디	-16798
▁잃을	-16799
▁잠겨	-16800
▁저건	-16801
▁접시	-16802
▁창립	-16803
▁찾게	-16804
▁축소	-16805
▁털어	-16806
▁테크	-16807
▁품고	-16808
▁학점	-16809
▁회를	-16810
▁휴지	-16811
가들은	-16812
관리를	-16813
납시다	-16814
다니는	-16815
으시는	-16816
읍시다	-16817
일수록	-16818
장까지	-16819
직으로	-16820
푸치노	-16821
해져요	-16822
▁건강히	-16823
▁것과는	-16824
▁결혼에	-16825
▁과일이	-16826
▁관세를	-16827
▁구매는	-16828
▁국가를	-16829
▁그려진	-16830
▁그룹은	-16831
▁극장에	-16832
▁금액과	-16833
▁기반을	-16834
▁끝나지	-16835
▁나무가	-16836
▁나왔던	-16837
▁노래방	-16838
▁노력과	-16839
▁놀다가	-16840
▁놀랐어	-16841
▁누르고	-16842
▁늘어난	-16843
▁능력과	-16844
▁다루고	-16845
▁담배는	-16846
▁됐으면	-16847
▁드리기	-16848
▁드셔도	-16849
▁들여다	-16850
▁뜻으로	-16851
▁뜻인지	-16852
▁로맨스	-16853
▁리포트	-16854
▁만족을	-16855
▁말인지	-16856
▁맛있고	-16857
▁문제야	-16858
▁반품을	-16859
▁발송해	-16860
▁밴쿠버	-16861
▁분야는	-16862
▁불가피	-16863
▁사라질	-16864
▁사시는	-16865
▁사이로	-16866
▁살펴보	-16867
▁선크림	-16868
▁성능이	-16869
▁성분을	-16870
▁속도는	-16871
▁시켜서	-16872
▁아프면	-16873
▁언제로	-16874
▁없었기	-16875
▁여름을	-16876
▁연락도	-16877
▁올라와	-16878
▁외롭지	-16879
▁음악의	-16880
▁이쁘게	-16881
▁일으킬	-16882
▁있었나	-16883
▁자려고	-16884
▁전략이	-16885
▁전자기	-16886
▁정해야	-16887
▁제한을	-16888
▁조정이	-16889
▁중요해	-16890
▁지급이	-16891
▁착하고	-16892
▁철저한	-16893
▁출장에	-16894
▁춤추는	-16895
▁캠핑을	-16896
▁커피에	-16897
▁클라이	-16898
▁타려면	-16899
▁편이라	-16900
▁포르투	-16901
▁하다니	-16902
▁하였고	-16903
▁하지요	-16904
▁해결될	-16905
▁해보자	-16906
▁해주길	-16907
▁해주지	-16908
▁현황을	-16909
▁확정된	-16910
▁휴대용	-16911
▁희망은	-16912
것입니다	-16913
살입니다	-16914
소입니다	-16915
적이지만	-16916
해줄게요	-16917
▁2011	-16918
▁가능할지	-16919
▁갔었는데	-16920
▁계약서는	-16921
▁고객들을	-16922
▁국내에서	-16923
▁금요일은	-16924
▁깜빡하고	-16925
▁느낌이야	-16926
▁늘어나는	-16927
▁대신해서	-16928
▁동물들이	-16929
▁둘러보고	-16930
▁듣기로는	-16931
▁들어가게	-16932
▁마케팅에	-16933
▁만나자고	-16934
▁만족스러	-16935
▁만족하는	-16936
▁문제점은	-16937
▁박물관은	-16938
▁반복해서	-16939
▁발생하여	-16940
▁변경하는	-16941
▁불가능할	-16942
▁사람인데	-16943
▁사랑으로	-16944
▁사항들을	-16945
▁살아가고	-16946
▁생각하여	-16947
▁세관에서	-16948
▁스케줄에	-16949
▁시내에서	-16950
▁시작되는	-16951
▁시작하게	-16952
▁아침밥을	-16953
▁없었지만	-16954
▁여성들이	-16955
▁연속으로	-16956
▁예전보다	-16957
▁원하세요	-16958
▁원활하게	-16959
▁이들에게	-16960
▁이어지는	-16961
▁이어폰을	-16962
▁적혀있는	-16963
▁제품인데	-16964
▁제품인지	-16965
▁좌석으로	-16966
▁주었으면	-16967
▁중국어로	-16968
▁줬습니다	-16969
▁직원들과	-16970
▁철저하게	-16971
▁친구라고	-16972
▁파악하고	-16973
▁파인애플	-16974
▁판매량이	-16975
▁평가하는	-16976
▁하는군요	-16977
▁하루빨리	-16978
▁해산물을	-16979
▁해주시는	-16980
▁홍보하는	-16981
▁확인되면	-16982
▁걱정했는데	-16983
▁결정했어요	-16984
▁고객사에서	-16985
▁공간입니다	-16986
▁관광객들이	-16987
▁기억하세요	-16988
▁들어왔어요	-16989
▁말씀드리고	-16990
▁생각하는지	-16991
▁생각하지만	-16992
▁싱가포르에	-16993
▁에이전시를	-16994
▁우체국에서	-16995
▁일어났어요	-16996
▁표현했어요	-16997
▁필요합니까	-16998
▁맛있었습니다	-16999
▁알려드리도록	-17000
▁알려주실래요	-17001
▁완료하였습니다	-17002
▁잃어버렸습니다	-17003
RP	-17004
ia	-17005
um	-17006
▁/	-17007
▁씩	-17008
개나	-17009
것은	-17010
더는	-17011
두에	-17012
랐어	-17013
미의	-17014
박을	-17015
벤져	-17016
안내	-17017
주얼	-17018
줄을	-17019
지며	-17020
창을	-17021
천에	-17022
팅이	-17023
호로	-17024
:00	-17025
▁99	-17026
▁MP	-17027
▁UI	-17028
▁가운	-17029
▁각기	-17030
▁거꾸	-17031
▁거품	-17032
▁고수	-17033
▁공제	-17034
▁광주	-17035
▁기종	-17036
▁남쪽	-17037
▁내장	-17038
▁놓지	-17039
▁눌렀	-17040
▁다름	-17041
▁대륙	-17042
▁대의	-17043
▁돈에	-17044
▁동계	-17045
▁동시	-17046
▁되요	-17047
▁두게	-17048
▁런칭	-17049
▁마칠	-17050
▁몰려	-17051
▁묶어	-17052
▁물려	-17053
▁바는	-17054
▁바위	-17055
▁발코	-17056
▁방출	-17057
▁복근	-17058
▁본질	-17059
▁볼링	-17060
▁불합	-17061
▁비참	-17062
▁상표	-17063
▁선반	-17064
▁수다	-17065
▁수천	-17066
▁수축	-17067
▁수확	-17068
▁식습	-17069
▁실린	-17070
▁아쿠	-17071
▁엄지	-17072
▁연방	-17073
▁열광	-17074
▁워드	-17075
▁원만	-17076
▁익스	-17077
▁익혀	-17078
▁임상	-17079
▁자란	-17080
▁재촉	-17081
▁잭슨	-17082
▁저에	-17083
▁정션	-17084
▁젖은	-17085
▁조달	-17086
▁조상	-17087
▁죽어	-17088
▁증진	-17089
▁직전	-17090
▁진공	-17091
▁쫓아	-17092
▁충동	-17093
▁침묵	-17094
▁타당	-17095
▁태평	-17096
▁튀긴	-17097
▁패드	-17098
▁편에	-17099
▁피를	-17100
▁한창	-17101
▁합류	-17102
겠으니	-17103
년도에	-17104
룹니다	-17105
보드를	-17106
분들은	-17107
어가고	-17108
업무를	-17109
였다면	-17110
으셔서	-17111
이군요	-17112
준다면	-17113
치료를	-17114
팀으로	-17115
형으로	-17116
활동을	-17117
▁000	-17118
▁700	-17119
▁OEM	-17120
▁가수의	-17121
▁감기가	-17122
▁걱정할	-17123
▁걸리니	-17124
▁겉모습	-17125
▁경우엔	-17126
▁계기로	-17127
▁계좌이	-17128
▁공급할	-17129
▁공장의	-17130
▁괜찮지	-17131
▁그렇다	-17132
▁그룹을	-17133
▁기름이	-17134
▁기술적	-17135
▁날마다	-17136
▁냈어요	-17137
▁놔두고	-17138
▁느낀다	-17139
▁다르고	-17140
▁단백질	-17141
▁대회가	-17142
▁댓글을	-17143
▁돌아간	-17144
▁말아라	-17145
▁말인데	-17146
▁먹거나	-17147
▁먹다가	-17148
▁모으는	-17149
▁물질을	-17150
▁방식에	-17151
▁배워서	-17152
▁번거롭	-17153
▁번호와	-17154
▁벚꽃이	-17155
▁보군요	-17156
▁보기를	-17157
▁보살펴	-17158
▁부위를	-17159
▁부유한	-17160
▁부족할	-17161
▁북한은	-17162
▁블루투	-17163
▁비율을	-17164
▁사기를	-17165
▁삼각형	-17166
▁상사가	-17167
▁설명은	-17168
▁소통할	-17169
▁수업의	-17170
▁순간은	-17171
▁쉬세요	-17172
▁승리를	-17173
▁시켜야	-17174
▁실수한	-17175
▁심플한	-17176
▁싸우고	-17177
▁싸움을	-17178
▁앨범을	-17179
▁억지로	-17180
▁없군요	-17181
▁영역을	-17182
▁오른손	-17183
▁온다는	-17184
▁외부에	-17185
▁요가를	-17186
▁요구에	-17187
▁욕구를	-17188
▁월급이	-17189
▁유학생	-17190
▁이점을	-17191
▁인간과	-17192
▁작지만	-17193
▁장거리	-17194
▁장례식	-17195
▁재입고	-17196
▁재킷을	-17197
▁전달을	-17198
▁전략적	-17199
▁전화기	-17200
▁정당한	-17201
▁제작된	-17202
▁좋으니	-17203
▁주나요	-17204
▁주식을	-17205
▁증가할	-17206
▁지구에	-17207
▁지식과	-17208
▁지어진	-17209
▁집들이	-17210
▁짜장면	-17211
▁참으로	-17212
▁청소는	-17213
▁치료가	-17214
▁친절히	-17215
▁칵테일	-17216
▁컬러는	-17217
▁코드가	-17218
▁코스는	-17219
▁크레딧	-17220
▁프라하	-17221
▁후회할	-17222
▁흔적이	-17223
▁힘들다	-17224
정입니다	-17225
하셨다면	-17226
▁가족끼리	-17227
▁금메달을	-17228
▁기계에서	-17229
▁기다리지	-17230
▁내년에도	-17231
▁늦어지고	-17232
▁다행이다	-17233
▁들어가도	-17234
▁디바이스	-17235
▁디저트는	-17236
▁리스트는	-17237
▁만나기를	-17238
▁매니저가	-17239
▁메시지로	-17240
▁목걸이를	-17241
▁문장으로	-17242
▁뮤지컬을	-17243
▁바릅니다	-17244
▁번거로우	-17245
▁변경해서	-17246
▁보고서에	-17247
▁보냈으면	-17248
▁불편하신	-17249
▁비교해서	-17250
▁비슷해요	-17251
▁사랑하게	-17252
▁사무실은	-17253
▁사무실이	-17254
▁서둘러서	-17255
▁스케이트	-17256
▁시점에서	-17257
▁쓰레기는	-17258
▁아마존에	-17259
▁얼마예요	-17260
▁오늘날의	-17261
▁올바르게	-17262
▁요청하면	-17263
▁이것보다	-17264
▁이미지로	-17265
▁이야기도	-17266
▁인간관계	-17267
▁있는지도	-17268
▁있는지를	-17269
▁있었네요	-17270
▁자부심을	-17271
▁적용하는	-17272
▁제거하고	-17273
▁제공하기	-17274
▁지났어요	-17275
▁지불하지	-17276
▁차지하고	-17277
▁찾아봐야	-17278
▁체크인이	-17279
▁초대하고	-17280
▁캐나다의	-17281
▁평소에도	-17282
▁평일에는	-17283
▁포르투갈	-17284
▁하나에요	-17285
▁햄버거를	-17286
▁환불받을	-17287
▁가져왔는데	-17288
▁걱정했어요	-17289
▁과학자들은	-17290
▁기숙사에서	-17291
▁기억합니다	-17292
▁깊었습니다	-17293
▁되었습니까	-17294
▁못하겠어요	-17295
▁방문합니다	-17296
▁부분적으로	-17297
▁빨간색으로	-17298
▁사람들한테	-17299
▁성격입니다	-17300
▁쇼핑몰에서	-17301
▁수요일까지	-17302
▁스페인어를	-17303
▁시작하세요	-17304
▁안전벨트를	-17305
▁않았습니까	-17306
▁어머니께서	-17307
▁예정이라고	-17308
▁오토바이를	-17309
▁이동합니다	-17310
▁이야기해요	-17311
▁자체적으로	-17312
▁제품인가요	-17313
▁지불하셔야	-17314
▁차이나타운	-17315
▁확인하도록	-17316
▁시간이었어요	-17317
▁이탈리아에서	-17318
▁준비해주세요	-17319
▁발생하였습니다	-17320
▁전화드렸습니다	-17321
▁프레젠테이션을	-17322
13	-17323
43	-17324
IM	-17325
RA	-17326
ff	-17327
ps	-17328
▁&	-17329
▁늑	-17330
▁롱	-17331
▁킴	-17332
▁팽	-17333
건의	-17334
결혼	-17335
겼다	-17336
끄럼	-17337
던가	-17338
돌이	-17339
러포	-17340
버가	-17341
번과	-17342
벌이	-17343
병이	-17344
보증	-17345
부턴	-17346
분들	-17347
불이	-17348
비도	-17349
웠을	-17350
적에	-17351
조의	-17352
종합	-17353
주택	-17354
찰을	-17355
코노	-17356
타입	-17357
탄을	-17358
해에	-17359
효율	-17360
one	-17361
▁38	-17362
▁FW	-17363
▁SS	-17364
▁in	-17365
▁개요	-17366
▁거실	-17367
▁걸음	-17368
▁검진	-17369
▁견뎌	-17370
▁견인	-17371
▁경청	-17372
▁계급	-17373
▁고요	-17374
▁고지	-17375
▁고품	-17376
▁글쓰	-17377
▁금이	-17378
▁꼬리	-17379
▁끈적	-17380
▁눈의	-17381
▁단속	-17382
▁단정	-17383
▁돌보	-17384
▁뒤면	-17385
▁들기	-17386
▁뜯어	-17387
▁마블	-17388
▁맞서	-17389
▁모퉁	-17390
▁묻은	-17391
▁미백	-17392
▁발사	-17393
▁배구	-17394
▁백만	-17395
▁백인	-17396
▁버린	-17397
▁볶아	-17398
▁불빛	-17399
▁비비	-17400
▁빼먹	-17401
▁삼각	-17402
▁색의	-17403
▁서브	-17404
▁섬에	-17405
▁세울	-17406
▁손질	-17407
▁수반	-17408
▁수사	-17409
▁수험	-17410
▁순위	-17411
▁쉬지	-17412
▁스모	-17413
▁식별	-17414
▁썰어	-17415
▁쓰실	-17416
▁아나	-17417
▁안을	-17418
▁압력	-17419
▁예고	-17420
▁외향	-17421
▁우는	-17422
▁위쪽	-17423
▁유령	-17424
▁의약	-17425
▁일제	-17426
▁자선	-17427
▁잡기	-17428
▁저하	-17429
▁정성	-17430
▁제때	-17431
▁죄를	-17432
▁지인	-17433
▁차도	-17434
▁커넥	-17435
▁탈퇴	-17436
▁토양	-17437
▁팔아	-17438
▁퍼져	-17439
▁피우	-17440
▁한도	-17441
갑시다	-17442
기간이	-17443
렸지만	-17444
베이스	-17445
봤지만	-17446
소리가	-17447
스러울	-17448
스트를	-17449
어야만	-17450
었으며	-17451
일이나	-17452
있네요	-17453
증으로	-17454
지도록	-17455
청에서	-17456
체스터	-17457
틀랜드	-17458
판으로	-17459
하시어	-17460
▁80%	-17461
▁EXO	-17462
▁가기를	-17463
▁가리지	-17464
▁가입을	-17465
▁갈등이	-17466
▁개발에	-17467
▁개선할	-17468
▁거꾸로	-17469
▁건너편	-17470
▁고구마	-17471
▁곳곳에	-17472
▁공원을	-17473
▁괜찮고	-17474
▁그곳이	-17475
▁그레이	-17476
▁기반의	-17477
▁김연아	-17478
▁나서는	-17479
▁나처럼	-17480
▁나타났	-17481
▁내려갈	-17482
▁내리기	-17483
▁노래에	-17484
▁누나가	-17485
▁뉴욕의	-17486
▁느껴지	-17487
▁다니며	-17488
▁단계는	-17489
▁단기간	-17490
▁당신들	-17491
▁두드려	-17492
▁등록한	-17493
▁등록할	-17494
▁똑바로	-17495
▁뛰어넘	-17496
▁라이트	-17497
▁런던에	-17498
▁마시며	-17499
▁먹어봐	-17500
▁무시할	-17501
▁반입이	-17502
▁방학을	-17503
▁배경이	-17504
▁배달해	-17505
▁배송에	-17506
▁보았어	-17507
▁분리수	-17508
▁비닐봉	-17509
▁빌려서	-17510
▁사정을	-17511
▁상상도	-17512
▁상태라	-17513
▁상황과	-17514
▁색상과	-17515
▁서류와	-17516
▁서울시	-17517
▁성격과	-17518
▁세계가	-17519
▁소녀의	-17520
▁소식은	-17521
▁스케치	-17522
▁시각에	-17523
▁시작이	-17524
▁신기한	-17525
▁심장을	-17526
▁아시는	-17527
▁아이라	-17528
▁아크릴	-17529
▁안정을	-17530
▁어깨가	-17531
▁여학생	-17532
▁열리지	-17533
▁영업부	-17534
▁영향에	-17535
▁예민한	-17536
▁예정된	-17537
▁오니까	-17538
▁올라온	-17539
▁우승을	-17540
▁이들을	-17541
▁이집트	-17542
▁인가요	-17543
▁일본이	-17544
▁있겠다	-17545
▁있지는	-17546
▁자체는	-17547
▁잡아서	-17548
▁적절히	-17549
▁전쟁이	-17550
▁전체의	-17551
▁절차에	-17552
▁정장을	-17553
▁주말은	-17554
▁준다는	-17555
▁지키고	-17556
▁진지한	-17557
▁짜증이	-17558
▁차량의	-17559
▁층으로	-17560
▁치마를	-17561
▁치수를	-17562
▁컨퍼런	-17563
▁크로스	-17564
▁타이틀	-17565
▁통과할	-17566
▁팀으로	-17567
▁퍼센트	-17568
▁펌웨어	-17569
▁프러포	-17570
▁필요도	-17571
▁필터를	-17572
▁항목은	-17573
▁행운의	-17574
▁행위는	-17575
▁호주의	-17576
▁환경은	-17577
로부터의	-17578
스러움을	-17579
시간이나	-17580
▁개발하는	-17581
▁경쟁력이	-17582
▁관계없이	-17583
▁구매자는	-17584
▁귀하께서	-17585
▁그러다가	-17586
▁기술적인	-17587
▁나올까요	-17588
▁내립니다	-17589
▁넘어져서	-17590
▁누르시면	-17591
▁도전하는	-17592
▁되어있어	-17593
▁매뉴얼을	-17594
▁문제라고	-17595
▁바꾸려고	-17596
▁반가워요	-17597
▁받아보고	-17598
▁방문했을	-17599
▁보내시길	-17600
▁보인다고	-17601
▁부장님이	-17602
▁불필요한	-17603
▁살았어요	-17604
▁세상에는	-17605
▁소고기를	-17606
▁시간표를	-17607
▁시원하게	-17608
▁시작했고	-17609
▁신청해야	-17610
▁실망하게	-17611
▁실제로는	-17612
▁안쪽으로	-17613
▁알겠지만	-17614
▁어떡해요	-17615
▁여유롭게	-17616
▁여행으로	-17617
▁연구하고	-17618
▁움직임이	-17619
▁웬만하면	-17620
▁유니폼을	-17621
▁인내심을	-17622
▁일치하지	-17623
▁일했어요	-17624
▁있었다는	-17625
▁정보들을	-17626
▁즐기면서	-17627
▁즐기세요	-17628
▁참고해서	-17629
▁처음이야	-17630
▁처음인데	-17631
▁촉촉하게	-17632
▁축하해요	-17633
▁친구예요	-17634
▁하더군요	-17635
▁함유되어	-17636
▁항공으로	-17637
▁홍콩으로	-17638
▁확인되지	-17639
해주셨으면	-17640
▁길거리에서	-17641
▁모습입니다	-17642
▁뮤직비디오	-17643
▁비밀번호가	-17644
▁비행기에서	-17645
▁사람에게는	-17646
▁소비자에게	-17647
▁스마트폰은	-17648
▁아시겠지만	-17649
▁알려줄래요	-17650
▁역사적으로	-17651
▁이야기하지	-17652
▁이제부터는	-17653
▁이탈리아의	-17654
▁재미있어요	-17655
▁좋아한다면	-17656
▁찍어주세요	-17657
▁첨부파일을	-17658
▁필요했어요	-17659
▁현실적으로	-17660
▁확인해주실	-17661
▁말하겠습니다	-17662
▁어려웠습니다	-17663
▁입력해주세요	-17664
▁재미있습니다	-17665
▁게스트하우스는	-17666
OM	-17667
▁귤	-17668
▁잼	-17669
▁쪄	-17670
▁톱	-17671
▁푼	-17672
결에	-17673
금에	-17674
날에	-17675
니의	-17676
더욱	-17677
두지	-17678
레를	-17679
바라	-17680
백만	-17681
백화	-17682
법의	-17683
분석	-17684
생이	-17685
셀러	-17686
싶은	-17687
압이	-17688
어리	-17689
영을	-17690
요리	-17691
자도	-17692
절에	-17693
조는	-17694
주차	-17695
판은	-17696
퍼는	-17697
표현	-17698
하든	-17699
히면	-17700
▁BB	-17701
▁ET	-17702
▁값은	-17703
▁개수	-17704
▁견디	-17705
▁곰팡	-17706
▁글이	-17707
▁꽂아	-17708
▁꽃은	-17709
▁끈을	-17710
▁날개	-17711
▁날려	-17712
▁놓친	-17713
▁늘고	-17714
▁닉네	-17715
▁다칠	-17716
▁당한	-17717
▁들릴	-17718
▁등등	-17719
▁또래	-17720
▁마다	-17721
▁막는	-17722
▁말과	-17723
▁말의	-17724
▁명품	-17725
▁무궁	-17726
▁무더	-17727
▁미흡	-17728
▁반을	-17729
▁발굴	-17730
▁벗고	-17731
▁베를	-17732
▁변한	-17733
▁부장	-17734
▁비공	-17735
▁빛의	-17736
▁빵은	-17737
▁상실	-17738
▁선명	-17739
▁소홀	-17740
▁수련	-17741
▁스톤	-17742
▁시식	-17743
▁신라	-17744
▁싶니	-17745
▁싸울	-17746
▁아리	-17747
▁악기	-17748
▁앓고	-17749
▁약혼	-17750
▁얇게	-17751
▁양성	-17752
▁영구	-17753
▁옆의	-17754
▁웃긴	-17755
▁절단	-17756
▁절벽	-17757
▁줄도	-17758
▁줄리	-17759
▁직후	-17760
▁집합	-17761
▁짧아	-17762
▁초음	-17763
▁카우	-17764
▁칼슘	-17765
▁컵에	-17766
▁탔어	-17767
▁편은	-17768
▁포착	-17769
▁프렌	-17770
▁하단	-17771
▁한결	-17772
▁해열	-17773
▁확연	-17774
년까지	-17775
니스트	-17776
루미늄	-17777
문에서	-17778
번째로	-17779
분이나	-17780
뿐만이	-17781
스럽다	-17782
였나요	-17783
층까지	-17784
하여서	-17785
회사의	-17786
▁AAA	-17787
▁간다는	-17788
▁경치를	-17789
▁경험한	-17790
▁계획한	-17791
▁국민의	-17792
▁그보다	-17793
▁극복할	-17794
▁기르는	-17795
▁김치찌	-17796
▁끝나기	-17797
▁나하고	-17798
▁노래와	-17799
▁담아서	-17800
▁담요를	-17801
▁대리점	-17802
▁더더욱	-17803
▁도자기	-17804
▁동대문	-17805
▁동의할	-17806
▁동전을	-17807
▁되겠다	-17808
▁되려면	-17809
▁되었던	-17810
▁떠나야	-17811
▁마을을	-17812
▁매사에	-17813
▁머무르	-17814
▁먹이를	-17815
▁명령을	-17816
▁명함을	-17817
▁모델과	-17818
▁무대에	-17819
▁무한한	-17820
▁밀접한	-17821
▁바꿔도	-17822
▁바지는	-17823
▁박스가	-17824
▁반대쪽	-17825
▁반으로	-17826
▁발급받	-17827
▁발송한	-17828
▁발전이	-17829
▁변하는	-17830
▁보거나	-17831
▁보내실	-17832
▁부품은	-17833
▁북한이	-17834
▁분야가	-17835
▁사세요	-17836
▁사이버	-17837
▁사장이	-17838
▁성격의	-17839
▁성과가	-17840
▁성형수	-17841
▁세계대	-17842
▁손상이	-17843
▁숙소로	-17844
▁숫자가	-17845
▁스위트	-17846
▁승무원	-17847
▁식사에	-17848
▁신뢰가	-17849
▁신속히	-17850
▁아끼는	-17851
▁아내를	-17852
▁아무나	-17853
▁아울러	-17854
▁약국이	-17855
▁어땠어	-17856
▁어떨지	-17857
▁어벤져	-17858
▁여름은	-17859
▁영화로	-17860
▁예술을	-17861
▁오도록	-17862
▁오랜만	-17863
▁완료할	-17864
▁원했던	-17865
▁위스키	-17866
▁의상을	-17867
▁의하여	-17868
▁이슈는	-17869
▁인천아	-17870
▁일전에	-17871
▁읽어야	-17872
▁자료와	-17873
▁자체로	-17874
▁작업할	-17875
▁적응을	-17876
▁정책은	-17877
▁제작에	-17878
▁조심해	-17879
▁졸업할	-17880
▁좋나요	-17881
▁주차할	-17882
▁중국이	-17883
▁지급할	-17884
▁지점에	-17885
▁지켜보	-17886
▁직전에	-17887
▁찾기가	-17888
▁초안을	-17889
▁출장은	-17890
▁키보드	-17891
▁타이밍	-17892
▁태워다	-17893
▁통관이	-17894
▁퇴근할	-17895
▁트래픽	-17896
▁티브이	-17897
▁판단할	-17898
▁품목을	-17899
▁하기가	-17900
▁해줄게	-17901
▁해줘야	-17902
▁호텔과	-17903
▁화제가	-17904
▁힘들면	-17905
되었지만	-17906
하려는데	-17907
▁강합니다	-17908
▁것이라면	-17909
▁것일까요	-17910
▁경기장에	-17911
▁그랬는데	-17912
▁끊임없는	-17913
▁나오네요	-17914
▁놓으세요	-17915
▁뉴스에서	-17916
▁대해서만	-17917
▁떠납니다	-17918
▁만납니다	-17919
▁만납시다	-17920
▁만들려고	-17921
▁맞은편에	-17922
▁매장으로	-17923
▁미안하게	-17924
▁반짝이는	-17925
▁배송으로	-17926
▁변호사가	-17927
▁선택하고	-17928
▁설치하고	-17929
▁수학여행	-17930
▁스티커가	-17931
▁시끄러운	-17932
▁아침마다	-17933
▁알루미늄	-17934
▁어떻게든	-17935
▁없으시면	-17936
▁연락하면	-17937
▁영화배우	-17938
▁예전처럼	-17939
▁오전에는	-17940
▁이기적인	-17941
▁읽으면서	-17942
▁자동차에	-17943
▁작성하는	-17944
▁작습니다	-17945
▁적절하게	-17946
▁정해지면	-17947
▁조그마한	-17948
▁지날수록	-17949
▁지내세요	-17950
▁진행해요	-17951
▁찾겠어요	-17952
▁책이에요	-17953
▁체크인은	-17954
▁추천해줄	-17955
▁축하하고	-17956
▁카테고리	-17957
▁캐나다로	-17958
▁케이스가	-17959
▁테스트해	-17960
▁통화하고	-17961
▁틀림없이	-17962
▁파스타를	-17963
▁파티에서	-17964
▁함유하고	-17965
▁헬스장에	-17966
▁활발하게	-17967
▁휴대폰이	-17968
놓았습니다	-17969
대학교에서	-17970
시겠습니까	-17971
▁1,500	-17972
▁8,000	-17973
▁것뿐이에요	-17974
▁경기장에서	-17975
▁괜찮으시면	-17976
▁내비게이션	-17977
▁네트워크를	-17978
▁노력할게요	-17979
▁만족스러운	-17980
▁부탁드리고	-17981
▁불렀습니다	-17982
▁세웠습니다	-17983
▁예상합니다	-17984
▁원했습니다	-17985
▁유치원에서	-17986
▁이루어지고	-17987
▁이용하세요	-17988
▁이탈리아에	-17989
▁이해하려고	-17990
▁주문하도록	-17991
▁집중적으로	-17992
▁참고하시기	-17993
▁찾아볼게요	-17994
▁프라이팬에	-17995
▁한국인들이	-17996
▁해주시나요	-17997
해주었습니다	-17998
▁구매했습니다	-17999
▁이야기이에요	-18000
▁이해했습니다	-18001
▁인천국제공항	-18002
▁포장해주세요	-18003
▁사용되었습니다	-18004
▁진행되었습니다	-18005
21	-18006
MC	-18007
hn	-18008
ht	-18009
ud	-18010
▁쑥	-18011
▁져	-18012
▁켄	-18013
끼를	-18014
너를	-18015
당의	-18016
더러	-18017
동의	-18018
돼야	-18019
매는	-18020
분쯤	-18021
세에	-18022
셀로	-18023
오의	-18024
워드	-18025
월은	-18026
음료	-18027
재는	-18028
줄래	-18029
차례	-18030
차와	-18031
책에	-18032
키를	-18033
타를	-18034
톨릭	-18035
통의	-18036
한지	-18037
항을	-18038
화장	-18039
▁72	-18040
▁CF	-18041
▁CN	-18042
▁ES	-18043
▁EU	-18044
▁FC	-18045
▁감탄	-18046
▁개에	-18047
▁거냐	-18048
▁거칠	-18049
▁게재	-18050
▁겪어	-18051
▁고집	-18052
▁광택	-18053
▁괴로	-18054
▁구내	-18055
▁길드	-18056
▁깊어	-18057
▁끼친	-18058
▁나비	-18059
▁날인	-18060
▁남부	-18061
▁느리	-18062
▁단호	-18063
▁닭을	-18064
▁닿는	-18065
▁대왕	-18066
▁더치	-18067
▁도심	-18068
▁도우	-18069
▁드물	-18070
▁뛰는	-18071
▁라스	-18072
▁마디	-18073
▁만져	-18074
▁맛에	-18075
▁매입	-18076
▁면도	-18077
▁목을	-18078
▁미터	-18079
▁밀착	-18080
▁발신	-18081
▁법칙	-18082
▁벤처	-18083
▁복무	-18084
▁봤다	-18085
▁불닭	-18086
▁비틀	-18087
▁비품	-18088
▁빌어	-18089
▁빼는	-18090
▁샀던	-18091
▁색칠	-18092
▁서면	-18093
▁성을	-18094
▁성탄	-18095
▁세라	-18096
▁소장	-18097
▁수유	-18098
▁수저	-18099
▁숙녀	-18100
▁스펀	-18101
▁쌓을	-18102
▁안겨	-18103
▁않네	-18104
▁여신	-18105
▁연상	-18106
▁오케	-18107
▁오키	-18108
▁옷과	-18109
▁용량	-18110
▁운용	-18111
▁원가	-18112
▁유선	-18113
▁유심	-18114
▁잃게	-18115
▁입체	-18116
▁자문	-18117
▁재검	-18118
▁재직	-18119
▁정이	-18120
▁제인	-18121
▁제철	-18122
▁져야	-18123
▁주황	-18124
▁직사	-18125
▁차근	-18126
▁쳐서	-18127
▁초보	-18128
▁최상	-18129
▁취합	-18130
▁침입	-18131
▁칸에	-18132
▁쿠션	-18133
▁텍사	-18134
▁토크	-18135
▁토핑	-18136
▁트랜	-18137
▁팀과	-18138
▁포크	-18139
▁피트	-18140
▁한층	-18141
▁확답	-18142
▁후드	-18143
년간의	-18144
드렸고	-18145
들끼리	-18146
물질이	-18147
분들께	-18148
사진을	-18149
시기를	-18150
시는지	-18151
시장에	-18152
아이는	-18153
주의를	-18154
테이션	-18155
해졌어	-18156
▁220	-18157
▁DVR	-18158
▁가구를	-18159
▁가슴에	-18160
▁감정은	-18161
▁검토가	-18162
▁경험에	-18163
▁계약의	-18164
▁고맙다	-18165
▁고치고	-18166
▁공원은	-18167
▁공정한	-18168
▁구성을	-18169
▁국물이	-18170
▁근처로	-18171
▁기쁘고	-18172
▁긴급한	-18173
▁노래의	-18174
▁노선이	-18175
▁높이기	-18176
▁놓으면	-18177
▁늘리는	-18178
▁달리는	-18179
▁독일에	-18180
▁됐는지	-18181
▁되리라	-18182
▁리스크	-18183
▁마셔야	-18184
▁만남이	-18185
▁멀어서	-18186
▁메뉴에	-18187
▁메이저	-18188
▁문서의	-18189
▁미안한	-18190
▁받나요	-18191
▁번역할	-18192
▁범죄가	-18193
▁보험에	-18194
▁부모의	-18195
▁부서로	-18196
▁불안해	-18197
▁비싼데	-18198
▁빌리는	-18199
▁사랑한	-18200
▁사진작	-18201
▁살게요	-18202
▁상관은	-18203
▁상반기	-18204
▁상상을	-18205
▁상쾌한	-18206
▁생산에	-18207
▁생활의	-18208
▁서명이	-18209
▁설명한	-18210
▁성실한	-18211
▁세금이	-18212
▁세심한	-18213
▁순서를	-18214
▁숫자는	-18215
▁스태프	-18216
▁신고할	-18217
▁신발에	-18218
▁신청이	-18219
▁싱가폴	-18220
▁아들과	-18221
▁안부를	-18222
▁애인이	-18223
▁어제도	-18224
▁업무와	-18225
▁없애는	-18226
▁옷들을	-18227
▁옷들이	-18228
▁왔네요	-18229
▁요소는	-18230
▁욕심이	-18231
▁용기에	-18232
▁이태원	-18233
▁인상이	-18234
▁인재가	-18235
▁일련의	-18236
▁장르의	-18237
▁장애를	-18238
▁재밌어	-18239
▁저만의	-18240
▁접근할	-18241
▁정말요	-18242
▁정상에	-18243
▁정중히	-18244
▁제거할	-18245
[...]
